Ġ t
h e
Ġ a
i n
e r
Ġt he
o n
r e
Ġ o
e d
n d
Ġ s
Ġ w
a t
o r
i s
e n
i t
a n
a r
a l
Ġ in
Ġo f
e s
Ġ c
Ġ f
Ġ b
a s
Ġ p
Ġa nd
in g
i c
r o
i on
Ġt o
Ġ m
l e
Ġ d
Ġ h
Ġ T
o u
Ġ S
Ġ A
i l
en t
Ġ C
Ġ 1
Ġ re
a m
s t
o m
e l
Ġ Ċ
o l
Ġ M
Ġ l
c t
Ġw as
a d
Ġ I
Ġ e
Ġ n
Ġt h
Ġ B
u r
ĠT he
Ġ "
Ġ H
i v
c h
e t
Ġ on
Ġf or
at ion
Ġ P
Ġ 2
l y
Ġ is
i d
c e
i r
i g
i m
o t
u s
Ġ g
u t
Ġa s
l a
t er
r a
it h
o w
Ġb e
Ġ R
Ġ D
Ġ1 9
er s
Ġs t
Ġ he
Ġ (
Ġ F
Ġw ith
u n
e m
Ġ L
Ġ2 0
is t
Ġ G
Ġ N
Ġb y
Ġ W
u l
t h
v er
Ġa t
Ġa l
Ġw h
' s
Ġ E
ro m
Ġa n
o s
Ġ J
a y
Ġc on
he r
u m
g e
Ġth at
ĠI n
r i
es t
Ġ O
Ġf rom
Ġd e
o p
Ġs e
o c
Ġp ro
Ġ v
Ġc om
a in
Ġ it
p e
it y
i f
o d
a c
a nd
b er
ar t
re s
at e
a v
i es
u p
Ġh is
u d
Ġ K
Ġ U
or t
a b
e w
al l
i an
ar d
Ġo r
s e
ic h
o re
at ed
l d
u b
i a
ig h
a k
q u
il l
Ġa re
er e
i p
es s
Ġ r
a g
an t
Ġ20 1
m ent
ĠS t
iv e
â Ģ
Ġc h
Ġe x
o v
ar y
Ġw ere
a p
u g
on g
i al
ĠH e
u nd
ou n
ou r
e ar
am e
ĠC h
as t
Ġwh ich
ct ion
Ġ le
re d
el l
in e
u st
o g
o st
s o
u c
0 0
is h
Ġ V
or d
Ġ y
ic al
t e
Ġs h
t her
Ġcom p
or k
Ġp la
t s
m er
c l
r an
Ġh ad
Ġ20 0
u e
ir st
Ġal so
p t
Ġ un
i e
it ion
Ġh as
u re
Ġ k
ou s
ĠI t
f f
Ġn ot
Ġf irst
ig n
f ter
am p
Ġw he
âĢ ĵ
Ġ1 8
er v
r ic
r y
o k
av e
p er
p ort
i z
Ġt e
om e
ĠU n
Ġa r
i re
r it
as s
igh t
id e
ow n
Ġcon t
Ġ us
he d
a re
on d
" ,
Ġ ro
at er
w o
Ġthe ir
Ġa d
Ġit s
Ġp art
ĠT h
ic e
m an
Ġa p
or y
Ġwh o
Ġre s
re e
e ct
ation s
Ġhe r
Ġc l
oun t
ation al
a ge
cl ud
) ,
Ġb ut
Ġy ear
ac k
ĠR e
Ġ 3
im e
t o
Ġpla y
an g
l ow
Ġ j
a ch
en ce
en s
Ġon e
ou nd
c c
la nd
" .
ul t
Ġa b
ou ld
i b
ou t
or n
ug h
ion s
re n
f er
al ly
ĠA l
o ver
r u
Ġa g
) .
Ġh ave
Ġp er
Ġin clud
Ġbe c
Ġt wo
w n
ter n
Ġre c
em ber
ur ing
Ġ Y
p h
Ġth is
o ol
ar k
Ġm an
ad e
at es
Ġbe en
k e
o in
i le
ub l
il d
Ġw ork
ĠS e
c es
ĠD e
ĠO n
f or
Ġ19 9
Ġo ther
c k
as ed
ol d
Ġs c
i ed
v el
Ġa fter
Ġ en
it ed
Ġcom m
a ct
ent s
w e
Ġd is
el y
u ch
or s
g h
ĠA r
ur n
Ġ im
l es
t ed
it e
ĠA s
a w
h ip
Ġs p
ch ool
Ġ up
Ġo ut
Ġd es
Ġo ver
ĠM ar
on e
Ġs he
on s
iv ers
c ed
ab le
res s
Ġn e
w ard
Ġs pe
is s
a il
ĠL e
Ġthe y
o y
in d
Ġof f
as e
Ġs erv
g an
Ġ ra
Ġ 4
at h
Ġn ew
os e
Ġl oc
ĠA n
Ġin to
an ce
Ġe v
Ġ und
in al
Ġal l
ing s
ou gh
Ġp re
ĠC om
p l
ĠN ew
ct ed
o b
Ġt ra
Ġfor m
ou th
Ġt ime
o od
Ġg ro
Ġe le
ic an
ro ugh
Ġ19 8
Ġc an
il m
Ġund er
as on
Ġse c
Ġc ol
ri b
i o
Ġk n
is hed
d u
il y
Ġ 5
w ay
Ġh im
Ġb u
Ġb et
i ous
Ġre g
n e
Ġp l
f t
or ld
ot h
r am
ol low
1 9
Ġw ould
Ġwhe n
t on
Ġyear s
Ġm ore
ic s
r al
ĠA mer
Ġwhe re
an s
ak e
Ġp ubl
or th
if e
Ġte am
Ġag ain
u al
Ġcon s
we en
Ġ19 7
in ce
Ġst ud
c ess
ar ly
r ad
ĠE n
Ġre t
Ġd uring
Ġre p
ic k
for m
Ġin d
en er
ol og
id ent
v e
Ġc ent
Ġo p
ĠTh is
o ok
Ġp r
ĠS he
d uc
at ing
Ġs ub
Ġm e
Ġs up
is ion
T he
Ġw e
Ġa ct
ran s
Ġon ly
Ġf ound
at ive
Ġp ol
ivers ity
Ġp e
o h
Ġ 6
Ġf ilm
Ġm ost
Ġas s
Ġbet ween
Ġin ter
Ġf am
i x
us e
Ġre le
r on
er ed
Ġ qu
c he
Ġat t
2 0
ĠS h
Â ł
Ġth ree
Ġa cc
over n
c ial
Ġap p
it ies
ou se
in s
ic t
Ġm ade
f ore
a h
Ġf ollow
Ġth rough
Ġ19 6
Ġf e
Ġc o
an y
Ġthe re
e nd
Ġre m
Ġl ater
i el
Ġse ason
. "
Ġp res
Ġs y
al s
p r
Ġthe n
ĠI nd
Ġthe m
a j
an k
oc k
ĠC ol
Ġre l
Ġus ed
Ġn um
ĠP ro
ar s
iv ed
Ġm ov
if ic
Ġd ist
Ġp op
Ġe nd
ro und
Ġab out
Ġsec ond
Ġs uch
Ġbec ame
o ot
ĠUn ited
a ce
i k
re at
oc i
am es
Ġs o
b all
an n
Ġkn own
t en
em b
ĠUn iversity
Ġs chool
Ġ Z
ĠAmer ican
Ġa c
a ir
vel op
a z
Ġin v
in n
Ġs ome
Ġth an
ul ar
Ġde f
Ġpro v
ar g
Ġin c
i er
Ġ ent
ur y
al e
ĠC on
Ġ19 4
o ber
ĠA t
e ver
j ect
Ġa m
Ġde c
at t
l ed
op le
Ġ 7
Ġbe ing
he n
Ġf our
Ġw ell
er m
in es
p os
Ġt rans
Ġrec ord
us ic
Ġc all
Ġ ed
t il
er ies
Ġinclud ing
em ent
Ġp os
ar l
ion al
at her
ĠA fter
Ġs et
b um
s on
Ã ©
Ġar t
un e
Ġ1 7
ist ory
ric t
Ġagain st
ro s
iel d
Ġap pe
Ġ19 5
iv er
Ġd ire
le y
ĠEn g
ĠS c
Ġd o
ct or
as h
Ġle ad
ar ri
ver y
are er
e p
i ew
ot her
Ġbe fore
Ġre ce
ow ever
i am
Ġs ing
u res
t ain
it s
Ġ 8
ĠF or
y s
ist s
Ġman y
Ġwh ile
Ġad d
Ġc re
Ġc ount
in a
e b
ter s
i red
is m
ĠM ay
Ġal bum
Ġs ign
ĠJ oh
00 0
t y
er n
Ġp h
Ġm ay
Ġ est
Ġs ur
Ġm ed
Ġun til
Ġgro up
ur ch
i ke
d er
Ġde velop
ag ue
st it
Ġo wn
overn ment
st em
ra ph
ur al
ĠCom m
ar n
Ġm ain
c y
is e
Ġb ro
ĠJ an
er man
Ġfam ily
Ġb oth
Ġw rit
ĠI s
en n
Ġh igh
ers on
ut e
il la
ow er
Ġpe ople
Ġo per
Ġplay ed
iz ed
Ġ1 0
Ġc ap
Ġsh ow
Ġ 9
Ġnum ber
Ġspe c
ĠC l
ĠB e
am ed
ĠT e
Ġf in
ĠF ran
Ġe m
ĠW orld
l l
v en
Ġm od
ut ion
t ing
a id
ĠSt ates
Ġn ame
Ġse ver
el f
Ġg o
v ed
Ġ Q
Ġn o
ĠJoh n
Ġor ig
ĠN ational
ĠJ u
Ġ1 5
Ġm et
Ġrele ased
Ġm on
Ġ1 6
Ġd ay
te nd
Ġbu ild
e k
ul ation
us s
u ro
Ġs ong
ction s
Ġare a
Ġ19 3
s h
Ġst art
Ġ âĢĵ
Ġd if
ĠA ust
Ġm in
Ġw on
Ġex p
Ġl ife
u ary
ug ust
ir d
Ġm at
Ġf l
Ġs eries
Ġg ener
Ġch ar
u ally
Ġoff ic
ĠN ov
ĠA d
Ġs m
is ter
Ġdes ign
Ġb ack
tern ational
Ġan n
iv es
g ram
ĠP h
c on
ra ct
pt ember
ĠB rit
ĠA ugust
Ġcomp le
Ġcall ed
ĠS p
Ġv ar
f ess
f ul
ĠG erman
ct ober
t he
ĠSe ptember
ĠW ar
Ġsever al
Ġl ong
ĠC ount
ĠMar ch
Ġsy stem
a use
Ġc areer
Ġop en
Ġr un
p le
Ġs ame
ĠS chool
Ġret urn
Ġfollow ing
u es
ĠH is
ce pt
Ġs uc
Ġpubl ic
e y
ĠW h
og raph
ĠS outh
Ġfe at
Ġo b
ĠJ une
im es
Ġe arly
Ġw ill
Ġcont in
aj or
ĠJan uary
Ġst ate
ĠC an
ĠO ctober
a x
m y
iss ion
en g
Ġc ity
ĠG e
x t
a i
ĠJu ly
Ġm usic
r id
Ġpro du
p or
Ġa ut
Ġor gan
Ġin t
it al
Ġcol le
pr il
i or
el s
ak ing
ro p
m ber
ul l
ab l
Ġbe gan
ĠThe y
ic ip
Ġthe se
amp ions
et s
duc ed
Ġ1 2
oot ball
ant s
st ru
is ed
Ġfor mer
olog y
om en
ar m
Ġus e
il t
ros s
iv ing
ĠA pril
id ed
u red
u ed
ra nd
b y
Ġg ame
Ġb el
v ent
Ġs ince
p ed
Ġch ild
en e
ment s
ce mber
i et
i um
Ġn ear
ĠNov ember
Ġto wn
Ġg overnment
ib le
Ġc ur
Ġj oin
ĠY ork
i ent
il ity
Ġan y
a red
ĠE uro
res ent
Ġrem ain
r ist
in ed
ĠC ent
an ge
ĠDe cember
ĠO r
ĠThe re
Ġhe ad
Ġp rom
ĠM e
ren t
Ġin f
Ġsup port
p art
Ġe ff
Ġloc ated
Ġcomm un
1 8
Ġcomp et
Ġl and
Ġa ir
Ġal ong
Ġhe ld
in k
ical ly
o ard
Ġb l
emb ers
Ġpla ce
Ġd id
ward s
Ġ '
Ġpro gram
a u
ar ch
Ġb ook
al es
om an
Ġp ass
Ġv illa
r is
ĠN orth
m in
Ġo cc
re t
Ġto ok
Ġcl ub
Ġe ach
la y
ĠP ol
Ġsm all
pe nd
ĠAl l
Ġloc al
ĠAs s
Ġt it
Ġp oin
Ġpop ulation
Ġn amed
Ġdes c
Ġd r
eb ru
Ġpol it
ebru ary
Ġdis c
ĠAust ral
Ġ &
âĢ Ļ
Ġdif fer
e c
o x
Ġs im
Ġm ember
Ġg u
Ġb and
ic a
Ġserv ed
ic es
ĠCount y
ro l
Ġh ouse
av ing
Ġst r
Ġ1 1
ĠF ebruary
Ġm ajor
ĠEuro pe
ampions hip
ĠBrit ish
Ġ1 4
ov e
Ġre v
m p
Ġh ome
ch n
a e
Ġcomp any
Ġest abl
ĠH owever
Ġ19 2
Ġsuc cess
Ġrece ived
Ġc ould
Ġf inal
ĠC ity
ill ion
Ġ1 3
y l
iv al
ĠM an
Ġ201 0
Ġin st
Ġst ation
Ġ $
Ġm embers
er y
Ġcl ass
ist or
Ġev ent
Ġb orn
Ġin s
Ġa ge
il it
ore d
ar ge
ĠP r
Ġw orld
Ġa round
ĠLe ague
a ugh
t le
b orn
a f
r ing
y n
at s
he s
at ely
ord ing
or m
Ġn ational
i ence
u la
Ġt r
Ġl ist
le t
at or
ĠSt ate
ĠU S
Ġt erm
ĠA m
Ġo ld
Ġbu ilt
Ġre port
er g
Ġl ine
Ġsing le
ĠW ill
Ġre f
Ġex t
b le
ian s
ĠCol le
la ck
m ed
Ġb us
c ent
Ġd ue
ition s
Ġd own
Ġen g
ĠG u
Ġre fer
Ġl ast
oun c
ĠD uring
Ġb ased
Ġhe l
in ess
th ough
h or
Ġ201 1
Ġchar act
Ġle ft
p ro
en ces
iv ision
an e
on y
al if
Ġn ow
ĠB ro
ĠA f
Ġinclud e
Ġcent ury
arri ed
Ġpro fess
Ġs ix
Ġde b
Ġl aw
ĠC o
ĠM in
ĠC ar
Ġc our
. .
os s
ĠI I
Ġapp ro
ent ly
Ġn orth
l ing
m e
ĠCan ad
Ġ( "
Ġspec ies
Ġs aid
che s
Ġwith in
Ġ -
al ity
i od
c er
ĠE d
h am
ĠK ing
ot t
Ġ19 1
Ġd et
Ġpubl ished
pe ct
Ġc amp
Ġde ath
re en
oun g
ĠD ist
ag es
Ġ201 2
Ġre st
Ġm ark
Ġto p
ĠW est
Ġf ive
Ġ âĢ
al th
un g
ĠH istory
Ġrep resent
Ġbec ause
g et
c o
ĠM on
igh ts
ĠE x
Ġd ied
Ġf ootball
Ġad v
ĠH er
Ġdesc rib
Ġv ers
at ic
Ġt y
Ġinclud ed
Ġl arge
ap an
Ġ201 4
Ġpres ent
uc k
le v
id es
Ġc ar
Ġcons id
Ġbuild ing
Ġre qu
b or
ro w
t al
in c
il le
re w
Ġvilla ge
ren ch
at ure
Ġ201 3
as ter
iv ely
ĠCh rist
qu e
z e
Ġcon f
as k
c om
od e
Ġs outh
2 1
Ġ201 5
Ġ201 6
Ġt ri
Ġth ird
d ay
Ġres ult
iv en
Ġed uc
om in
om et
Ġf ac
Ġl arg
es e
iz ation
Ġal low
es tern
ur g
ĠB ar
Ġle g
Ġ200 9
r ation
Ġp ost
Ġ200 8
ial ly
ie f
st er
ĠGe or
ĠH ar
Ġman ag
u ff
ĠS w
et y
l ish
us ed
Ġp erson
ĠJ apan
en cy
ĠM c
Ġinc re
p s
ĠRe g
v ious
ounc il
ed er
Ġper iod
Ġd em
Ġsh ort
la im
Ġmov ed
n er
Ġchild ren
re et
ĠF rench
ĠP art
Ġ201 8
Ġdiffer ent
Ġ201 7
Ġcur rent
Ġv is
ĠA nd
Ġj ust
ĠColle ge
Ġd ra
tend ed
Ġth ose
ĠA b
Ġ19 0
Ġ .
Ġst and
Ġst ill
Ġ2 5
Ġl it
oc ial
ang u
inn ing
Ġl ike
Ġann oun
Ġres p
al k
v es
Ġp o
Ġadd ition
Ġl ed
Ġt rad
ĠRe p
w ork
g ed
ĠE l
Ġs on
Ġc rit
Ġappe ar
Ġa v
Ġper form
Ã ¡
ĠP ar
ĠEng lish
in ing
Ġ201 9
Ġh istory
Ġw ater
Ġp ar
l u
ĠH igh
Ġis s
if ied
Ġ200 7
Ġc or
er ing
Ġan other
Ġ200 6
p ar
ay s
Ġe p
o ad
ĠA cc
ograph y
ĠWill iam
al f
s ide
Ġ if
Ġ very
ard s
ak es
ĠB y
v ers
Ġserv ice
Ġex per
ad em
Ġp ower
Ġw omen
Ġ3 0
ĠAf ric
ĠR uss
ĠP ark
ur s
id d
Ġw ar
iz e
Ġm en
am b
ond on
Ġcon stru
Ġdist rict
Ġe qu
ĠSe c
con om
Ġb est
Ġof ten
Ġpro ject
ri end
ĠP res
Ġle vel
Ġs ide
ĠA ir
ilit ary
Ġam ong
at a
rib ut
od y
l or
Ġmon th
Ġw in
et er
Ġm ake
Ġcount ry
Ġorig inal
Ġf ather
Ġh and
is on
n ess
Ġth ough
as es
Ġim port
f ord
ĠS y
ĠR es
" )
ĠM ed
ĠDist rict
Ġn on
c hed
ĠL ondon
Ġ18 9
att le
Ġ X
Ġl ate
an a
ĠIn ternational
u k
g es
ĠR iver
Ġp ort
Ġp at
Ġg ames
re ad
Ġ20 20
y le
Ġs old
ĠCom p
Ġbe g
Ġev en
Ġannoun ced
al d
ĠW hen
Ġl a
Ġstart ed
Ġh um
Ġc ame
Ġg rad
os p
um ent
Ġpre vious
ĠCh ampionship
pl oy
Ġor der
Ġestabl ished
Ġro le
ĠB l
ug g
in o
our n
Ġv ot
1 0
ru ct
Ġw ent
ĠD es
Ġtit le
Ġatt ack
ri es
Ġ el
Ġpos s
Ġm illion
Ġst at
Ġbus iness
ĠIt al
ne y
t i
ĠC or
ĠP l
Ġa ff
Ġe very
ing ton
e le
Ġa ward
Ġsh ip
Ġinv ol
Ġt urn
a ul
Ġact iv
um mer
ubl ic
lev ision
re st
pt ion
Ġapp oin
Ġf ore
ric k
Ġ2 4
Ġm uch
ur ther
Ġcharact er
ro te
Ġrep la
Ġto tal
ĠC up
Ġin it
Ġwh at
Ġc ult
Ġre se
ĠN e
Ġk ill
am ent
Ġf ield
on es
e pend
Ġ ,
Ġwork ed
Ġ es
Ġeff ect
Ġtra ck
ĠD av
Ġcont ain
s p
Ġjoin ed
oci ation
s c
ra y
Ġdeb ut
Ġorig in
Ġch ang
Ġcomm on
Ġcl os
Ġv al
Ġte chn
ĠAn g
Ġwe ek
ĠH ouse
Ġy oung
Ġr ad
Ġaut hor
Ġro und
ener al
um b
rid ge
Ġd el
Ġc r
an c
en se
Ġprom ot
Ġf act
min ist
Ġs ol
Ġh istor
ĠPh il
part ment
Ġvar ious
he m
Ġs k
Ġbec ome
Ġar ch
are n
re g
ar a
Ġs it
ĠOn e
o f
Ġdevelop ment
ord s
ĠS up
l er
Ġc over
ĠS an
ĠEng land
Ġspe cial
Ġm arried
Ġg en
Ġcont rol
Ġg iven
s k
for man
Ġpro cess
Ġcommun ity
Ġne xt
n a
Ġh aving
d e
ac hed
pos ed
ĠThe se
her n
Ġdescrib ed
Ġf re
Ġreturn ed
Ġf ew
Ġt w
Ġc er
Ġdef e
Ġc laim
m it
Ġ2 1
Ġ18 8
s elf
is c
m s
ra ft
ĠE ast
et h
ĠT r
iv id
Ġgener al
ĠB r
Ġpro duced
Ġp ain
c ast
Ġele ction
ĠW ith
Ġm ag
a ff
Ġf em
i ber
ĠInd ian
av y
Ġus ing
Ġg r
Ġstud ents
Ġw rote
Ġpro te
Ġcre ated
oci ety
as tern
op h
Ġl angu
b r
Ġplay er
o ff
ap p
ĠW e
Ġin ternational
op s
l in
Ġt ake
Ġc a
ĠF rom
ort hern
ron t
Ġt em
Ġ20 00
Ġb re
Ġs ent
se qu
om b
land s
Ġpolit ical
Ġ200 5
ĠAcc ording
Ġpos ition
Ġbe h
Ġw ay
or ies
Ġpr im
Ġh owever
l ine
t a
il ar
iv il
e ad
Ġcomp os
h old
Ġh ig
ir c
o on
Ġre n
Ġpop ular
oy al
ent ion
Ġf un
âĢ Ķ
Ġele ct
ĠCh urch
Ġcontin ued
ur b
ou ther
Ã ³
l t
ĠP e
f ield
og n
est ed
Ġex amp
us h
Ġprodu ction
ak en
5 0
Ġh ost
Ġra il
Ġwrit ten
Ġg reat
outher n
ĠL a
ĠAr t
ĠD em
Ġwork s
Ġmat ch
est s
Ġne ed
Ġ18 6
ĠA c
Ġpart ic
Ġ2 2
ĠEurope an
a pe
Ġv ide
ĠInd ia
Ġpart icip
ĠG ro
Ġs ite
Ġch urch
ir on
Ġt imes
Ġper forman
o le
un icip
Ġs l
ĠAustral ia
b e
1 7
2 00
Ġa ver
Ġreg ion
Ġform ula
g t
ivid ual
ĠPres ident
Ġ2 3
ĠP er
ĠC ouncil
Ġp ract
ĠAr my
ĠN o
Ġ1 00
ĠPart y
ĠM ich
and er
h a
an ces
ĠP ort
Ġm ilitary
Ġdire ct
Ġro ad
Ġp ri
ot s
Ġint ro
Ġl ab
Ġoffic ial
ĠFran ce
Ġ [
it or
Ġwith out
le ct
form ation
ĠSt e
ĠSt reet
Ġs qu
ĠCh ar
im ent
Ġf ull
Ġ200 4
ate g
Ġ 0
h ib
Ġatt em
ĠC our
stit ute
ĠR oman
Ġconsid ered
ĠB el
port s
use um
Ġday s
Ġte levision
Ġl ost
Ġbro ther
Ġind ust
Ġ18 7
Ġvers ion
Ġopen ed
Ġpres ident
Ġep is
ount ain
et work
Ġt er
ell ow
Ġfound ed
in ation
it te
Ġeduc ation
ĠT ra
ĠG eneral
y ear
ĠA ct
l ess
v iew
Ġrese arch
Ġcom b
v ille
ĠD ivision
ĠM al
Ġprofess ional
Ġ ident
ree k
Ġf riend
ĠE m
ĠS ch
re m
Ġs w
ĠG l
Ġl im
our s
at ter
y ing
alif orn
Ġbro ad
ĠA g
Ġh alf
Ġs ocial
Ġappoin ted
Ġdis p
Ġpro per
Ġf urther
Ġsign ed
Ġele cted
Ġpart y
olog ical
Ġrecord ed
Ġinf lu
in t
ol ution
Ġeng ine
' t
Ġd augh
u el
am a
ers hip
aliforn ia
ĠH ol
Ġde p
Ġm ult
ic o
re am
1 2
Ġimport ant
get her
Ġto gether
Ġre al
Ġv ol
Ġinv est
Ġb as
Ġv iew
Ġde g
Ġappe ared
a ign
Ã Ń
Ġsim ilar
Ġr ight
o or
Ġ2 6
Ġind ividual
Ġf ind
Ġe conom
er a
ĠRe c
Ġgrad u
ĠC alifornia
Ġst ory
ĠN or
is ing
e e
Ġ2 8
Ġpr iv
ly mp
Ġst ruct
pe cial
Ġe ast
ke y
ĠQ ue
ĠTh om
ĠJ ames
Ġ2 7
ĠCanad a
Ġform ed
ab ly
ĠB ra
Ġare as
p ing
b s
1 6
Ġh old
ĠAmer ica
Ġpoin t
u it
Ġf und
Ġm id
ĠGeor ge
ĠS m
ish ing
Ġw ife
ĠV al
ĠO lymp
Ġgro w
Ġwork ing
ens us
im ately
ĠE arly
le x
fer ence
Ġim p
v an
1 5
Ġof fer
d om
Ġtrad ition
Ġl ess
Ġteam s
ĠA p
ĠWh ile
ar i
s hip
Ġme et
Ġreport ed
ĠR ober
âĢ Ŀ
Ġk e
Ġw est
ĠAss ociation
Ġ199 0
op e
Ġm aking
ĠM or
Ġ20 21
ac y
ĠUn ion
Ġd est
u le
ĠP al
Ġre ad
Ġv ict
B C
Ġdevelop ed
Ġrele ase
id ence
Ġl ow
it her
an ish
pl ic
Ġd iv
Ġoff ice
, "
ĠB er
e x
Ġrev iew
Ġdire ctor
Ġh on
ain ed
ut es
n ing
Ġaver age
Ġg ood
Ġvide o
Ġco ach
ra p
Ã ¼
n ect
w h
ap er
Ġcon d
Ġn ov
Ġar r
Ġem ploy
it ect
i ol
Ġt en
ir l
Ġexamp le
Ġh ous
ol l
Ġpoin ts
o e
ĠCl ub
Ġc ase
ĠR oyal
Ġad minist
Ġsign ific
Ġf ail
ill s
al t
g round
Ġ200 3
itte e
Ġg l
m ost
Ġsh ould
ĠâĢ ľ
il es
idd le
Ġty p
Ġother s
Ġcon c
arl iam
ĠR ich
Ġgro und
Ġex ist
Ġr ank
ell s
Ġst ar
t ar
Ġhim self
Ġra ce
Ġav ail
c ing
oc r
it ive
Ġac ross
ourn al
Ġrec ogn
Ġplay ing
Ġrel ations
Ġserv ices
ĠGerman y
ĠL ou
p ite
arliam ent
ĠA ward
Ġm ater
Ġpro duc
ĠQ u
ific ation
Ġla un
way s
Ġind epend
Ġev ents
u f
at ch
Ġro ck
at ors
Ġdo es
Ġmod ern
Ġg et
Ġm other
ĠS en
g er
ĠR oad
Ġne ver
m a
Ġ( )
i us
Ġ198 0
ri e
Ġsuccess ful
ĠO ther
ol ic
ĠD r
Ġal though
n ow
ant ed
Ġst yle
id ing
ĠH all
ĠAustral ian
Ġh y
k s
Ġbel ie
it ing
Ġ200 2
v al
Ġb ody
Ġl iving
y a
Ġm ot
r ated
Ġstr ong
est ival
Ġc le
Ġcamp aign
ec ut
Ġ2 9
Ġhum an
Ġs uff
ĠCour t
Ġt ro
Ġl ive
g o
ce ed
Ġf oc
Ġle ague
c raft
ens ive
Ġc ast
ĠS ome
ign ed
Ġse par
Ġ200 1
Ġfin ished
ul ts
3 0
nd er
ĠP aul
Ġ ide
Ġh ow
1 4
i j
ĠR ed
Ġass ist
Ġor d
Ġmonth s
m ing
on t
Ġs omet
ĠK h
Ġfollow ed
ĠAc adem
ĠF irst
ist ic
a el
il i
Ġm y
ĠComp any
Ġg ave
wo od
Ġdaugh ter
Ġc ost
ĠDav id
Ġr ul
Ġb lack
Ġf ree
Ġa way
ough t
ĠCh ina
ĠGro up
ĠH en
ch ie
Ġf ire
w est
Ġperform ed
her s
ĠP ri
Ġavail able
ip p
Ġb ase
ĠSt ud
Ġconstru ction
Ġlangu age
Ġm unicip
Ġcomple ted
eder al
Ġbec om
Ġl ight
one y
Ġremain ed
ĠM ary
Ġc ross
ĠO ff
he l
Ġcont ract
ib r
ĠM usic
C A
Ġt aken
en ed
ic le
ent ial
Ġle t
a ut
Ġag re
ĠCent ral
Ã ¶
Ġ197 0
ĠR ail
Ġac qu
m en
1 3
Ġto ur
b and
ĠN ot
c le
ar th
il ities
ĠMe x
Ġde v
Ġdesign ed
Ġim pro
e h
ĠP at
Ġon ce
Ġsong s
ĠDe partment
osp ital
Ġs our
Ġattem pt
Ġmark et
Ġass oci
Ġp ut
and ing
en ced
Ġplay ers
Ġprodu ct
a ur
Ġhel p
g ress
.. .
Ġinclud es
all s
st on
Ġfeat ures
Ġsignific ant
t ime
stit ut
Ġlarg est
ĠW ash
Ġse ven
at ural
ĠB lack
ĠAl though
Ġph ys
Ġex pl
ĠS ince
Ġthrough out
Ġmater ial
ra g
b urg
Ġstud y
Ġd oc
v iron
ĠM art
i que
ĠIs land
h od
er t
ĠJapan ese
Ġc irc
e al
Ġ5 0
ag o
Ġperforman ce
Ġorigin ally
Ġhouse hold
ra in
ell ing
Ġen c
ud e
Ġe ight
. ,
Ġre d
le g
ul arly
Ġp ress
ines e
Ġse le
Ġgo al
he st
ĠU K
Ġf low
Ġe arn
Ġlead ing
Ġfeat ured
ĠM ac
ab ility
it z
Ġs ugg
Ġd am
Ġschool s
ĠS erv
c is
Ġtra ining
at ory
Ġgroup s
il ies
Ġcon du
ĠCent er
Ġaward ed
Ġin j
Ġb oard
ĠT o
Ġm ust
ad es
Ġcons ist
az ine
ri an
et t
Ġt re
k m
ar ies
Ġe arl
is l
Ġinvol ved
Ġdire cted
o res
Ġacc ess
ag ed
Ġse en
em ents
ĠT own
Ġcurrent ly
ĠB ay
ĠS am
b ack
Ġfor ces
Ġrel ig
ĠC ong
ĠW estern
Ġ199 9
Ġhe alth
Ġsub sequ
f ic
Ġf ront
c ri
ro y
Ġb ank
Ġpro t
du ction
Ġevent ually
ĠT ur
Ġlit er
1 1
ĠWash ington
Ġpro ble
ra b
Ġst age
ĠIn stitute
ar ter
ĠL aw
i ers
he re
ĠE duc
ĠI ts
Ġpl an
ach ing
as ons
ĠPro v
ĠV ir
Ġent ire
Ġph ot
Ġto urn
ĠB i
Ġb o
mer cial
Ġab le
ĠC ap
ĠJ ew
at ives
ĠJ ack
im ate
g in
er ous
Ġin formation
ĠThom as
Ġm ar
ain t
Ġt est
ĠM ag
ĠMin ister
ĠJ e
Ġst ated
ĠS er
ar ian
Ġc and
ak er
ĠS ociety
an i
as ing
ĠG r
Ġn etwork
Ġw id
y m
Ġadd ed
Ġcount ries
Ġre b
Ġs ound
overn or
om m
Ġc ou
Ġresp ons
Ġrad io
ĠC ath
Ġpriv ate
air s
al a
eng th
Ġ z
Ġrepla ced
Ġtrans fer
ĠRober t
ĠComm un
Ġwh ite
ĠM ad
ber g
Ġan im
om s
ĠS ing
ĠChrist ian
C h
Ġ196 0
Ġcour t
ĠAfric an
ict ion
ĠCh inese
w are
Ġr ange
ran ch
Ġprov ided
Ġarch itect
Ġcompet ition
Ġcol la
Ġepis ode
se c
ĠChar les
ĠF l
ĠAng el
Ġp ark
inc ip
Ġdeg ree
ic ated
Ġkn ow
he ad
Ġcl ose
ĠCanad ian
ĠS im
Ġnov el
Ġmod el
ĠF ilm
ĠA lex
Ġpol ic
19 9
Ġ199 8
ber t
Ġy ou
Ġs aw
h ood
Ġp ast
Ġ18 5
ĠRuss ian
Ġst ri
Ġre ached
id a
ĠAcadem y
ĠT rans
Ġst ates
Ġe ither
Ġcap t
Ġkill ed
Ġf ight
Ġcent ral
Ġfour th
erg y
em or
Ġcomm and
Ġpol ice
Ġcolle ge
rough t
viron ment
e v
Ġs em
Ġsur v
Ġb i
ĠB ut
Ġc ivil
Ġan al
Ġw ind
Ġ18 4
Ġd ou
Ġle ast
at re
Ġl oss
Ġf av
Ġres pect
Ġa chie
Ġab ove
ĠS al
ĠCon t
ĠG rand
s y
ud d
s el
ĠItal ian
b our
o ice
Ġsub ject
Ġcrit ic
Ġm us
ĠI r
med i
ĠL at
ĠT V
r ight
Ġp ur
Ġs en
Ġst e
Ġ Ã
Ġappro x
Ġa ud
Ġsit u
Ġus ually
Ġb ar
id s
ist ry
ĠSc ott
Ġocc ur
Ġ3 1
Ġdisc over
Ġ199 6
re y
Ġsp ace
Ġsc ored
ĠM et
ĠR ad
Ġdec ided
ĠLou is
re l
Ġ ill
Ġh it
ĠM iss
ĠG reat
Ġinter est
ĠAfric a
Ġse e
Ġch ange
Ġle arn
Ġpla ced
Ġexp ress
Ġat tended
Ġcand id
Ġt reat
b oard
ĠC ons
ĠM ark
Ġr ights
p on
ĠDem ocr
S t
ut ure
Ġup on
Ġar g
ĠEduc ation
od es
ĠWh ite
ap t
Ġ4 0
Ġ199 7
ĠV ict
Ġcap ital
Ġv iol
Ġshow s
Ġtra vel
p ly
ĠSp anish
Ġcont ribut
us es
av al
v ing
k y
Ġmed ia
Ġintro duced
ĠC areer
Ġl o
cept ion
Ġp ot
Ġme an
it ch
s erv
Ġpl ant
Ġc op
ish op
ĠTe x
Ġeff ort
ĠD on
Ġf if
em s
Ġcent er
ĠAr ch
i ation
r up
Ġme as
Ġn ight
r d
al ed
Ġcon nect
t t
ĠF ollow
Ġc ensus
ab it
if f
ic ian
k a
rib ution
ann el
Ġf ig
ur ity
Ġprov ide
emb ly
ĠM us
Ġpre m
ĠG reen
Ġair craft
Ġs ay
ĠSec ond
z a
Ġr iver
ĠH am
ver t
h i
ar ily
Ġfem ale
Ä ģ
Ġm iss
Ġp ay
ĠP lay
id ae
Ġl ook
Ġs ize
ĠG old
ĠD el
r ative
ĠW il
f ace
Ġf arm
Ġs il
sh ire
Ġocc up
ĠFollow ing
Ġc y
un n
Ġstud io
re land
Ġmet hod
Ġac cept
Ġp aren
ĠL ake
Ġfilm s
ord er
Ġr ather
Ġinst ead
Ġs er
ĠO p
um p
Ġv ia
st ant
ic les
ĠLe g
Ġex hib
Ġd er
Ġb rought
Ġbroad cast
Ġ199 5
Ġf ar
Ġch ampionship
Ġtourn ament
ĠM er
m ar
ĠRep ublic
Ġj ud
en a
Ġpart s
ĠA wards
av es
o ch
Ġfam ilies
Ġh om
Ġd ivision
id ents
Ġrepresent ed
ĠM useum
Ġcom mercial
Ġ199 2
Ġp urch
ro ad
Ġact ive
ĠF ootball
Ġn orthern
Ġp red
Ġse x
Ġg old
ĠD an
ĠI m
" ),
Ġbeh ind
p ut
ou l
stit ution
Ġne igh
Ġlist ed
Ġ199 4
ĠJ ose
Ġprevious ly
pecial ly
Ġcomp an
Ġbook s
ĠKing dom
ra el
Ġde al
Ġwh ose
ĠFran cis
ĠG overnment
ĠPar is
Ġm ix
ĠMich ael
ĠComm ission
Ġw inning
ĠL ater
l am
or ing
Ġse ction
ĠHen ry
Ġpl ann
Ġs outhern
Ġdra w
ĠD ire
uf act
Ġbuild ings
on a
Ġal most
Ġm ass
ov iet
Ġn omin
ĠK ore
ri a
Ġne g
g y
ĠIn ter
ĠVir gin
Ġrelations hip
Ġdefe ated
ro wn
tain ed
Ġd ata
la v
ĠP et
ir th
ĠC amp
ĠT or
Ġposs ible
um e
Ġl ik
Ġre ve
Ġt ax
Ġmov ement
ĠL ab
Ġfre qu
ĠC he
Ġfor ce
Ġend ed
Ġsy m
ĠP enn
Ġout side
m on
ol f
ĠB u
ĠCath olic
Ġchang ed
ell ed
ret ary
ĠP la
Ġwrit ing
Ġapprox imately
ĠT er
2 5
Ġqu alif
Ġch art
Ġg un
Ġreg ard
g en
l im
ĠFran k
Ġallow ed
Ġun its
Ġex ecut
as c
Ġorgan ization
Ġs ch
Ġindust ry
all ed
ed y
Ġty pe
ol k
Ġco ast
Ġrun s
Ġa ction
ri al
ĠComm ittee
ĠVict or
Ġc ut
Ġinvest ig
ĠH ill
I I
Ġf all
an cial
ibr ary
erv e
ĠT wo
Ġprim ary
un k
Ġreg ular
ask et
Ġis land
ĠT om
in ent
b ased
oin t
p an
ĠSm ith
o o
it es
Ġr an
ĠTex as
ĠZ eal
ĠM ost
ĠP eter
Ġl ower
op er
Ġp ers
p ts
st r
ĠSw ed
r ig
i qu
cl us
Ġbeg inning
he ast
Ġj ournal
Ġso on
ĠRich ard
Ġsp ent
Ġbl ock
Ġstruct ure
Ġl ink
Ġrail way
Ġplay s
Ġg rand
Ġc are
Ġ199 3
Ġl ength
Ġits elf
el t
ĠZeal and
ĠMon t
Ġas k
ra ck
Ġ199 1
ĠC al
por ary
th let
Ġown ed
I n
Ġart ist
ir m
Ġt aking
ar ing
k n
ĠS ant
ĠC ast
ens ion
Ġdet erm
i ences
Ġob ject
ĠY ear
ĠB est
l ike
g r
c ies
Ġs us
ĠRe v
r or
ĠM y
Ġb ur
Ġh ard
Ġs ummer
ĠIs rael
Ġstud ies
ĠF in
Ġim m
ĠM a
Ġdoc ument
p ress
ist an
in i
Ġto wards
ĠL u
Ġacc ording
pos ition
ĠM el
Ġe ver
Ġes c
Ġsystem s
Ġwh om
ĠI reland
ĠF ore
Ġan c
Ġ195 0
ĠCar ol
S A
Ġes pecially
Ġfun ction
Ġst op
Ġpr incip
Ġdef end
Ġw ood
Ġhig her
n ot
Ġtrans l
Ġn atural
ĠL os
ic ago
ĠPro fess
ĠD ay
oc al
Ġoper ations
ĠS oviet
Ġpl at
um n
Ġtradition al
Ġmult ip
Ġlit tle
oun ter
Ġob serv
Ġclos ed
Ġc red
Ġrequ ired
ĠC ur
ĠCong ress
Ġk ing
ow s
iet y
Ġf ood
Ġbre ak
Ġto o
o id
Ġpr ison
Ġconc ern
Ġlead er
ĠJ ust
i res
Ġstud ied
Ġrem ov
Ġcomple x
read y
Ġhig hest
ĠB ur
ĠB en
o z
ot a
l ant
ĠRec ords
ĠF lor
Ġnot ed
ut er
it er
ĠW omen
Ġar my
Ġindepend ent
Ġcomm ission
ĠP erson
pe cted
ĠF estival
Ġg e
ad ium
at al
ch an
ib ility
Ġbel ow
is es
ĠAr ts
Ġcolle ction
Ġc ele
Ġro ute
Ġman ufact
ĠP re
ĠP ublic
ĠH istor
Ġcon v
i os
Ġan ti
f it
Ġproper ty
N A
Ġte ac
tern al
Ġlaun ched
Ġm oney
ĠB oard
Ġmag azine
Ġf uture
Ġl ived
Ġent er
Ġcount y
it a
ĠW ork
Ġs elf
ĠP arliament
Ġ Â
as ion
ĠM any
ĠSup er
Ġperson al
Ġgener ally
or por
Ġme ans
ĠR ock
ĠS aint
Ġset t
ap s
6 0
4 0
Ġent ered
Ġg irl
h ing
Ġn ar
Ġter rit
Ġqu est
ad a
ĠF ound
Ġk ey
Ġiss ues
w er
v a
Ġsur round
Ġcent re
Ġmat ches
Ġearl ier
2 2
Ġstand ard
Ġsen ior
Ġset tle
Ġpract ice
augh t
Ġ198 9
Ġad op
Ġd ram
Ġd on
ĠP ac
c her
oy s
ĠG od
Ġth us
Ġrel ated
ĠFor ce
Ġw inn
ĠItal y
Ġb all
ĠN avy
il s
" ).
Ġopen ing
sy ch
Ġincre ased
19 8
Ġst aff
Ġnew sp
Ġcom e
Ġb attle
am s
inal s
Ġm er
m ark
us band
Ġsomet imes
ĠG reek
ven ue
ĠS ir
Ġstud ent
ĠOlymp ics
Ġdest roy
Ġcompan ies
ĠO per
Ġs at
Ġnum erous
Ġl ack
ol a
Ġpri or
Ġs um
fic ult
Ġcult ure
ĠAngel es
Ġap plic
ear ch
ut ch
pl ied
Ġw oman
a ction
Ġactiv ities
Ġvict ory
ĠL ife
ĠY ou
asket ball
Ġres ults
an o
arri age
ĠBro wn
Ġc al
Ġloc ation
Ġd en
Ġal ready
ov ers
ok e
Ġbecom ing
y e
Ġ198 8
ĠCh icago
Ġgen us
F L
Ġcontain s
Ġsele cted
Ġgo als
Ġappear ance
i Ä
Ġcer tain
Ġcompet ed
ve y
un t
kn own
it iz
Ġcour se
Ġold er
it ar
ĠMex ico
ĠM il
ĠSc ot
Ġm ur
Ġdif ficult
Ġe mer
il ed
Ġac adem
Ġmanag er
Ġd ate
Ġdec ision
and ed
ĠO ver
Ġmajor ity
Ġrun ning
b an
ĠR ob
et her
Ġsch ol
re me
um ents
Ġmov e
la g
and s
ĠS ummer
Ġen vironment
et ic
ric ult
ĠB ank
ul ated
ĠD u
e es
Ġassoci ated
i en
ed s
Ġsc ient
ĠS pe
Ġsqu ad
Ġterm s
Ġca used
w rit
yl van
w ell
Ġw estern
Ġsc ore
Ġw ide
Ġmin or
om a
Ġann ual
Ġc ases
ad o
Ġde cl
Ġ18 3
te en
Ġtrans port
in ary
Ġinit ially
Ġse at
Ġh usband
ĠW al
Ġm ountain
Ġh or
ĠGeor g
ĠG ra
Ã ¤
ry ing
ly ing
Ġaddition al
ur a
Ġbet ter
Ġp en
Ġsing er
Ġp ie
ut h
Ġem b
is ions
Ġoper ated
Ġart ists
Ġthough t
d own
Ġret ired
mit ted
ĠM ass
ĠB et
Ġinc ome
z il
Ġun it
Ġsup er
Ġwrit er
Ġke ep
ĠS qu
ĠS l
in ct
Ġ ens
ĠB o
Ġb ig
ĠE mp
T V
Ġc he
Ġpro b
Ġper cent
Ġleg al
ĠN orthern
Ġchang es
air man
Ġat tend
Ġtr ade
ubl ican
Ġpass ed
Ġcolla bor
ĠF ort
Ġd om
ple ment
ĠK n
iz ing
Ġse a
ing u
Ġmus ical
u z
d en
ĠL iber
ĠM r
ĠO ld
ig an
g n
ĠVirgin ia
ylvan ia
Ġ198 7
Ġfor ced
Ġsupport ed
Ġfin ancial
Ġab s
ĠChampionship s
Ġeconom ic
Ġm ission
Ġv eh
ĠRuss ia
Ġd ig
Ġim medi
Ġch ief
Ġth reat
ĠB attle
Ġg ra
Ġd rop
Ġc ust
Ġserv ing
Ġequ ip
Ġprogram s
Ġcharact ers
Ġex c
ent h
h y
Ġfeat ure
Ġmunicip ality
Ġb ene
Ġfore st
Ġinter view
Ġd i
Ġmost ly
ĠC arl
Ġ198 6
e g
ĠTe chn
Ġlim ited
vent ion
Ġremain s
Ġed ition
Ġqu arter
ra w
Ġj ob
Ġcre ate
if t
Ġun iversity
ĠServ ice
Ġt rib
2 3
Ġsubsequ ently
Ġclaim ed
Ġl ove
Ġmed al
amp ion
b ers
ĠW ales
Ġ198 4
Ġev idence
Ġind ic
y r
Ġsy n
Ġn ine
un ior
st e
ĠM od
F A
an ced
Ġfam ous
Ġar rest
Ġestabl ish
ĠE le
Ġcomple te
Ġstat us
Ġpartic ularly
Ġoffic er
ĠM ur
Ġs af
ĠM os
Ġpartic ular
Ġrelig ious
ĠJose ph
A mer
Ġsc ience
Ġacc om
ĠB ack
ĠU nder
is ation
Ġn ames
Ġearn ed
on se
Ġmed ical
Ġtra in
Ġgo ing
Ġh ot
ĠS ur
Ġg ive
ĠIr ish
ch ange
Ġra ised
am ily
ĠAt lant
Ġmanag ement
oc key
ĠBra zil
r as
ĠG o
Ġincre ase
ist ics
on n
ce ment
w ide
Ġte xt
ĠS ub
ĠAss embly
Ġiss ue
s pe
ĠP an
t ies
u x
Ġdisc uss
Ġ198 5
Ġbel ong
Ġsh ot
ĠRes earch
ĠS k
Ġ er
r ast
c el
rie f
ĠCl ass
Ġd ed
Ġhel ped
ĠG ames
ĠProv ince
2 4
ĠVal ley
Ġmeet ing
ĠD en
Ġl ines
Ġqu ick
Ġf le
Ġacc ount
ĠThe ir
st anding
ĠFlor ida
Ġweek s
ĠW ood
ĠM ill
Ġed itor
Ġl ay
Ġb irth
Ġf ederal
Ġlarg er
Ġst ay
Ġh ours
ĠS a
b on
ĠPenn s
ĠI f
Ġe t
Ġnew s
Ġg ot
ĠH on
Ġsh own
ĠA ut
Ġpresent ed
Ġc ouncil
Ġconsid er
Ġs ports
Ġlong er
Ġbelie ved
i ents
Ġrefer red
b ur
Ġb ound
l o
u a
ĠCh ief
ĠC D
Ġra p
us ing
Ġle aving
t ic
Ġfail ed
Ġv ir
19 7
st ra
ĠA rab
ĠCol umb
ot e
Ġpolic y
ĠS outhern
er o
Ġparen ts
Ġr ate
Å į
ĠH ot
ĠDes pite
ĠPenns ylvania
h ouse
in et
Ġto day
and a
Ġoffer ed
Ġresp onse
Ġplat form
Ġleg isl
velop ment
r im
b re
ir ing
T h
Ġs ister
sel ves
Ġthem selves
Ġc arried
ĠSp ain
Ġw ord
Ġins p
ĠH a
Ġmin utes
Ġse asons
u an
ĠPac ific
Ġcompos ed
Ġinst r
A n
ac hes
B A
Ġfore ign
Ġe astern
Ġcol on
ĠO l
ĠW in
g l
Ġch all
Ġ198 3
ian ce
ĠTh at
ob al
Ġus es
Ġh app
ĠB ill
ĠAn n
ĠR os
Ġst ep
Ġspec ific
id er
ĠE r
ĠRep ublican
Ġcomple t
ĠC le
Ġremain ing
at ively
Ġar m
Ġph il
Ġgradu ated
Ġin n
Ġform s
Ġal tern
it ation
Ġn orm
Ġover all
ĠI ran
ĠT our
Ġacqu ired
Ġcont ro
Ġar ran
ĠPerson al
ĠDemocr atic
Ġ194 0
Ġm ention
ĠDe f
p ose
Ġ193 0
ĠB us
Ġst ations
Ġin te
Ġsc reen
Ġmultip le
it t
Ġl atter
Ġreg ional
Ġ198 2
ar ters
Ġest im
Ġtro ops
Ġen ergy
ĠE v
Ġd u
urb an
se e
Ġcons ists
Ġm iddle
it an
Ġpro posed
ul f
Ġpromot ed
ol s
im b
az z
Ġdet ail
Ġgu itar
Ġpo et
Ġo pt
Ġcon cer
Ġvar iety
ĠR ou
ĠMart in
im um
Ġso ft
Ġvot e
Ġt akes
s s
Ġstart ing
Ġindividual s
ĠK e
at o
Ġro om
ĠP ost
is k
at i
Ġele ctions
ip l
Ġthe ory
Ġ197 2
Ġ194 5
Ġde partment
Ġb ox
Ġmain ly
8 0
ĠJew ish
Ġsur face
it ors
Ġh ospital
Ġ197 9
Ã³ n
ĠSc ience
u ge
c ol
Ġn ative
Ġsepar ate
ĠIn c
um an
ent y
Ġm ach
iÄ ĩ
b ury
ĠRail way
ic ation
ĠB oth
a ult
Ġmean ing
ĠS un
I D
2 7
ĠO ut
ĠP ak
Ġan t
Ġl ic
ĠM ountain
at ers
ĠF red
ĠT imes
Ġ6 0
Ġfor t
Ġse qu
ĠH aw
Ġb att
ac he
Ġinflu ence
Ġt arg
p lay
Ã ¨
Ġpre vent
Ġrecord ing
re ater
Ġprov ides
ĠD o
Ġdem on
Ġ =
Ġad j
Ġlab el
Ġexper ience
Ġm ale
i y
ĠM o
Ġappear ances
Ġde part
Ġrequ ire
ĠB ook
Ġm arriage
ĠC la
ĠM ic
Ġs ociety
ĠIn f
Ġcontin u
uc le
m ond
Ġsuc ceed
ĠL ord
Ġturn ed
erv ation
ĠS ar
Ġpe ak
Ġtem per
Ġe th
ĠBrit ain
Ġal ways
Ġsc hed
Ġch ap
Ġb ring
ĠG overnor
ĠPol and
ĠBi ography
Ġpo or
Ġhous es
ff ic
Ġ197 6
Ġpolit ician
ĠM ain
ĠS ocial
Amer ican
em porary
Ġch arg
ad y
Ġd one
ys is
ĠS il
ĠG ar
ĠM at
ĠMc C
Ġhe avy
Ġc itiz
ĠCon ference
ĠEmp ire
l it
ĠU p
ĠJ ud
ĠM ore
Ġ197 4
ail y
Ġp il
Ġcond itions
Ġprofess or
Ġarr ived
Ġsour ce
Ġb rief
Ġ198 1
cri ption
Ġ19 20
ĠDire ctor
w ar
Ġorgan iz
Ġ196 8
ous ly
Ġb omb
Ġpart n
ĠL ine
et te
Ġ6 5
Ġrec ent
ut y
ur ies
2 6
m ission
Ġb ridge
Ġfin ally
ĠQue en
Ġc ateg
Ġhistor ical
ir it
ĠRad io
ĠT w
ess ion
v ement
o ir
Ġ #
Ġm ight
stru ction
g a
Ġdis s
Ġserv e
ĠD utch
Ġcele br
ĠF re
Ġdes pite
Ġoper ation
Ġcre w
Ġnear by
ĠE astern
Ġrespons ible
ĠO h
Ġc ities
Ġe as
Ġship s
ĠL and
ĠR o
f ect
Ġnear ly
Ġappe ars
Ġrecord s
Ġmanag ed
g ian
Ġm em
ĠJ im
Ġ197 5
Ġ ver
Ġfif th
Ġadminist rative
Ġproble ms
Ġ197 8
Ġl og
ig er
ĠAr g
Ġdis e
a res
in ated
g ing
ĠEd ward
ĠC am
un ction
ĠB ow
it ude
ĠI ll
Ġaff ect
ard en
Ġincre asing
k en
Ġpl ans
Ġl os
Ġtechn ology
ĠV ol
ĠM ah
Ġf ellow
if y
2 8
Ġconstru cted
Ġtransfer red
Ġask ed
Ġiss ued
ĠÂ £
Ġde pend
ĠHe alth
Ġtrack s
ĠC ivil
w an
Ġcap ac
Ġc ell
ĠCarol ina
Ġex tended
Ġm erg
Ġen ough
Ġcult ural
ĠLe e
Ġproduc er
emor ial
la h
ĠS ol
ĠTe am
Ġ !
ĠB ig
Ġparticip ated
ĠD ou
Ġpass eng
al i
ant ry
Ġdec la
ĠS eries
Ġsh oot
ĠAn other
ĠB as
ĠC ro
Ġlik ely
Ġto ld
Ġexp la
um ed
ĠLat in
ĠP rem
w a
Ġme chan
Ġdiscover ed
Ġ197 3
2 9
Ġres idents
nd ing
Ġwe bs
ĠS pr
Ġsay ing
ĠJ er
Ġr ural
ian a
Ġ197 7
Ġmov ie
ĠL ong
oun ts
ĠG al
Ġsqu are
Ġne cess
Ġf ace
ens ity
Ġ18 0
Ġm akes
Ġproduct s
Ġb order
ou ra
R A
ug by
ĠM iddle
Ġdirect ly
Ġy outh
b it
Ġcom ment
Ġp ick
Ġinc orpor
ent al
ĠDe velopment
Ġle ave
Ġcover ed
Ġ197 1
l ight
Ġ /
Ġp ra
Ġw anted
es h
Ġc ause
aw a
Ġprim arily
und red
Ġpro p
C C
rup t
ĠPe ople
Ġele ments
a o
ĠT ri
ĠM ajor
Ġlevel s
ĠScot land
Ġn ature
Ġ196 9
Ġ i
ĠBro ad
ĠThe atre
ost on
ig r
per or
Ġb rand
Ġpr in
b l
Ġm useum
led ge
Ġd omin
Ġp sych
) ;
Ġhon or
Ġs la
Ġwho le
Ġo il
ĠPort ug
ĠH el
ĠII I
Ġalong side
it ted
ĠT y
ian t
Ġprov ince
ĠF er
Ġcandid ate
ad or
k i
ĠA re
gy pt
Ġf irm
Ġnewsp aper
ĠFound ation
Ġprem i
m m
por ation
Ġpro gress
im s
ĠY oung
Ġ196 7
Ġc orn
ad d
Ġs n
ĠB re
Ġproject s
ĠC reek
Ġo ur
c a
cl ass
ut en
Ġhousehold s
Ġex cept
Ġg rew
Ġ ult
Ġneigh bor
Ġwhe ther
ĠB h
ul ations
Ġoffic ially
ĠCo ast
ĠOr der
Ġl ives
Ġnum bers
Ġin h
y an
ce an
ĠH ow
Ġdou ble
Ġm aster
ĠA v
Ġdisp lay
Ġth ink
ric e
Ġhe re
Ġadd ress
Ġ3 5
Ġc hem
e ction
Ġinit ial
con t
Ġb asketball
Ġpar ish
Ġp aper
i ro
Ġw alk
stit u
en ing
ill ed
Ġ ess
ĠM ot
ĠT ro
Ġ4 5
Ġval ue
Ġsp read
e ch
Ġren amed
ic ations
ĠSen ate
Ġfem ales
Ġide a
sec ut
bur gh
res p
ers ey
Ġcon cept
port un
ĠJ o
Ġact or
ir med
Ġoffic ers
Ġ196 4
Ġsh are
A S
Ġhead qu
Ġcondu cted
Ġnot able
ĠIs lam
ĠPhil ipp
Ġk ind
ap ed
ĠSec retary
os oph
em ic
Ġb r
Ġprom inent
Ġp ow
k ins
our ces
os h
Ġcontin ue
Ġun ivers
Ġspe ed
ans as
ĠSt ar
om er
Ġconf l
7 0
Ġimp act
Ġpos itive
Ġcon ver
ĠU k
Ġhe art
Ġde ep
is her
ĠE gypt
ĠM en
ĠFrancis co
on ic
Ġl ies
Ġfriend s
Ġp ath
n y
Ġdiv ided
ĠD is
ĠB oston
Ġprodu ce
ĠH y
9 0
] ]
A r
ĠR el
Ġre ason
it tle
ĠH ung
oc ated
ul ly
Ġr ule
Ġdr ug
ĠAl so
i as
m ore
ay a
Ġord ered
B S
r ich
ĠS und
ĠPr ince
ĠAd d
ĠAs ian
Ġam ount
Ġf oot
t own
ĠAs ia
ian o
Ġn ation
ĠCent re
en es
ĠJ ul
Ġlaw s
Ġgrow th
Ġwork ers
ĠR am
tain ment
ris on
ĠL uc
Ġlet ter
Ġplann ed
Ġbas is
Ġd ark
Ġreve aled
Ġremov ed
ĠWilliam s
Ġhigh ly
Ġsold iers
Ġin tended
ĠJ ones
is ters
ĠS o
i h
ĠSt ation
Ġquick ly
p la
ak ers
fer ences
Ġfollow s
Ġ194 4
Ġsmall er
ĠB ob
ak a
Ġst ories
Ġadminist ration
Ġ196 5
ab eth
ad el
ic ted
ĠS at
ors hip
L e
ĠB ul
m ir
ĠB C
m et
Ġanc ient
ound s
g ar
ĠK ent
Ġmain tain
ĠT op
Ġeffect s
Ġp an
ribut ed
Ġinit i
Ġde ad
A A
nd s
ph y
Ġpot ential
ĠMich igan
Ġstr ateg
n el
Ġaut om
Ġcolle ct
ĠNew s
ĠO s
3 5
ag ing
Ġt alk
ĠJohn son
Ġch annel
ell ig
ab les
ĠU r
b ed
ĠCh arl
Ġcapac ity
Ġim plement
ĠPol ish
Ġsec urity
Ġmed ian
ig a
Ġactiv ity
Ġs al
Ġcle ar
Ġw ords
Ġo vers
ĠB or
Ġwith d
ĠA z
d ney
Ġext ra
Ġ196 6
ĠScott ish
Ġsc ene
Ġeffort s
ĠC O
Ġre form
Ġp urs
ĠF e
Ġst ars
Ġded icated
Ġ era
Ġs ail
Ġexecut ive
in em
ub e
or ation
ie uten
Ġmov ing
Ġra ces
ĠF our
Ġto uch
Ġop portun
Ġfac ilities
ĠC ross
ĠB BC
ĠSy stem
la w
Ġpurch ased
ĠB al
ri pt
ĠSt an
ĠSe a
Ġdefe at
ĠE st
ĠC amb
Ġimmedi ately
rick et
4 5
Ġcommon ly
orn ing
Ġy et
Ġag ricult
Ġa wards
Ġtreat ment
ĠJ ac
Ġassist ant
ĠEng ine
Ġsettle ment
Ġsol o
it led
ĠA venue
ĠT od
Ġpla ces
ister ed
ĠCor ps
ĠM u
ĠS and
ĠOff ice
Ġhistor ic
Ġass igned
Ġ ri
ast ic
ĠOh io
Ġbeh av
Ġb ranch
Ġrespect ively
s en
ĠB orn
Ġup per
Ġrec over
eder ation
ĠMus lim
Ġfl oor
ĠO x
Ġfor ward
Ġ Å
k o
ran ce
v is
Ġin stitut
Ġcont act
Ġc ounter
ĠL y
st one
Ġre pe
ĠT em
ist ed
y ard
ĠS ong
Ġprote ct
ĠE conom
Ġd yn
n o
ĠH ospital
ĠColumb ia
Ġquest ion
ron ic
ĠM att
Ġtyp es
ĠE arth
im a
ĠO f
Ġfootball er
ĠG all
i est
Ã §
ĠHe ad
ĠM id
ou d
n am
Ġ[ [
ĠRou te
Ġagre ed
g reg
Ġfoc us
Ġdire ction
Ġg as
ĠG h
ĠEl iz
ieuten ant
ĠF C
Ġst reet
Ġins ide
er b
che ster
Ġb ird
ĠT im
d ro
ap ers
Ġadop ted
el a
Ġatt ention
om y
Ġg ained
Ġart icle
c an
Ġan g
Ġestim ated
ank s
Ġhous ing
ĠDe v
Ġdestroy ed
Ġcon ne
ric s
Ġphys ical
Ġdecla red
ĠSy dney
Ġre ach
Ġun s
ĠV an
Ġt able
ĠW ind
Ġg iving
Ġro les
Ġneed ed
j a
Ġtit led
ĠF ederal
Ġfav or
Ġwinn er
iz es
ed d
al le
Ġfeat uring
Ġorgan ized
Ġwid ely
th ing
ob ile
Ġst ra
Ġform at
ul pt
Ġsuff ered
and on
Ġwebs ite
Ġl if
ip s
Ġlead ers
rop ical
Ġst ren
Ġst ore
Ġlarg ely
w in
ĠGeorg ia
Ġfe el
em et
ĠP op
A l
il a
ild ing
ĠK ar
Ġcomp ared
Ġcom es
Ġper man
ĠD i
ĠV iet
ĠSt ep
g rad
ĠK ong
ĠM ount
Ġg ain
Ġchar ge
Ġon line
Ġcer em
resp ond
ĠO tt
Ġcol or
ĠE ach
Ġacadem ic
Ġ194 2
ĠOr ig
ĠJ es
in clud
ak h
Ġm ic
ric ts
che n
Ġcommun ities
Å Ĥ
Ġaccept ed
Ġproble m
Ġtyp ically
ĠT am
ĠB ang
Ġclub s
Ġcontro vers
Ġwe ap
Ġse ek
Ġappro ach
Ġle aves
Ġg reen
du ce
Ġsem i
Ġv ac
Ġest ate
Ġab ility
ĠJack son
Ġvot es
Ġ8 0
ir a
Ġdram a
Ġreview s
Ġterrit ory
Ġagre ement
ag ement
ĠPol it
Ġsour ces
Ġoccur red
Ġserv es
Ġcapt ured
Ġh undred
ĠC y
um ber
Ġmunicip al
ĠAlex ander
Ġr at
Ġ196 3
ĠH ong
or a
ĠâĢ Ķ
et ts
Ġw ing
Ġsing les
ĠBer lin
ĠG ame
Ġst one
ĠE p
ĠW ater
Ġ194 8
Ġele v
Ġra re
Ġ196 2
Ġprob ably
og rap
ĠTh ree
ste in
Ġelect ric
Ġqu ality
ĠO k
y er
ĠOlymp ic
Ġs low
Ġsym b
ĠOp en
Ġresult ed
Ġoper ating
ĠC r
z y
en ge
Ġlangu ages
Å ¡
ĠMin istry
Ġ ut
n ic
og ue
Ġp arliament
S h
ĠC E
Ġf a
Ġtarg et
ĠC ard
Ġrec ently
Ġun ion
ĠSe ver
Ġm ax
ĠC ult
19 6
Ġm iles
Ġschol ars
r ical
ĠBe fore
ound ed
Ġap art
Ġc ard
Ġn ucle
em y
Ġth r
A C
on to
ĠSh ow
Ġbl ood
Ġam b
an cy
Ġconf irmed
Ġch ampion
Ġoff ers
enn is
Ġcomp uter
ri ed
Ġbe at
Ġhost ed
Ġret ire
ĠArg ent
Ġcitiz ens
Ġmet al
Ġp it
7 5
ĠP en
Ġcomb ined
Ġc oin
ino is
Ġthere fore
g u
ic ine
h at
ĠF ar
Ġmin ister
Ġ194 1
Ġlead ership
f ort
Ġsp lit
per ial
aren t
Ġequip ment
rop ol
ĠV er
ol es
Ġex am
Ġhe av
ĠB ern
Ġtri al
ion e
Ġ17 9
Ġd ance
Ġpres ence
Ġl y
ĠF ield
Ã ±
Ġact ing
Ġ ice
Ġsil ver
ĠBro ok
Ġcon clud
Ġpos itions
sk i
Ġcon ference
Ġt aught
ach us
Ġexp anded
. )
ĠPro gram
ĠProfess or
Ġcon cent
he w
Ġp et
ĠHistor ic
Ġinter p
ĠA k
iv ity
ĠJe an
ic ient
ĠM ax
Ġ194 6
Ġh abit
ĠJ ersey
Ġre duced
ro ll
ĠBack ground
Ġrecogn ized
m ad
Ġ194 3
Ġcom ing
ĠR ome
Ġident ified
Ġalbum s
Ġc at
la b
w ith
ĠK en
Ġ7 0
Ġaff ili
Ġnew ly
s es
b o
Ġ196 1
Ġs ens
Ġf ell
h an
Ġcon stitu
ran e
ĠAnd rew
Ġpe ace
or al
Ġpl ants
ĠJust ice
ĠR aj
Ġindust rial
Ġse vent
ac es
Ġdist ance
Ġrec on
I S
c ul
ed om
el la
he t
Ġab andon
on ia
Ġco al
is hes
Ġcont ent
ĠVictor ia
5 00
Ġmur der
ĠIll inois
Ġpress ure
ĠPr ime
ĠCor poration
Ġjoin t
Ġh ar
Ġex pected
Ġperforman ces
Ġown er
ĠS ports
Ġdist ribution
Ġfl ight
il ly
m iss
Ġmix ed
hen s
Ġteac her
Ġres ident
ĠR ay
ĠFor m
d a
Ġv oice
ĠAs h
ct ors
ĠM as
ist ance
ol ved
ĠC a
Ġ( ,
Ġpart ies
ĠE ll
Ġrec omm
ĠAm ong
in ity
Ġlab or
Ġsc oring
Ġcap tain
man n
cl es
Ġcou ple
Ġf r
p ass
Ġbur ied
Ġ193 9
ĠEliz abeth
ĠSup reme
en cies
ĠV illa
l i
s et
ĠK enn
est ic
Ã¡ n
Ġmention ed
ĠCh ild
ĠBr ig
ĠT re
Ġcor respond
ce nd
Ġ urban
Ġtit les
Ġm ill
Ġcrit ical
Ġc ars
Ġy ards
Ġ195 6
Ġrul es
ĠGe ography
a ug
ĠUn ivers
Ġdist inct
3 3
ron ze
Ġgr anted
ĠBl ue
ĠB ase
ĠQue ens
Ġcamp us
Ġp al
ans ion
Ġw a
m as
ĠD et
Ġmod els
Ġcomm ittee
Ġnomin ated
achus etts
ĠC orn
ĠH ind
res h
Ġs ales
w ick
Ġf elt
ĠSt r
Ġepis odes
ĠJ r
os en
T A
ot ed
Ġrank ed
Ġorganiz ations
Ġresult ing
w orth
Ġel im
Ġdig ital
g ers
Ġliter ature
ĠComm on
w ing
Ġdou b
ĠB ishop
Ġstr ugg
Ġsp ons
ctor al
Ġlos ing
Ġb ad
Ġf lag
Ġp aid
Ġtw ice
Ġm ales
e f
ib ly
ĠTur k
Ġdam age
= "
ĠKore a
ur t
N ew
Ġth ous
Ġshow ed
ul ed
ĠMass achusetts
Ġ194 7
Ġsurround ing
Ġst re
ĠL i
Ġsugg ested
ĠW ild
y al
hem at
Ġcontin ues
Ġpre p
if orm
ĠRep resent
Ġob tained
Ġcre ation
Ġser ious
it ness
emet ery
ran ge
ĠS pecial
Ġcond ition
olog ist
ĠAn ton
v est
Ġprov in
Ġ9 0
Ġmot or
Ġ ir
Ġcont emporary
ĠIs lands
Ġv ess
Ġst ream
Ġsc ulpt
ĠSt adium
i at
ri z
am ber
Ġprov iding
Ġsecond ary
ĠPak istan
Ġke pt
Ġrecomm end
ĠRev olution
pt on
ĠC rit
Ġ195 8
Ġcont est
ĠB a
Ġp ack
out heast
ke e
ag er
Ġd ensity
Ġpain ting
ĠAd minist
Ġform ation
bour ne
Ġpain t
ĠBe c
Ġm ess
Ġrece ive
ĠC at
Ġdise ase
ĠT ay
Ġofficial s
al y
Ġfig ure
Ġ195 9
Ġf ix
wh ich
g s
Ġsex ual
igh ter
Ġsp ring
Ġpat tern
u er
un te
Ġn ort
Ġanal ysis
Ġse ats
Ġg reater
Ġf ast
ĠA thlet
w ater
adel ph
ent ed
ur er
Ġtw enty
Ġact ually
ĠOr gan
Ġs urn
ĠDan iel
ren ce
% )
Ġw ild
Ġsit es
ĠL ibrary
Ġbecom es
Ġin form
ĠOff ic
al ion
erv ative
ĠB ridge
Ġg overn
n es
ĠA ff
ĠSwed ish
Ġknow ledge
Ġch airman
ult y
ĠN ether
ĠG ood
Ġbl ue
Ġh op
Ġsl ight
ĠL ittle
ĠPol ice
od ies
Ġgrow ing
ĠL ove
Ġs u
ĠH ome
ĠC op
ĠJe ff
M A
ag on
ĠEn ter
Ġpur pose
Ġsitu ated
Ġfin ish
Ġinj ury
F C
ĠL ew
Ġcom edy
Ġ195 7
Ġinstr ument
Ġpro pos
th ur
ĠCl ark
ol id
ĠMed ia
Ġass ociation
adelph ia
ĠHigh way
Ġte aching
g al
anc ing
Ġt ask
b ook
Ġsucceed ed
Ġclaim s
ĠInd epend
ĠTor onto
Ġse arch
Ġ3 6
e z
ĠL im
Ġ3 2
Ġtri ed
Ġauthor ities
ĠH or
Ġmark ed
w estern
cent ury
Ġdesign ated
Ġpre c
Ġp ict
ĠGu ard
ĠF le
3 6
3 8
ĠCon f
Ġc ells
Ġvers ions
Ġap plied
Ġal one
Ġc ab
ic ed
Ġtr ue
Ã ¸
Ġcol umn
se x
Ġc e
Ġ |
ĠR og
Ġpolit ics
ĠV en
Ġop position
ĠCh ap
Ġw all
b a
ĠI ra
Ġtra ffic
Ġt im
E C
ĠB rad
ĠF I
Ġb oy
ĠSer b
Ġ5 00
Ġt ells
ĠDu ke
ĠR od
Ġs ays
Ġinte g
i ate
ĠN ations
Ġlaun ch
Ġf estival
Ġ195 2
ĠBec ause
b u
Ġp un
end er
ĠTrans port
Ġreg ions
Ġyoung er
ot y
Ġachie ved
Ġsup ply
Ġheadqu arters
Ġc am
ĠF amily
Ġact ress
Ġvilla ges
Ġ4 4
Ġl ibrary
Ġs port
ĠB udd
Ġl iber
ĠR h
Ġw ear
Ġfac ility
" ;
ĠOx ford
us ion
ĠE s
Ġconnect ed
e en
u ate
Ġun ique
Ġcomp on
Ġarrest ed
Ġa im
Ġlo an
Ġg overnor
Ġsec ret
il ing
Ġb al
un a
n g
Ġexper iment
Ġ194 9
Ġsp ot
igh th
à ¤
M S
ĠP ress
Ġtra ins
tar io
ĠPhil adelphia
y ond
Ġv e
Ġ( ;
Ġ195 5
ĠW ay
ĠB ell
Ġinsp ired
ĠE lect
Ġb urn
ĠAr m
ĠN etwork
ĠB ol
Ġdist ricts
v in
Ġexist ing
ov a
Ġcons um
Ġb ow
i able
we ight
l ers
Ġex tend
ig en
P A
Ġh all
Ġf ully
ĠInd ust
ĠF inal
Ġwe ight
Ġsitu ation
Ġill ust
Ġme ant
Ġg ives
ĠTh rough
k er
ĠAir port
Ġfig ures
Ġop pos
Ġchall eng
Ġcan not
ograph ic
al ing
3 4
ĠPrem ier
Ġattack s
ĠAtlant ic
Ġallow ing
ĠN az
Ġreturn ing
Ġsh op
ĠD ue
Ġscient ific
j i
Ġc ode
Ġallow s
Ġcrit ics
tern et
Ġsp irit
ut s
ĠB oy
Ġconfl ict
ĠNether lands
ĠAn t
Ġsurn ame
Ġvis it
ĠSant a
ellig ence
ĠKore an
erv ed
Ġfe et
Ġa thlet
b ec
Ġsim ply
Ġ195 4
Ġst ock
Ġconcer t
ĠU t
Ġsugg est
re al
Ġcomm ander
Ġclass es
ĠD un
Ġr isk
Ġrap id
t rack
im al
ast y
Ġs ides
Ġ â
Ġmaterial s
ĠOn tario
Ġcomplet ely
Ġsix th
Ġen j
3 7
Ġref used
Ġadv anced
Ġb ought
ĠJ oe
Ġmeas ure
Ġreport s
Ġdef ined
ze ch
itz er
ĠBet ween
l oad
or ter
Ġfound er
che stra
ar c
Ġsoft ware
ĠM ilitary
Ġch osen
ĠUS A
Ġpromot ion
Ġsett led
Ġto wer
S C
Ġs uit
Ġe c
Ġm om
Ġ195 3
ĠFore st
Ġc arri
Ġrel atively
Ġth ir
b ro
el d
ĠA h
Ġpart ner
Ġf ish
Ġbeg ins
te xt
4 7
Ġnar row
ĠReg iment
Ġs ons
ell er
ru it
Ġw ant
Ġport ion
Ġt ree
Ġcust om
ĠCast le
is er
3 9
ĠD am
ou ri
ord in
ĠPl ot
om ot
4 8
Ġd ial
Ġold est
ĠSever al
ĠM ov
ĠD ar
ro om
Ġbrother s
ct s
ĠU N
ĠB and
ing er
Ġcl imate
sk y
Ã© e
Ġim age
ash ion
ĠB ab
Ġa ired
Ġhold s
ĠM ir
Ġra in
ĠWil son
Ġmag n
enn es
ĠSwed en
Ġthem e
ĠBus iness
H L
Ġthe atre
ĠB ir
Ġp air
ins on
Ġpro ceed
ĠCol on
ĠH uman
Ġl ot
ĠM un
ĠCommun ity
ĠCap tain
Ġal le
Ġsub s
Ġcer t
ed ing
ĠC ub
Ġfight ing
ĠS her
Ġocc asion
Ġth ings
if ically
Ġfrequ ently
Ġauthor ity
ĠWe ek
ĠLeg isl
Ġm ut
Ġappro ved
osoph y
Ġp le
p et
ĠAdd ition
Ġar ts
Ġpublic ation
ĠS ab
Ġvis ited
Ġdef in
Ġhand s
Ġ19 18
Ġatt ra
Ġnecess ary
uck y
ĠF air
Ġconsist ed
Ġtem ple
ĠT ai
ĠIn t
Ġcre ating
Ġgo es
Ġv en
Ġf ans
or ph
ĠM aster
Ġ195 1
hed ral
CA A
ĠMex ican
Ġb ill
av a
Ġro of
Ġprincip al
Ġrest aur
Ġv on
Ġad vert
ĠK ir
ĠEm peror
ĠC zech
ĠT a
ĠReg ister
ĠIra q
p les
Ġsubsequ ent
ĠAt t
ill ery
19 5
Ġfl ood
ĠTechn ology
Ġcr im
Ġaud ience
il ton
ĠS us
he im
ĠâĢ ĺ
Ġre ject
ĠJ on
oc cer
Ġattempt ed
Ġ193 6
ĠH ay
ak s
ĠD ie
ĠR ac
ge nd
ĠReg ion
Ġtown s
ĠG en
Ġb illion
Ġg raph
Ġas pect
ĠH un
Ġun able
Ġad apt
Ġport ray
Ġl ake
Ġv oc
Ġte nd
1 00
ropol itan
Ġbro ke
id i
Ġfund ing
Ġbase ball
Ġmethod s
Ġro yal
Ġent itled
Ġcommission ed
Ġf ought
er al
Ġ193 8
Ġ6 4
ĠP ers
ĠB att
Ġbeg in
Ġwin ter
ĠF ox
y o
Ġgl obal
b i
Ġele ment
k es
Ġrece iving
ĠL ike
os is
ĠM ike
u ing
ress ed
ĠF urther
Ġd ipl
ĠK er
al so
Ġd ia
Ġsaf ety
Ġresp ond
L A
Ġneighbor hood
Ġemploy ed
Ġv an
re c
Ġacc ident
j e
Ġd aily
ĠInd ones
Ġar ms
ĠM inn
Ġunder st
Ġset s
Ġdrop ped
3 1
Ġoccup ied
ĠDe ath
Ġfound ing
Ġanim als
ud get
Ġback ground
y es
ĠH an
Ġprote ction
Ġexp ansion
Ġop posed
Ġretire ment
ĠT al
ĠE nd
Ġpro f
Â °
Ġstar ring
ĠTay lor
Ġse em
Ġsomet hing
Ġformer ly
Ġy ellow
ĠG er
Ġeffect ive
V D
ur d
Ġattack ed
Ġm is
Ġa ctions
Ġc overs
ain s
ĠMed ical
B ill
ress ion
ĠS om
Ġ" "
Ġeconom y
Ġarchitect ure
4 9
ĠMar sh
se y
c ow
el ve
p ur
Ġstra ight
ul s
ony m
ore n
in er
ĠAre a
Ġsh ared
os a
pl ies
Ġex clus
ĠT ok
im ens
Ġneg ot
av en
Ġattem pts
Ġun known
ĠN ic
act er
4 6
Ġfoc used
ĠRe ception
Ġe arth
Ġ )
Ġdist ingu
Ġrefer ence
ĠK al
rest ling
ĠPro ject
ĠSt at
writ er
Ġv ocal
3 2
ache lor
Ġst orm
ĠP o
Ġex change
Ġpie ce
Ġdr ive
iqu es
b ra
ĠE arl
Ġres ources
ĠC irc
Ġtre es
Ġext ensive
Ġgu est
Ġinstitut ions
Ġperform ing
ĠM oh
Ġb ass
are t
ĠB ad
Ġf air
Ġcontribut ed
ĠPri ze
' .
Ġcan cer
Ġhe ight
ĠSh ort
ĠBe ach
ĠK el
Ġcop ies
Ġs and
Ġt al
Ġnot es
Ġspe ct
Ġshort ly
Ġag ent
Ġre ar
ĠCol or
Ġ iron
Ġte le
Ġle ct
U n
Ġm orning
iv als
orn ey
Ġro b
Ġfield s
Ġent ry
Ġhor se
Ġart icles
re p
ĠL ady
Ġet c
Ġconver ted
ĠL ight
Ġenc oura
ad ing
ĠU s
Ġrepresent ing
Ġ19 19
Ġhigh way
Ġ3 8
ĠG irl
I A
ly n
o is
ur ance
or gan
Ġ193 7
Ġsim ple
Ġmem ory
h ar
ĠAl f
Ġengine ering
l an
b ell
r in
Ġv ent
ĠPri or
Ġs ense
Ġveh icles
Ġs le
Ġult imately
ĠDes cription
ĠD own
ĠD a
Ġinh abit
ĠN A
ĠDes ign
Ġcomb at
ĠF ederation
un s
ph as
ĠN ight
Ġmax imum
Ġb ronze
Ġb ott
b ar
Ġcr ime
ĠMar ia
Ġr id
ĠMar g
Ġenj oy
Ġcont rast
Ġnorm al
ure au
ĠAr thur
Ġag ed
ĠCh ris
m outh
Ġdeterm ined
Ġend ing
ĠW el
ot ic
Ġperman ent
Ġqualif ied
ĠDav is
ĠTod ay
an th
Ġfac ed
p o
ĠM P
Ġk il
Ġmach ine
Ġadv ance
Ġon to
Ġpower ful
' ,
ĠAb b
uc cess
Ġcondu ct
ĠJ unior
k in
Ġsched uled
ol ished
Ġs ought
ruct ure
Ġr ang
Ġstruct ures
Ġ17 8
Ġdocument ary
Ġoffic es
Ġch o
ĠStep hen
Ġpre par
Ġs amp
am ing
Ġproper ties
Ġcon vers
row d
Ġbe aut
ur ches
Ġro t
ĠZ h
Ġly rics
Ġmay or
ĠS em
ĠP ower
am in
Ġaut h
ig ration
ĠT est
r um
Ġlearn ing
ĠTown ship
Ġtouch down
Ġdef ense
Ġapp arent
Ġdom estic
ĠSqu ad
w ise
g est
Ġlet ters
ol n
um es
Ġpol l
Ġland s
ou ts
Ġapplic ation
ann ing
Ġcon secut
ly wood
Ġb ul
ĠW rit
Ġop pon
S P
Ġcent uries
ĠO b
ĠMel bourne
Ġ191 7
I C
in th
st ream
l ife
Ġneed s
Ġval ley
4 4
m es
c ell
enn a
m un
Ġair port
ĠH u
ĠJ ournal
Ġbe yond
Ġocc urs
p ool
ou red
ĠSl ov
Ġw ays
Ġset ting
ĠKh an
Ã £
ĠFred er
ĠAmerican s
Ġtr ust
Ġcy cl
i ated
ĠW alk
ĠK im
Ġgener ation
ĠV i
Ġre asons
Ġra cing
ĠM unicip
rop ri
Ġse ctor
Ġmat ter
Ġre in
ĠR om
re ct
Ġloc ations
Ġvir t
Ġmet res
Ġc art
Ġcorn er
ate ur
Ġdec re
for mer
em an
ath an
ĠN CAA
Ġinv ited
Ġwrit e
Ġrecogn ition
ĠP it
Ġav oid
angu age
ful ly
l ong
Ġslight ly
ĠU pon
Ġgirl s
Ġgun s
Ġalle ged
Ġin aug
Ġfin ishing
Ġsuccessful ly
Ġm ile
Ġro ugh
Ġcons ult
% .
Ġ3 7
ĠMos cow
c ar
ul ate
ap ore
i pe
Ġhot el
Ġdevelop ing
Ġadv ant
Ġcontain ing
Ġident ity
Ġse g
D e
Ġexpress ed
Ġ3 3
Ġder ived
ĠL ind
ĠS u
Ġv ice
Ġbas ic
O S
ĠW at
ĠPro duction
Ġ193 5
ear s
Ġ191 4
ĠG i
ĠG reg
Ġfl u
Ġsupport ing
h ire
Bill board
Ġ3 4
Ġpartn ership
Ġwe alth
I t
Ġfund s
Ġw alls
Ġo x
im ents
ĠM emorial
Ġveh icle
Ġcandid ates
9 9
Ġfun ctions
at ures
Ġref ers
Ġinflu enced
wh ile
f l
ĠF ord
ĠO cean
cri pt
ĠComm and
Ġabandon ed
Ġhold ing
ĠSpr ing
ĠRe ferences
Ġaltern ative
Ġres c
Ġf er
re te
ĠT ime
ĠNot able
ĠN ap
5 5
ĠLew is
ĠE P
Ġdec ades
Ġspe ech
ĠB la
in us
Ġtechn ical
ĠR et
ĠB alt
Ġde ploy
Ġs ust
i ations
ĠAn th
ĠL es
Ġconsecut ive
ĠP ass
W e
we gian
ĠL t
oc ese
es ota
ann a
Ġmult i
Ġre ign
ĠD or
ĠThe n
ĠSc iences
ĠR oss
Ġappoin t
ĠTur key
ĠViet nam
Ġact s
Ġ193 3
Ġd og
le ts
Ġdel iver
Ġpat ients
Ġend s
Ġinvestig ation
Ġcomp ar
f e
Ġestablish ment
Ġgr ade
Ġpie ces
Ġf uel
Ġsc ript
ĠGold en
ow a
al o
ĠC ape
ĠW ars
g th
ĠN iger
Ġ19 00
ĠJew s
ĠH art
Ġst adium
Ġtemper ature
Ġhy dro
ĠPhilipp ines
ang a
Ġm ind
ĠTe levision
Ġem phas
ar ia
ĠLab or
ĠR a
A F
p ot
R C
ĠF ire
Ġres igned
Ġcontain ed
Ġbro wn
Ġmerg ed
Ġworld wide
Ġher self
Ġcast le
Ġinc ident
Ġfle et
ues e
Ġplann ing
ĠMinn esota
ĠNor way
6 5
Ġhe ro
Ġt ry
ĠSte ve
ĠQueens land
n s
Ġ192 9
Ġgl ass
Ġst ating
Ġindepend ence
Ġb or
ĠCount ry
Ġexhib ition
Ġdec or
ro g
Ġplay off
j an
ĠSt ock
f all
ĠSing apore
Ġincorpor ated
as y
Ġform al
ĠN ative
Ġen emy
Ġvot ed
Ġcerem ony
Ġarg ued
ĠK ansas
ĠB ah
Ġph ase
a ctions
am i
Ġliter ary
Ġ192 8
Ġent rance
ĠTr ust
Ġequ al
T C
Ġp up
ĠS av
Ġcateg ory
Ġf resh
Ġh ired
er c
Ġr ise
ĠLe on
Ġmain tained
Ġpil ot
ĠF ac
Ġtra v
ra ine
Ġgu ard
p son
ons in
ian g
k ing
ĠL ist
Ġpass ing
ak i
ĠG re
ĠS um
Ġexist ence
Ġvol ume
Ġfind s
Ġenvironment al
Ġeduc ational
Ġeth nic
ĠCamb ridge
ic i
Ġsp ok
Ġregard ing
Ġdo ing
Ġr ival
ur ation
Ġprov ed
ĠMal ays
Ġheav ily
ĠP ier
Ġr ing
ill ing
isc onsin
Ã º
Ġ193 4
" :
ask a
m illion
Ġjud ge
ris is
ĠLab our
Ġcompos er
ĠStud ies
e qu
in y
Ġ ...
Ġp ul
our ce
Ġview s
Ġviol ence
ĠPhil ip
ord ers
am m
ic y
Ġcolle cted
Ġeduc ated
Ġrepresent ative
ĠS ix
Ġl aid
Ġconne ction
Ġjournal ist
ivers ary
ĠServ ices
l ines
ĠS ri
Ġm arg
se ction
ĠBro ther
ĠMan chester
Ġcall s
ĠH ou
Ġb ra
Ġmer ch
Ġw ins
Ġref lect
ap pe
ĠNor wegian
st ead
ĠAff airs
os ed
Ġsome one
pla ce
it i
Ġdet ect
Ġf olk
ang er
ĠC as
s is
Ġprogram me
Ġpl ot
Ġqu ant
ism s
ag h
ĠAb out
Ġj unior
ĠH o
ĠCh annel
Ġh ockey
ĠHol y
ĠL o
inc oln
k h
Ġfl at
Ġ3 00
Ġobserv ed
ennes see
ĠF ellow
or i
Ġn ob
Ġre aching
ĠW isconsin
ĠF ree
Ġsh ape
Ġcar ry
ik a
Å «
Ġdo ctor
stitut ional
Ġinst alled
ĠG il
Ġ191 0
en z
Ġs we
ecut ive
Ġfail ure
Ġcl in
Ġh arm
Ġk ick
S R
Ġro ll
Ġeng aged
Ġcon ce
Ġimport ance
ĠTh ough
ĠB os
om ew
Ġext rem
ĠC ensus
ad ed
re es
9 5
Ġin ternal
ar p
ol y
Ġband s
Ġpol y
Ġrelig ion
ĠAust ria
Ġpromot e
Ġinhabit ants
Ġ rom
Ġpass es
Ġaccom pan
a fter
on ly
Ġdra ft
Ġsc ale
Ġin stru
Ġd iam
Ġpresident ial
Ġinst all
ĠC ab
Ġdes cend
it o
Ġ192 4
Ġjoin ing
Ġconclud ed
ĠAl bert
Ġsw im
Ġcon stant
i i
Ġcomp l
ĠT ourn
Ġreg istered
Ġspec ifically
ĠS ound
Ġy our
ĠB all
Ġg od
Ġproduc ing
se ason
Ġm el
ĠSund ay
ĠD er
Ġnucle ar
Ġread ing
st ate
ad er
Ġrequ est
ĠJ os
Ġa st
Ġtown ship
ĠMiss ouri
Ġg all
ost er
Ġhom es
ĠK a
Ġfound ation
ĠB eng
Ġcompet e
ĠMed al
ĠI d
L a
Ġ193 2
Ġimpro ve
ĠN FL
Ġ4 8
ig ation
ĠP ope
ĠTurk ish
ĠPortug uese
ĠT ennessee
Ġop in
ĠE th
6 6
ĠFore ign
ter ed
is f
ĠT en
ac ent
ind er
Ġstri ke
Ġs ac
Ġto ward
P S
Ġste el
Ġres erve
Ġvis ual
Ġclos ely
Ġpra ised
Ġl oad
ant e
ĠB ureau
ĠColor ado
S e
Ġpow ers
ers e
w ich
ut ies
reg on
Ġesc ape
Ġtw elve
ĠAr men
ĠM ember
Ġstand ards
ot o
Ġentire ly
g or
pr ise
Ġord ers
Ġg ar
riz ona
Ġim pr
Ġweap ons
Ġ192 2
Ġconsist ing
itzer land
f riend
ĠN ick
! "
Ġemploy ees
Ġclass ical
Ġ4 9
ĠMan agement
ograp her
ag ues
ĠL incoln
Ġide as
Ġsup por
ri ption
D on
Ġvol unte
Ġd ates
Ġ( ),
Ġc ricket
Ġc as
Ġp rice
ĠMar c
ĠT s
Ġ15 0
Ġprogram ming
Ġca using
Ġt rying
Ġstren gth
op her
Ġ7 5
clus ion
ol is
ĠCur rent
Ġpoet ry
Ġhe ard
h aps
Ġa id
Ã£ o
Ġocc as
Ġprote in
ra f
7 6
Ġ192 1
Ġso le
Ġpaint ings
4 2
Ġconstitu ency
Ġtra ined
Ġsc enes
ĠInf antry
Ġs an
Ġstart s
Ġ192 7
Ġexp ed
Ġw arn
alle l
ĠSt and
Ġsur vey
Ġpasseng er
Ġp age
Ġm and
Ġf ram
Ġloc omot
Ġhistor ian
Ġ4 00
Ġb udget
ubl in
ĠChrist mas
Ġad ap
Ġmic ro
Ġdipl om
Ġbelie ve
Ġw atch
ĠB ru
7 8
p a
t ra
av ed
Ġneg ative
Ġbo at
Ġw or
Ġregard ed
m b
ĠJac ob
Ġperson nel
Ġrul ed
Ġt all
Ġsele ction
Ġf ashion
Ġaffect ed
Ġbehav ior
Ġnort heast
ĠPolit ical
Ġ193 1
gh an
it ter
ĠAb d
pos es
if ying
Ġ191 2
Ġdescrib es
Ġmat hemat
Ġprofess ion
Ġopportun ity
Ġj ur
Ġad ult
ĠP oint
go ing
in ally
Ġs ale
Ġchem ical
Ġpremi ered
Ġgradu ate
ĠSw itzerland
A R
ĠSt aff
ĠBu ilding
ĠA rizona
ĠWin ter
ĠMill er
Ġob tain
ĠB at
Ġstat ement
ĠSt one
al ty
ĠD VD
r ate
la in
ĠProfess ional
oc ation
4 1
Ġcompos ition
Ġr ugby
ĠK r
Ġland sc
ĠF a
ĠO regon
ĠTra ck
Ġsec retary
ĠH ard
Ġlim it
ĠPr im
ĠTh us
ĠMary land
ĠPla ces
S c
ĠAdminist ration
V ID
ab ad
Ġqu ite
ĠG ree
Ġacc used
Ġco oper
ĠRe view
Ġc rowd
Ġreb u
ag an
Ġimpro ved
ent ially
h o
g ency
Ġb rick
c ome
Ġ192 5
ĠDe put
Ġbrief ly
Ġanim al
us hed
Ġf ranch
Ġun cle
ĠBar on
Ġm ap
Ġre duce
p oint
Ġed ge
ri f
Ġb odies
Ġc reat
Ġch oice
ĠCh art
ĠW eb
Ġcrim inal
Ġch ose
Ġc ru
p es
ĠB on
ĠPro t
ut ation
ut ed
Ġoper ate
ĠSec urity
ĠE ven
ĠLiber al
Ġposs ess
ĠTem ple
ĠBow l
ĠV ice
ian ts
ĠV o
ĠA D
Ġapplic ations
iv a
he astern
ant on
Ġsub stant
Ã ¢
ĠIndian a
ĠO t
ĠSw iss
S p
ĠG ram
ĠV is
og en
Ġagricult ural
Ġ192 3
Ġ191 6
ĠA st
Ġfav our
Ġrepla ce
U S
Ġext ension
f ather
ĠHam ilton
ĠO d
ant ic
Ġm ent
ĠB urn
o es
Ġres erv
ik h
v ard
Ġa head
und er
ut her
Ġfact ory
Ġinter ests
il ation
ĠFor ces
ĠAl i
Ġbird s
Ġ191 5
Ġport ra
ĠBar b
Ġ ille
Ġass ess
igen ous
ĠN aval
Ġm oth
Ġ192 6
ĠC re
Ġanal y
Ġ Î
Ġdemon str
Ġar med
ĠI V
Ġdr iver
Ġadv oc
ival ent
z en
us al
Ġag ency
el le
7 7
or age
ĠWal ter
ĠMc G
Ġparticip ate
ĠAn ne
ĠBel g
Ġro w
own ed
ĠCro at
Ġval ues
ĠReg ional
Ġt ropical
u ation
ĠT ony
Ġeng ines
Ä į
Ġre ally
ĠG ord
Ġearl iest
ĠD isc
olog ies
Ġkill ing
ag a
ĠTourn ament
ount ed
ĠMod ern
ter m
Ġcost s
ic ts
ĠBrig ade
Ġt or
Ġ ere
Ġinter ior
ur day
Ġres idence
Ġw aters
Ġinj ured
ic ial
Ġbel ief
we alth
Ġc ore
Ġca uses
Ġdr ink
ĠOn ly
it age
Ġ3 9
Ġcall ing
ĠF M
ie val
ĠW all
ud i
Ġdebut ed
at he
Ġwe ather
ĠCO VID
B I
ĠSqu are
ĠT urn
Ġreg iment
Ġnorth west
Ġsevent h
ĠF und
Ġdel iv
Ġsymb ol
Ġcontrol led
Ġcour ses
8 5
p ir
ĠAut hor
Ġcon sequ
Ġdis miss
ĠIslam ic
i enced
qu es
Ġsign al
ĠP a
Ġinv asion
Ġex act
Ġd ivers
od ox
Ġrepe ated
Ġh un
ĠE c
Ġus ers
ĠEngine ering
H e
ĠEx ecutive
Ġoper a
an es
ĠR oy
D P
Ġrece ption
Ġtechn iques
v ements
Ġde leg
ĠJan e
ĠH ur
ĠR en
Ġadj acent
ific ations
Ġsurv ived
Ġintro duction
ĠD iv
Ġsing ing
e ast
Ġb atter
Ġste am
ĠF ame
Ġz one
Ġpro s
ĠHow ard
v ant
Ġdo or
Ġt ail
ĠN ow
Ġsup erv
Ġobject s
ĠB arn
if ul
Ġreg ularly
ĠD omin
Ġget ting
Ġres istance
ĠMar ine
Ġroad s
Ġdist ributed
Ġtrans form
ĠG ab
Ġfe ed
Ġrev olution
og y
Ġm ole
ĠR ose
ĠN ich
Ġengine er
Ġr ating
Ġf iction
ĠF inn
ry st
ic ians
omm od
Ġra cial
z h
Ġf ine
ĠY outh
Ġis lands
ant ly
Ġcor por
Ġem ot
c ia
ĠGree ce
ĠSen ior
E R
Ġlead s
ĠT an
ĠCol l
Ġac id
Ġdr um
r un
r ator
ĠK at
Ġw itness
Ġa x
Ġposs ibly
includ ing
Ġsur g
Ġp ione
Ġmusic ians
Ġsus p
Ġsk ills
Ġc rown
u ct
ĠHar ry
u v
Ġe g
ĠRepresent atives
. âĢĿ
e ke
ic ide
ro it
r ine
Ġg ene
o a
ĠAl b
d es
Ġch urches
Ġlink s
Ġqu al
Ġc inem
Ġh air
ap es
ĠH ockey
over ty
Ġwrit ers
ĠC hen
Ġse ctions
ĠWh it
h ol
Ġmom ent
Ġcomb ination
Ġhum ans
Ġcon vent
ĠSim on
ĠW ell
Ġreject ed
ĠT el
Ġground s
ĠF ront
Ġanc est
ĠP ot
Ġn ick
h r
u i
Ġcharg es
ograph ics
Ġexamp les
Ġs ell
our ney
Ġbusiness es
Ġkil omet
ann ed
ri p
duc ing
Ġeas ily
Ġoppos ite
ĠR on
Ġpre fer
ĠEnter tainment
6 8
Ġcollabor ation
ĠCol omb
Ġsecond s
Ġdec ade
Ġarran g
ĠDie go
Ġadvant age
ÃŃ a
ĠC er
Ġdisp la
Ġp ed
ĠL ow
ĠBudd h
ĠG ib
Ġlic ens
Ġdesign s
ĠR ural
Ä «
Ġshe ll
ĠTh ird
Ġcomm itted
id el
Ġdetail s
ĠPl an
Ġon es
ord an
Ġgood s
ĠM and
Ġphil osophy
un ch
Ġse ems
Ġstand s
Ġen l
Ġgr ant
Ġsh ut
Ġst ores
Ã¼ r
Ġbene f
Ġis ol
Ġb an
Ġsub urb
Ġtyp ical
Ġren ov
ĠKent ucky
19 0
d am
Ġmar ine
ĠDou gl
ĠCl in
ĠO ak
Ġtrans ition
Ġfact ors
Ġd ry
ĠL ieutenant
Ġoper ates
4 3
Ġm ist
ĠIsrael i
Ġpro ced
Ġres ign
le vel
r Ã©
Ġgreat est
ĠHou ston
Ġstand ing
Ġpurch ase
el er
Ġact ual
ĠAd am
ar ry
Ġen for
ĠMe an
ĠMag azine
Ġcle an
ĠMay or
ĠPal est
D A
ol i
Ġrail road
b ox
Ġmed ium
ele ction
ĠMiss iss
ĠR ab
Ġpasseng ers
os lav
Ġw orth
ĠWork s
Ġnot ably
inn er
ĠM it
Ġ Ä
act ive
is a
ĠH ans
ĠD al
Ġpar allel
ol as
Ġref uge
ĠAddition ally
E S
b urn
Ġacc ommod
Ġa ware
ar o
Ġbro ken
ĠFreder ick
Ġdel ay
ĠB ou
Ġit ems
v ens
ĠCon nect
ĠSquad ron
st an
ĠCommon wealth
ul es
Ġj azz
ĠAl bum
Ġ191 3
Ġdra wn
Ġdam aged
ĠK u
Ġs ession
Ġmeas ures
Ġ191 1
Ġcour ts
Ġcontribut ions
Ä ±
Ġstre ets
Ġre action
res ents
Ġret ained
Ġdid n
Ġcritic ized
rom e
Ġstar red
Ġbott om
Ġb ishop
Ġcomm it
7 9
Ġresident ial
ĠT reat
ĠOn ce
pect ive
c ons
Ġdem and
ipp i
Ġfa ith
Ġp iano
ĠIm perial
ĠCh ile
Ġs outheast
Ġcharg ed
Ġad mitted
Ġh our
Ġkn ock
ĠF arm
Ġpain ted
ra v
Ġown ers
Ġc atal
Ġse lect
Ġan s
z z
Ġtri p
c i
Ġch ain
ra cy
ĠD anish
ĠD ur
il st
Ġass umed
Ġdefe ating
Ġwh y
Ġhabit at
Ġro utes
ĠPri x
m i
idd en
Ġro oms
Ġst ood
Ġst ages
Ġimm igr
Ġsol id
ĠGall ery
ĠAnd erson
ĠSp ace
Ġhead ed
ad i
Ġcred ited
iam i
ob e
Ġcop y
Ġatt ract
Ġd uty
Ġcapt ure
ĠA C
Ġim ages
Ġwe b
Ġr ich
ĠHe art
rast ructure
am ic
ĠCommun ist
ab led
Ġre ality
Ġdoc uments
Ġdeterm ine
Ġpri ze
Ġl at
Ġsh all
Ġmembers hip
ĠD ig
Ġh ill
Ġs oci
ĠB an
st ar
rol led
Ġrem ark
M an
d on
ĠEx press
Ġwinn ers
Ġdeliv ered
ĠN ik
Ġrep resents
ĠArgent ina
Ġrele g
ĠW y
Ġteac hers
ĠN a
Ġexper ienced
Ġfre edom
ĠB rand
ad ow
Ġ189 0
Ġmin ute
ĠQue bec
ins ula
Ġs omew
Ġd oll
Ġcom ic
ĠTok yo
ĠT ar
Ġth row
th odox
Ġs elling
ĠR ugby
Ġb ond
Ġlaw yer
ĠHot el
Ġhe at
Ġatt ached
oth ing
le cted
Ġaccompan ied
are st
Ġob l
Ġsouth west
Ġch ampions
ĠL ocal
ĠR ang
6 4
ĠL ive
Ġmot ion
Ġ190 8
Ġpur poses
en h
Ġch air
I T
ĠArch itect
ĠG ard
Ġvoc als
n ight
om ing
ĠN ag
ĠJ ay
Ġarch ae
Ġshe l
Ġb oys
Ġ4 2
Ġdiv isions
ĠHol lywood
Ġsignificant ly
ĠB rian
te enth
og ether
Ġshow ing
Ġw ings
Ġ x
ĠTai wan
ill er
d ale
ĠPat rick
ĠBase ball
Ġm ilit
ĠC emetery
Ġcirc um
ĠS port
Ġsequ ence
ĠA lab
rel ated
i ot
Ġpublic ations
ĠAll en
Ġsum m
ĠAr k
Ġren ew
Ġc od
ĠUk raine
Ġuns uccess
ĠSam uel
f inals
Ġrest ored
Ġlook ing
ĠOtt oman
Ġdemon st
ir t
ĠH ug
uer to
) "
Ġprovin cial
Ġup d
com ing
Ġinvest ment
Ġdev ice
ĠD ublin
Ġcol l
Ġpain ter
ail ed
Ġb ran
Ġpolic ies
lah oma
Ġrest rict
Ġrec ip
ĠHer itage
ĠPr in
Ġdeg rees
ĠDen mark
N e
y les
t ure
ĠA le
Ġche ck
ĠR ound
l ock
8 8
Ġcon text
Ġint elligence
ĠVilla ge
Ä ĥ
a ired
ĠR oc
Ġcy cle
Ġ5 5
ell ite
Ġann iversary
Ġdr iving
ĠLegisl ative
um a
Ġadap ted
Ġa er
ĠDet roit
Ġc aught
in ate
Ġg ets
Ġnot hing
Ġsepar ated
ĠAf ghan
ĠPh ys
Ġcolon ial
Ġfranch ise
ass ador
wh o
Ġin stitution
Ġal leg
ĠG a
Ġal t
enn y
ĠC ra
ĠH ills
Ġdep th
Ġn or
ag u
Ġelect ronic
Ġconcern s
ĠRe al
Ġf lying
Ġpers ons
ĠI owa
Ġdep uty
Ġt ick
Ġtra il
Ġd uties
ĠCE O
ĠD ick
in burgh
Ġacc ur
emb le
ag n
ĠOper ation
Ġpopular ity
Ġcomp ris
Ġtri es
Ġb ed
aval ry
ĠR and
Ġv eter
ĠJu an
c ious
Ġarr ival
Ġcon qu
ĠB uck
Ġstop ped
ĠS el
Ġfl o
Ġv ary
ĠDem ographics
arg o
Ġg arden
ĠK am
Ġsugg ests
Ġpri est
ĠBelg ium
Ġun us
ic ut
iss ance
ĠJes us
Ġth ick
Ġmusic ian
ĠL ank
Ġlegisl ation
ĠDeput y
Ġd a
Ġp overty
bor ough
ĠC ost
ren e
Ġun iform
ĠA M
ĠW olf
ĠHar vard
ĠDougl as
ĠAlab ama
ĠR id
ol t
6 9
Ġn aval
Ġlearn ed
o oth
Ġs ave
Ġinter ested
ĠHaw ai
f ound
ĠP uerto
Ġfact or
au x
ĠJ am
ĠIndepend ent
ust er
Ġunder standing
p se
Ġw ounded
Ġbig gest
Ġb rain
ĠF A
Ġcar bon
S tar
Ġneigh bour
ĠMo ore
ĠLt d
Ġm ort
ail s
Ġmet ers
c oh
Ġsever e
Ġpubl ishing
Ġc risis
ĠS et
Ġch ance
Ġinn ov
Ġform ally
Ġcompet itions
ĠChild ren
Ġcomm une
Ġfac ulty
Ġarran ged
ĠR em
Ġsubject s
Ġpre ced
Ġcommun ication
Ġf ly
ĠSh ah
Ġorgan isation
ĠK y
Ġown ership
ĠCon stitution
Ġprote cted
el ine
Ġp ool
Ġflow s
c op
Ġshoot ing
Ġad vent
Ġin her
oy d
ĠGord on
6 7
m ph
Ġb rig
ĠHar ris
Ġcomp ut
Ġe ye
ĠIn n
ĠP ict
ĠTer rit
Ġprot est
Ġg ender
Ġprep ared
ĠJ ordan
P C
a ver
Ġcar rying
Ġret ail
ĠL yn
p at
Ġinvol ving
ĠT rib
ĠIn ternet
Ġdyn asty
ĠM iami
ĠK az
Ġtransl ated
ĠRail road
ĠMississ ippi
ĠOk lahoma
Ġm ine
Ġf ired
Ġwind ows
Ġcal c
ĠRes erve
Ġclass ified
ell o
ĠEd inburgh
ĠAl ber
Ġrespons ibility
unn el
ad s
ĠR ights
ĠAnth ony
Ġp hen
Ġr ates
ene z
ĠB ry
Ġexpress ion
ist ant
v o
Ġstay ed
hes s
j o
ĠSe e
Ġthous ands
Ġcol our
Ġmin ing
l ades
Ġgr ass
r at
Ġf an
Ġp and
ĠSil ver
ĠBrazil ian
ĠL et
ond er
I V
Ġinterp ret
Ġus er
ĠL iver
ĠCo oper
Ġsyn the
ĠU C
Ġdef ensive
Ġs ed
ut t
Ġd ating
Ġsuccess or
ĠPal ace
ch i
E A
et ime
ĠAl ban
ĠL anc
Ġdiv or
ch a
ish ment
ag en
Ġimpr ison
Ġcritic ism
Ġaspect s
Ġpeak ed
ĠCh airman
ĠP ap
Ġref ere
el ess
ĠBatt alion
Ġsus pend
Ġphot ograph
he me
ĠB erg
Ġut il
ĠEr n
Ġunivers ities
Ġdiffer ence
r ons
ig ious
Ġdiffer ences
ĠA ge
ĠH amp
Ã³ w
ĠTam il
ĠS ky
Ġthe ater
Ġpract ices
Ġan th
Ġapp ropri
d o
A ll
l ov
ĠK arl
Ġmed icine
Ġt ack
ĠL as
Ġturn s
Ġother wise
Ġdaugh ters
ĠL iter
Ġse ed
im ore
Ġmy th
ĠI S
Ġassist ance
Ġlocal ity
Ġh its
ym n
Ġreturn s
Ġhe rit
ri x
Ġ190 5
8 6
ĠPro te
ĠSe ason
ĠCon struction
g ro
ĠE ag
Ġqualif ying
ĠUk rain
Ġextrem ely
d i
Ġdesc ription
ĠP un
ĠAss oci
ard o
Ġens ure
Ġs un
ĠG ulf
ĠH al
Ġequ ivalent
ĠAm b
Ġlink ed
Ġle gend
Ġm outh
ĠMountain s
ĠM ission
ĠV in
ĠMont real
ĠAust rian
ĠL in
ĠBang lades
Ġdia gn
Ġtest ing
on om
Ġadv is
laim ed
T S
ĠSt ew
Ġcross ing
e as
Ġwind ow
Ġ188 0
ĠA ud
Ġchall enge
Ġst ret
Ġter ror
Ġgradu ating
Ġ ign
Ġt ank
r ong
ĠPh ill
Ġve get
el and
ĠSat urday
Ġnick n
ĠEn vironment
I N
l ad
is d
ĠRober ts
Ġw ave
Ġ190 6
ĠPit ts
ot te
ĠC ook
ĠLouis iana
ĠAtlant a
ile y
I s
ug ar
Ġh ors
7 2
ĠC ow
Ġrec ru
ĠMean while
Ġcoast al
h ab
el son
ĠSt ra
Ġv o
m at
ĠU l
Ġdev ices
Ġf iled
Ġro se
Ġnov els
ĠN on
Ġweek ly
Ġrepla cement
ĠDis ney
ĠH ere
ars h
ĠAnton io
9 8
g on
Ġass ault
arn er
vel and
Ġrough ly
ic ate
Ġact ors
ĠM eth
Ġ190 7
in ian
Ġrequire ments
Ġoccup ation
Ġb at
Ġmiss ing
Ġflow ers
Ġclass ic
ĠIndones ia
gr ade
T O
Ġn om
ct ic
Ġbank s
ĠPortug al
pro fit
Ġc old
Ġrel ative
ak ed
n ers
du ct
c rib
od ge
ĠMc K
Ġdecl ined
Ġ190 9
ter y
Ġsc heme
6 2
ĠY ug
all as
Ġauth ors
ĠMarg aret
ĠP ur
ĠP ed
Ġfix ed
u ous
Ġcover age
Ġsquad ron
m od
Ġte en
ĠDo ctor
Ġm obile
Ġcomm emor
Ġeven ing
Ġde pos
P ro
ĠN ar
ult an
d d
Ġcover ing
ĠWel sh
p ers
5 8
L C
ab y
Ġk id
Ġbu y
Ġst orage
Ġherit age
Ġem p
ĠC rown
ĠConnect icut
ang el
Ġc ous
um in
or ial
Ġvict ims
ĠVi enna
Ġs ort
ĠOffic er
b al
ĠB art
ĠCle veland
ĠStud ios
o en
rid ges
ĠIn it
Ġappear ing
ĠCh all
ĠGr ant
ĠL am
Ġper haps
ĠLiver pool
ĠE ric
z er
; /
' m
Ġdis appe
ĠH and
ĠMic ro
Ġprison ers
rap y
Ġopin ion
ĠS R
ĠOr chestra
) :
ist a
Ġrestaur ant
Ġpand emic
ĠD C
ut ions
Ġinst ance
Ġoff ensive
st ances
Ġo ption
M y
Ġexped ition
ĠS ud
ĠMet ropolitan
Ġex ception
Ġass embly
Ġc ited
Ġag o
Ġtechn ique
oc racy
ograph ical
Ġmed ieval
Ġcap able
Ġco ordin
sp an
ĠAlex and
ĠW he
bre ak
Ġf ra
Ġthe ore
M P
Ġpr ime
Ġhead s
Ġso il
Ġappoint ment
Ġenc ounter
Ġoffer ing
Ġtransl ation
Ġsur re
E n
ĠS on
ĠI l
Ġm emorial
ĠSchool s
ĠK ey
ch ang
Ġt ennis
Ġl iqu
Ġadd ing
ĠR yan
ĠR ow
c ur
ĠV ar
ĠDe an
Ġg ang
Ġsign ing
ĠLaw rence
ie ce
d oor
ro ke
Ġcor rect
Ġrequ ires
Ġsound track
ĠMatt hew
Ġhost s
hy th
og an
it als
Ġman us
ĠM aur
Ġ4 1
ĠL ang
Ġchild hood
Ġquest ions
ĠF ive
Ġcelebr ated
Ġinflu ential
Ġexpla ined
Ġf rag
un es
m osp
Ġpropos al
ĠF il
ĠA BC
7 1
in tend
ĠF ern
ĠComm ander
Ġtem porary
ĠT it
f rom
ĠS yn
Ġmur d
Ġjust ice
ain e
Ġprocess es
ateg ory
ick s
ĠDef ense
at ically
ĠMalays ia
Ġsol ution
Ġ190 4
le te
ĠCh ampions
6 3
ĠC ru
Ġstud ying
t op
Ġd im
in ch
Ġra ise
ĠSe attle
Ġtr uck
Ġdown town
Ġincreasing ly
ĠGl obal
ĠP A
ec ution
7 4
ind ing
Ġwood en
il k
Ġbran ches
R e
ib l
Ġwithd raw
Ġ Ð
Ġcontrovers y
ĠR un
Ġsy nd
Ġachie ve
ĠAn na
Ġen h
Ġcred it
p en
P h
ĠB ush
ĠP ow
ĠR ot
Ġd ated
el lect
edd ing
Ġcan c
II I
C l
Ġloss es
Ġart istic
ov iÄĩ
Ġb it
Ġrepla cing
ĠN Y
ĠI ron
ĠD NA
Ġfinal s
6 1
ĠColon el
Ġdeb ate
ĠAg ency
Ġpo em
Ġcont ra
Ġcompon ents
ug u
5 9
ten ance
iv ated
Ġpl ate
Ġn ations
ĠUp per
est yle
ĠBe g
ĠTr ump
Ġrece pt
ra ge
Ġmed als
Ġform ing
Ġent ering
Ġpict ure
ĠAl an
ĠP ear
Ġfr ame
Ġmon ument
ĠL ith
G eneral
Ġ vert
ĠH ig
ĠAthlet ic
Ġexpl os
Ġrep utation
G B
Ġcompet ing
E l
Ġvess els
ĠO w
Ġbring ing
Ġex pect
mir al
Ġc rop
in ations
Ġper fect
Ġnomin ation
Ġaff airs
Ġden ied
ĠHon or
ĠUkrain ian
ĠCult ure
ov o
Ġd ies
ph one
aster y
Ġrel ief
ĠSing h
ĠWalk er
Ġlist ing
Ġaccom pl
ĠF al
Ġt ied
Ġthreat ened
ĠIn vest
ĠDon ald
il arly
Ġs now
ĠMor gan
Ġking dom
Ġwe ak
ew ork
ĠY an
ĠBroad cast
Ġexper t
Ġinstr uments
ĠFle et
ĠLe v
O n
Ġstrong ly
Ġbound ary
Ġart illery
ĠKenn edy
ide o
Ġann ually
ĠHung arian
ĠM embers
ĠR ace
ĠS af
Ġforest s
% ,
ĠHung ary
Ġcolle ctions
Ġrec re
r ant
Ġf illed
Ġexper iences
ĠBalt imore
Ġf alls
ĠPet ers
Ġmanufact uring
Ġacc ounts
ol ph
Ġj ourney
c ular
Ġnot e
rupt ion
ac her
C on
Ġwhe el
ock s
hip s
Ġ Ġ
ĠK ev
Ġev olution
p erson
Ġexist ed
mer ce
ĠK ings
I P
ĠR an
Ġpro hib
Ġland ing
Ġc ool
udd en
Ġam end
Ġstr uck
Ġconsider able
ĠR ap
Ġhel ping
Ġmark ets
ah n
Ġmess age
x ts
Ġman ner
ĠYug oslav
Ġout put
Ġappe al
ĠHis pan
Ġf ishing
Ġbene fit
Ġ190 2
ĠP C
Ġfilm ed
Ġstrateg y
ĠT ig
ĠAg ricult
ĠMark et
Ġappro val
Ġ190 1
re ll
ap olis
Ġstri p
Ġsurround ed
Ġsup posed
Ġim ag
ie ge
Ġinvol vement
sh aped
Ġun f
st ory
Ġ187 0
8 9
or f
as ters
Ġrecord ings
amp s
ol ly
Ġchart s
Ġw arm
em en
7 3
Ġfind ing
mar ine
Ġt ie
s m
g ow
Ġev al
Ġvis itors
n al
Ġdecl ine
w here
ush ing
ĠG arden
ĠD rag
p re
ĠCon vention
ĠAll iance
ĠCons ervative
Ġme ets
ĠH op
ed ia
Ġw ides
Ġele ctoral
Ġg ather
ens es
Ġind icated
ĠW ard
ĠFin land
ĠL ane
h ard
ĠJoh ann
rib ute
Ġr u
ĠNaz i
Ġchampionship s
M ar
Ġlast ed
5 2
id ency
ĠS i
B e
O C
Ġf ruit
Ġext ens
ĠGl as
Ġele ven
c alled
Ġcomplet ion
ur i
ĠLa ure
ĠR y
Ġe yes
ĠOr thodox
Ġround s
Ġb le
che ll
ig ible
Ġm ental
Ġp apers
Ġal coh
ar on
Ġsec ure
ather ine
Ġ190 3
p read
ĠSing les
ĠD ave
ĠPe ace
ĠI mp
ict ional
ĠN av
Ġelim inated
Ġwe eke
l on
ay an
Ġam ateur
ming ham
Ġguitar ist
E D
ĠD yn
ĠM ach
Ġadapt ation
Ġ5 2
á »
ra k
ĠSen ator
for ce
ĠR ick
am ents
Ġc up
Ġf al
m ate
Ġc atch
z o
Ġass ign
ain ts
Ġp itch
ĠOper a
s ch
ĠOrig inally
Ġl ists
l as
Ã «
ep ing
ĠG ene
b ishop
ri k
an ia
ĠL ower
Ã ¥
Ġsh if
Ġmov ements
Ġag greg
Ġl ov
is ition
Ġcount ies
ĠR io
Ġgro wn
re f
ĠUn like
Ġsubs idi
ĠAlf red
igh ters
Ġspirit ual
Ġre nd
Ġparliament ary
ĠJos Ã©
u j
Ġ4 3
Ġpl ane
Ġconc rete
ĠB ull
ĠKel ly
Ġjur isd
ĠB uff
ra c
Ġe ighth
0 9
ĠPlay er
ĠAl ong
Ġn et
Ġsurv iving
port ed
S S
h us
Ġpen alty
ĠConf eder
ial s
ĠMr s
Ġb es
ess ions
Ġa cted
' re
G A
Ġd rew
os m
ĠCat hedral
ĠSh a
Ġr ivers
ÃŃ n
if er
in ter
Ġemer gency
ig rated
0 8
ĠN ort
ar at
ret t
Ġsomew hat
Ġf it
ĠAnd re
ĠS A
Ġne ut
Ġmod ified
x ual
Ġabs or
d ie
grad uate
ĠR ub
5 1
ik i
E T
ĠBroad way
I nd
Ġre act
Ġdon ated
Ġf ear
ĠAuthor ity
iv ation
ĠA y
d r
Ġmountain s
ĠRog er
ĠE qu
ĠKev in
ĠPitts burgh
in ction
Ġprom pt
Ġsuspend ed
Ġclass ification
ĠP rom
Ġcirc uit
Ġf est
Ġh uge
Ġequip ped
Ġhapp ened
Ġlic ense
ĠU E
5 4
Ġex erc
Ġparticip ation
id ers
Ġre un
" -
ĠLe ban
ĠStew art
Ġcou ples
Ġel der
Ġm ob
ĠTra ining
Ġthir ty
Ġexecut ed
Ġdirect ors
le ase
Ġsuff icient
Ġt ur
ĠEn ergy
Ġc ook
Ġpr int
Ġinf rastructure
ĠP as
ĠBanglades h
or er
ĠÃ ī
Ġed ited
ri ent
and o
Ġsat isf
ament al
h ost
rane an
ud a
Ġcl imb
Ġjob s
Ġcontinu ing
se a
ĠRuss ell
Ġd ress
ĠV enez
ĠPat ri
Ġvess el
h u
aw are
Ġdeath s
l ook
ra ce
ĠThom pson
Ġattra cted
Ġdistingu ished
ann els
ab ilities
Ġpl us
la c
Ġrecommend ed
ĠAp p
m ina
Ġwides pread
ĠG ran
ĠHind u
Ġsh ares
Ġspe ak
A s
Ġcharacter istics
ac on
ĠMet ro
Ġ +
ĠCamp bell
b ridge
Ġv s
Ġcontrovers ial
Ġh am
ĠA T
5 3
Ã ´
Ġpop ulations
Ġt ests
ĠN ep
ĠBir mingham
Ġp ray
ĠSar ah
f inal
Ġass ass
Ġdef ence
press ion
Ġthem es
ĠE xt
ĠWith in
Ġp ric
ĠE ver
ĠN ash
Ġille gal
gress ive
ast s
H S
es ter
Ġ5 1
Ġgen re
Ġdra f
Ġfrequ ency
ap h
Ġmod er
ĠCrit ical
Ġrepresent ation
Ġmeet ings
Ġcont ested
b ut
pos s
oty pe
Ġthe at
Ġtravel ed
ĠAust in
ĠCh amber
Ġs ter
d y
Ġt urb
ĠMeth od
ĠJud ge
Ġinf antry
Ġoccasion ally
Ġelev ation
Ġvot ing
Ġcam era
ĠBrother s
Ġsur f
ĠAr n
ig e
Ġwhere as
Ġtre ated
ĠIn formation
oun ced
ĠT rad
Ġnewsp apers
Ġsh ore
Ġh ur
ĠV ik
ĠShort ly
Ġpost ed
Å Ħ
Ġadop t
m al
ĠNor man
ck now
og s
ĠD allas
Ġmin imum
u y
ĠCh ampion
Ġagricult ure
ect or
Ġv ic
Ġdesign er
Ġvis iting
n ia
Ġeffect ively
as ure
Ġ4 6
Ã© t
? "
Ġseg ment
Ġwh ilst
Ġrep ro
Ġchang ing
Ġex pos
ol o
i ors
ĠD ream
Ġpan el
5 6
ĠMed icine
Ġl in
ĠM oon
Ġh ang
Ġrapid ly
Ġ4 7
ĠB asketball
is i
ĠN elson
ch o
Ġat mosp
ren a
os ph
ĠD om
Ġret ain
Ġsk in
Ġb en
Ġint ention
Ġatt ributed
Ġremain der
Ġvis ible
ĠOrgan ization
Ġportray ed
Ġpred e
ĠIn stead
ĠRoman ia
Th is
F M
att an
Ġ189 8
am an
ĠBru ce
Ġte ach
ail and
ĠL l
le ased
Ġf led
e ed
ĠAd ams
Ġdraw ing
Ð °
Ġinter section
Ġsu icide
ĠP rad
h ai
Ġemer ged
Ġel d
se ud
Ġvide os
Ġc ards
b ach
ĠCam er
ĠMor ris
ĠLith uan
Ġplatform s
ĠB ox
Ġrem ember
ĠG on
Ġdefin ition
ast e
Ġad min
le m
ĠH orn
Ġb ot
Ġto ols
ĠS n
Ġrul ing
ĠFrank lin
Ġh ip
Ġpro port
ĠB ed
ĠB achelor
ĠW W
ĠE vent
Ġsp oke
Ġa cknow
Ġemploy ment
Ġdepart ure
ot es
ann y
Ġenter tainment
Ġchap ter
m aster
ĠW ol
Ġf il
Ġrank ing
the less
Ġunder ground
Ġyoung est
Ġarchitect ural
ĠH it
w all
la p
Ġinj uries
Ġinn ings
ĠL ib
ĠDe c
ĠMar ie
apt ist
Ġoccas ions
Ã© s
Ġbe ar
Ġtransport ation
ro c
Ġany thing
ell i
ĠS ac
ĠTr ade
ĠBe ck
ust ed
Ġval id
Ġhundred s
ĠVictor ian
as a
ĠProt est
D S
ĠD ak
Ġk m
Ġgreat ly
b at
Ġ1 20
g i
Ġd ream
re hens
Ġd ie
ĠY our
Ġm art
M C
ĠN ob
ĠGu ine
h and
ĠBrook lyn
Ġar c
ĠA round
Ġbelong ing
Ġkn ew
Ġdepend ing
Ġchap el
Ġend emic
ult ane
Ġlandsc ape
ud es
ĠB oys
ĠPro du
r ations
Ġl ieutenant
Ġten ure
Ġmain tenance
Ġsurg ery
Ġhon our
Ġbe et
Ġere cted
Ġfem in
Ġs occer
ĠUE FA
Ġl ob
Ġpr on
Ġcon vention
Ġres olution
ĠBe at
ĠN BA
ellect ual
Ġunder t
Ġw ick
olog ists
Ġmass ive
Ġv ision
Ġdescrib e
Ġpres erved
ĠMov ement
Ġnetwork s
m ath
B l
Ġassoci ate
9 2
ĠMur ray
Ġblock s
ru ction
ĠQ ual
ĠC are
ic op
Ġsuff ering
Ġpred omin
Ġsuppor ters
erb ai
Ġf urn
ĠCar ter
Ġrepresent atives
oc a
Ġcous in
u ated
Ġspok en
Ġpre gn
ĠW right
9 6
Ġcent ers
ĠThe ater
ĠRob inson
Ġtrad ing
ĠCh and
ĠG ri
Ġdem olished
ĠMarsh all
old s
ĠEconom ic
Ġt ell
ĠK an
ĠDist ribution
Ġencoura ged
Ġbo ats
Ġunderst and
ĠM ond
est one
ĠTh ailand
ĠMu ham
Ġvers us
Ġven ue
ĠVenez uel
Ġperiod s
ĠF el
ĠM ong
Ġcele b
Ġexc ell
ĠHe nd
ant asy
Ġdiscover y
stru ct
Ġin ner
as hed
ĠBel gian
ot ton
Ġsup plies
st ic
d in
Ġdiam eter
Ġm o
Ġbatt les
Ġlong est
Ġdom ain
ĠHe b
Ġmiss ions
ĠCo le
ĠT ax
5 7
Ġt act
ĠE very
Ġreg ime
ĠF ried
Ġw ine
Ġm ir
ĠPla ce
Ġgrad ually
Ġsat ellite
Ġ189 9
iter ranean
Ġunus ual
Ġw orship
ĠC hem
Ġd ang
Ġbeg un
Ġ186 0
ou ver
ĠRac ing
oc ol
ĠStan ley
ĠN BC
ĠG or
Ġdial ect
Ġoper ational
Ġph one
ĠF rid
Ġconcern ed
ĠA R
ĠTro phy
es c
op les
le ans
Ġhors es
Ġspe nding
on omy
iz on
ric ane
ĠA P
Ġst ress
F or
Ġto w
cont in
Ġwrit es
9 7
ĠUt ah
Ġdefend ing
ĠComp et
Ġab road
Ġill ness
ram a
Ġrelationship s
ĠC ricket
Ġcol ony
p op
Ġbe ach
be an
Ġcab inet
umb ent
kee per
c m
ĠGerman s
iv ate
Ġreported ly
ing ly
Ġsent enced
Ġn av
ers ed
Ġex ists
ter ior
ĠE mer
anc ell
Ġstat ue
Ġafter wards
Ġclaim ing
ĠG ener
Ġast ron
ĠCon stant
Ġag encies
Ġparticip ants
Ġcompet itive
ic on
l s
Ġconcer ts
i op
Ġsaf e
Ġproduc ers
Ġri f
ĠFI FA
ĠC BS
ĠD raft
Ġsupport s
ĠCan al
z i
Ġs oul
Ġmiss ed
Ġevery thing
ĠAz erbai
am o
and al
Ġprin ted
er ted
m ates
ĠM ack
Ġmake up
ĠGlas gow
ran g
N o
Ġinstrument al
ĠF riend
ĠPort land
Ġgovernment s
Ġto ured
Ġsched ule
or us
Ġturn ing
ĠS in
Ġimmedi ate
Ġrel ocated
Ġt ribut
ĠCar ib
o om
Ġamong st
Ġsub d
ird s
ro v
ist ical
ĠArk ansas
Ġc ul
Ġs udden
ĠTreat y
ph a
Ġ urg
Ġmarket ing
ĠOr leans
Ġw rong
ĠW a
ĠS oon
ĠWind ows
ĠN atural
Ġsust ain
field er
ĠGra ham
Ġcharacter ized
Ġabs ence
l ie
r ub
Ġmathemat ics
n ed
ran k
ĠAp ple
includ e
Ġterrit ories
Ġrat io
Ġpo ems
ĠFinn ish
Ġuse ful
Ġopportun ities
Ġpercent age
Ġrecover ed
c ut
Ġprede cess
Ġinaug ural
ir ation
arch y
2 000
Ġthous and
op al
Ġex ternal
Ġaim ed
ĠInd ians
ĠN ever
ĠRec ord
ĠK on
s uch
C om
Ġcanc elled
Ġtem por
Ġview ed
Ġbeh alf
ĠEgypt ian
en cing
ant ine
ĠB rist
ĠRich mond
Ġg one
Ġbenef its
ĠS ign
ĠP ubl
Ġch annels
Ġl oyal
Ġse nd
Ġattend ing
M L
l ater
ĠP y
Ġcomp ilation
Ġcommand ed
ĠF ood
Ġcateg ories
Ġpublic ly
ĠDef ence
Ġg rey
Ġind igenous
Ġex ceed
usal em
ĠChrist opher
on ian
ĠN ord
ĠR ud
t es
Ġext ent
b ound
ĠP ad
t ical
Ġ189 6
ĠMed iterranean
Ġtrib e
ĠU lt
ric ted
ele cted
ĠV ic
Ġcont ribution
Ġloc k
hyth m
ĠSt ory
arc hers
Ġdesc ent
Ġhe aring
ĠMil an
Ġfrequ ent
Ġy ield
9 4
ĠCap ital
A d
Ġplan et
Ġprot ests
Ġ( ).
M E
c our
Ġph r
ĠSerb ia
Ġfriend ly
Ġwork sh
Ġpass age
Ġan ch
ĠH um
Ġdu o
il ty
N C
ĠAng l
ĠMad rid
ĠA S
Ġsw itch
ol ia
Ġdisc ip
Ġident ify
Ġadvert ising
Ġn one
Ġhigh light
as i
Ġst yles
Ġth ing
Ġcustom ers
ĠHamp shire
ĠD ub
f are
ĠSc ient
ĠBook s
Ġw rest
ov en
ĠB es
Ġch amber
ĠV eg
ĠN orm
ob a
ĠUn til
th a
Ġag ents
h igh
ĠRoman ian
Ġcon stitution
. '
Ġcre ative
ĠT ower
Ġsubstant ial
Ġrebu ilt
Ġrese archers
ĠAfghan istan
ĠA ld
Ġd ub
ĠYork shire
Ġschol ar
Ġc able
ĠSerb ian
Ġcons ervation
ĠMot or
ĠCult ural
g ie
Ġindic ate
Ġ189 5
ĠMuham mad
Ġcas ual
n i
Ġtrans mission
Ġpro c
Ġenjoy ed
ia h
Ġtrib es
Ġconstru ct
ĠNiger ia
ĠJim my
ĠLim ited
Ġfac ing
n ce
Ġrele ases
Ġorgan ised
so ft
9 3
ocr atic
Ġh al
à ¸
st yle
ĠE U
ĠD ance
Ġb orders
ĠS C
Ġsp aces
anc ouver
Ġce ased
Ġprocess ing
Ġb acter
Ġad ults
ĠKn ight
er k
Ġcomment ed
Ġ189 7
ĠM em
Ġapp ly
Ġdomin ated
Ġdis band
ac re
Ġcr ash
e or
Ġw ars
Ġse es
ĠC atal
Ġmod e
ĠL ud
ĠUn it
Ġw et
m ers
Ġf oss
ĠAg ain
ĠAp pe
ij ing
ment ary
Ġaud io
ath y
Ġeas y
ĠR est
only include
ĠS S
Ġreg ul
ĠN ad
ĠB ris
Ġvol umes
Ġsent ence
ĠLank a
ĠK it
Ġpat rol
ill o
ĠD ra
Ġfund ed
ir i
Ġvot ers
Ġaffili ated
ĠDel hi
Ġnorm ally
us k
orpor ated
Ġins urance
crib ed
Ġspons ored
Ġmerch ant
Ġf ictional
ĠMan h
Ġpick ed
ĠAthlet ics
er ia
Ġrest oration
ĠF all
iss ue
Ġb id
ĠBern ard
Ġphen omen
it ure
Ġapparent ly
or ous
Ġrank s
ĠN am
ĠTransport ation
Ġbroadcast ing
z es
ash i
Ġathlet es
Ġimplement ed
ĠCh ang
ĠS uch
ĠGirl s
Ġfac ilit
ĠPrin cess
at ur
Ġd ual
ĠYou T
Ġf ur
n ik
Ġst able
8 4
ĠC A
Ġearn ing
Ġdetail ed
ĠM aj
og a
Ġpar am
Ġcorpor ate
Ġpremi ere
Ġseek ing
ro ck
ĠS hip
l anguage
Ġne arest
Ġinteg rated
la ce
ĠR ena
ous es
ĠH ell
ĠSt art
at ab
Ġview ers
ĠB omb
ĠD h
ph an
Ġinf l
du cted
Ġdep ict
ob i
em ed
Ġbelong ed
Ġgrand father
ĠBen j
Ġresc ue
Ġcompon ent
ch t
Ġpat ient
ĠHon ours
ann er
ew here
Ġm ounted
Ġcons ervative
Ġ5 4
Ġp od
Ġp ure
Ġoppon ents
ĠBeng al
ĠJer usalem
Ġstrugg le
R S
Ġsignific ance
ĠAn ti
oun sel
ĠG ill
com mun
Ġdeploy ed
ĠS ax
le ton
ĠHistor ical
Ġexperiment al
Ġrespond ed
8 7
uss ian
ge on
Ġsec ured
Ġcred its
ĠVo iv
ip h
ĠH aving
Ġprincip les
ĠV ancouver
ro ve
ĠInit ially
ĠB enn
ĠC ass
Ġ ;
et a
ĠN eb
Ġposs ession
Ġsw it
Ġexc av
ab il
ĠW arner
Ġtr uth
Ġsym pt
L S
Ġin se
ĠJ un
Ġl ap
ĠH old
ul um
ĠR av
W h
Ġres emb
on i
b rid
ĠEv ans
ĠW restling
0 7
Ġdrug s
9 1
cast le
l en
u its
Ġro ut
ĠM ans
Ġle af
ĠCarl os
ĠR ico
Ġint ent
Ġab use
Ġh olid
ĠHispan ic
Ġn inth
min ute
Ġ189 3
Ġex cess
ĠD ark
Ġsim ultane
Ġcon j
Ġcon st
Ġw at
ĠNe v
Ġrun ner
ig s
ĠEn t
Ġw ants
Ġsubsidi ary
Ġv ast
Ġass ets
m und
b ane
Ġproduc es
sequ ently
ĠBrist ol
ĠB illy
Ġdoub les
Ġmon itor
Ġsub stitute
Ġinv ent
Ġdest ruction
ri el
Ġst rict
Ġscient ists
re ck
Ġposs ibility
Ġevery one
Ã ł
Ġapart ment
Ġ25 0
Ġsett lers
c are
p m
ĠD J
A m
iven ess
Ġpart ially
e o
ark s
f ers
ĠCon n
gor ith
ĠB ud
oh n
plic it
Ġn urs
ĠThrough out
Ġpubl isher
Ġelect ron
Ġstr ing
ĠW inn
ĠR ol
Ġbusiness man
aw ay
Ġread y
ul u
0 5
Ġactiv ist
i ac
Ġimmigr ants
ub le
Ġj unction
Ġw el
Ġex posed
Ġh ope
Ġmov ies
Ġcon greg
f am
Ġpart ly
ĠN et
ark ed
E x
Ġre venue
ĠE ston
Ð ¾
Ġdismiss ed
odes hip
ĠMit chell
ĠM ort
Ġtal ent
Ġcoal ition
ot al
Ġqualif y
Ġconcent ration
ag re
Ġpal ace
arm a
Ġcoach ing
ĠC her
iv an
ĠWar ren
ĠA qu
Ġatt orney
Ġdiscuss ed
Ġ188 9
ce ived
Ġliber al
C ol
Ġpat ron
ĠC P
Ġk it
D C
T E
ĠL uther
Ġro ots
sc ale
Ġmat ters
20 10
f ire
ĠGu y
Ġprov ision
ĠB ible
rep rene
Ġmunicipal ities
ĠW ing
Ġ189 4
ĠR ain
Ġw edding
ĠC ode
Ġdraf ted
Ġcho ose
Ġ189 2
ĠGr ade
ab et
ĠN HL
Ġpartn ers
Ġdisplay ed
Ġte xts
Ġprovin ces
Ġcomple ting
ack s
Ġext reme
fect ure
ir ates
end ar
' ve
Ġdeb t
Ġdr iven
Ġ5 3
8 1
act s
Ġcan n
ĠS ultan
Ġcivil ian
Ġinterp re
Ġiniti ative
Ġestabl ishing
ĠC hel
enn ial
ĠYouT ube
p ent
ĠF ine
res ident
h our
Ġwithd rew
Ġon going
ĠH ud
Ġscholars hip
Ġhonor ary
ĠJ ama
ĠRe form
Ġkeep ing
ĠMon te
Ġfarm ers
at in
Ġm igr
Ġloc ally
Ġexpl o
arg ed
ĠK o
ĠIn s
O R
Ī Ĵ
cl osed
Ġ :
Ġf ile
us c
Ġstep s
ĠVoiv odeship
Ġspe aking
ĠCommission er
ĠA rena
Ġg ate
È Ļ
f ish
Ġout er
et ers
un c
ĠSe ction
av an
Ġparen t
eng er
ĠK um
Ġint ellectual
g ate
st ad
ĠF itz
ĠCommun ications
j ab
ĠBenj amin
Ġbeaut iful
Ġ1 000
Ġcon gress
Ġgener ated
Ġswim ming
8 2
Ġc emetery
Ġas ks
ens is
Ġstat istics
ĠM A
Ġ188 5
Ġbor ough
ĠManh attan
8 3
ĠH as
Y ou
ĠTe le
Ġr ated
Ġsign s
j u
ĠArab ic
ĠI van
Ġpurs ue
ĠG ary
Ġb on
ĠT un
ĠBe ijing
ing ham
Ġleg s
Ġass emb
Ġjud ges
ur ers
Ġ18 50
ĠSh ang
Ġrep air
e enth
ĠSal v
Ġchar ity
ĠCons erv
Ġtrad itions
Ġg ay
onym ous
ĠMic hel
Ġperson ality
W est
Ġ5 6
l ik
c over
al ia
ĠRes ults
Ġsail ed
born e
gt hen
ro se
N S
ĠCarib bean
Ġo cean
Ġmerg er
Ġto uring
ĠMain e
Ġne ck
ĠAnd y
Ġdivers e
g un
ĠJ ason
ĠF r
Ġtra p
Ġiniti ated
Ġhon ors
Ġalcoh ol
Ġim perial
Ġunsuccess ful
n et
uk i
f olk
Ġliqu id
ĠGh ana
w w
ĠHar rison
ow ed
ig g
Ġthr one
Ġout break
ĠN ation
Ġne ither
Ġterm inus
Ġexclus ively
ĠM es
ĠW ang
Ġrel ation
ĠStud ents
ici ency
ĠB aker
Ġdisp ute
inent al
Ġterm inal
ol ition
ĠO bs
Ġsculpt ure
ĠMunicip al
Ġ189 1
ĠSte el
Ã© n
Ġdes ire
Ġr ising
ĠB urg
ĠFl oren
Ġreg ulations
od a
Ġweeke nd
Ġcomp ens
ur u
ak u
Ġfoc uses
Ġany one
ĠRang ers
ĠBroadcast ing
Ġadv ice
ĠBar ry
Ġt unnel
ĠWh at
Ġweap on
Ġclos er
ĠI v
Ġlicens ed
ĠF ather
Ġrem ove
ĠC art
Ġplayoff s
Ġev ac
Ġlab our
ĠAd ela
Ġre ven
Ġeld est
ĠJohn ny
Ġind ex
ĠPr incip
ĠZ one
v ision
ĠFor mer
it ual
ty pe
Ġminor ity
ĠL ast
Ġm ines
ĠPers ian
Ġs essions
Ġanim ated
Ġesc ort
ĠFurther more
u able
Ġres ort
3 00
h um
Ġassist ed
ĠT ogether
Ġh at
Ġtim ber
ĠC arm
Ġ188 8
Ġgu ilty
Ġfall ing
ro t
ĠT ib
ĠG reater
ĠT ol
Ġlow est
Ġcommun ications
Ġw ire
ach t
we et
Ġelect rical
ĠP sych
Ġrefer ences
ĠPar ish
Ġearth qu
Ġthe r
Ġmarg in
Ġj um
b el
ĠElect ric
Ġc ash
ancell or
ĠSch ol
Ġcircum stances
ĠI C
ĠAll ied
Ġlim its
ĠThere fore
Ġrequ ested
Ġdemonst rated
Ġappropri ate
az ines
ĠB aptist
Ġm or
ĠK os
ĠGuine a
athe red
Ġsub mitted
ĠT ob
ĠE ug
0 6
ĠTra il
m aking
ĠSe ven
Ġess ential
b ody
Ġall iance
Ġpattern s
ro ph
Ġbatt alion
ĠIran ian
ĠMuslim s
Ġbal ance
ug s
al ign
Ġtri als
ĠF alls
Ġrom antic
Ġsol ar
om es
Ã¶ r
up er
Ġcon clusion
Ġde ck
Ġunder w
ff ect
ĠAtt orney
Ġtreat y
Ġdec isions
ĠV erm
Ġconnect ing
ĠN S
Ġdis contin
Ġser ial
Ġincre ases
s er
ĠMunicip ality
Ġl ose
Ġprincip le
c ase
Ġup grad
ĠNich olas
Ġmov es
Ġdec ides
ĠClin ton
ĠB ranch
Ġimp ress
h ill
ĠV el
Ġdoes n
ĠP av
Ġfal se
Ġisol ated
ag ar
Ġclos ing
Ġf old
ele ct
ab or
Ġlegisl ative
B M
Ġr ub
un ct
Ġst im
it able
ĠL ate
Ġed itions
Ġb right
ĠPh oen
Å Ł
ĠO range
ĠStand ard
Ġw restling
ĠL ad
ĠPh D
medi ate
ames e
Ġhy pot
Ġorgan is
ĠU g
Ġinvol ves
m aker
at on
ac le
ar us
Ġacknow led
ĠBy z
Ġsh ock
ĠWay ne
Ġ186 5
Ġtrad ed
Ġre duction
Ġclin ical
Ġconv in
Ġcross ed
ar an
Ġst em
Ġprodu ctions
Ġâ Ĥ
em pt
Ġal gorith
ĠDig ital
u ction
Ġwear ing
Ġbe ating
Ġinflu ences
ĠO m
Ġb anned
ĠT ang
O M
f low
ch ing
ĠM ess
ĠF ace
Ġf ighter
Ġindic ates
Ġcr imes
Ġsur ve
Ġtrav elled
âĢĿ .
Ġpro fit
ĠFran ces
ĠM i
ĠCharl otte
ĠChall enge
e ign
ĠTr inity
ĠHawai i
ĠLeg acy
Å ¾
Ġreve als
ĠPrad esh
Ġhous ed
ĠPen insula
ĠN ear
Ġ186 4
ĠT u
qu ir
Ġcamp s
ĠR u
ond s
ĠB ron
Ġt orn
b es
Ġpers u
Ġbound aries
Ġelectric ity
c hers
ĠG oth
ĠG rad
ĠAbd ul
Ġlocomot ives
Ġc argo
Ġconne ctions
Ġsuit able
cer tain
20 11
Ġcomp la
ĠAdela ide
Ġorigin ated
ĠGl en
ĠGri ff
Ġcle arly
Ġcontinu ous
ĠMac ed
ĠMar s
ounc ill
ĠM uch
ĠG ray
Ġinternational ly
ak ia
Ġchar ter
ĠAss istant
Ġoper ator
st ers
an im
Ġnegot iations
b oy
Ġorig ins
Ġem peror
Ġb ay
Ġstrateg ic
am ics
Ġmechan ism
rehens ive
ĠI ce
H A
Ġel se
id al
Ġjurisd iction
Ġsurv ive
0 1
W A
Ġrad ical
ĠStud io
Ġnot ice
ach ment
Ġag ree
ĠPer u
Ġs ight
Ġthere after
Ġco ff
Ġdr ummer
ĠSy ria
Ġf itted
Ġdisc rim
Ġgrow s
f oot
ar io
p any
Ġstren gthen
cel and
ĠAd vis
Ġarrang ement
Ġoppon ent
Ġdomin ant
Ġ186 1
Ġphys ics
iss ions
ĠUnivers al
ĠPier re
Ġsettle ments
ĠLe ad
Ġbre aking
it ime
Ġcl othing
ĠV as
Ġ188 7
Ġsp in
Ġtemper atures
ĠPark er
ĠM ult
ĠCub a
ĠCharl ie
ĠO bl
Ġmon astery
Ġsold ier
Ġmar ry
ĠR ic
Ġj ury
ĠCom ple
on ies
Ġcom ed
Ġovers eas
ac c
M ay
Ġexhib ited
vious ly
Ġre organ
Ġ5 7
ĠBuff alo
Ġsp r
ip ped
Ġg olf
it is
i our
c ient
ĠG mina
Ġphot ography
Ġpre st
Ġc attle
ĠPhilipp ine
ĠI an
Ġm ac
ĠSy mph
Ġcinem a
Ġsee ing
Ġ186 2
ĠRe f
Ġrecogn ised
Ġel igible
Ġconvers ion
Ġhel icop
f ly
ĠG az
Ġsuper ior
if ies
Ġman if
Ġcon stitutional
ne x
C ategory
Ġ186 3
Ã¨ re
Ġrespect ive
ĠAbb ey
od ed
Ġt ort
Ġexp and
t r
ĠT ak
ĠJ enn
ĠAlber ta
Ġmanufact ured
uk a
ĠYear s
Ġp ull
f amily
ĠSocial ist
Ġg ard
Ġwealth y
over eign
and y
ĠMun ich
op es
ĠV lad
Ġdo ors
Ġfest ivals
ili ar
aj a
ĠBris bane
Ġs ang
Ġe at
ĠCh a
ĠLat ino
ĠS occer
Ġ" [
ĠJ osh
Ġs isters
Ð ¸
i ya
ĠArmen ian
Ġcampaign s
P R
Ġman age
Ġdown load
Ġdr ivers
Ġacqu isition
Ġper mission
ĠPol y
ĠAl ice
v ia
ĠM S
ĠMod el
Ġprop ag
inc orporated
app ing
m ont
Ġd iver
Ġfif teen
Ġmark s
Ġ6 00
inc inn
Ġcol ors
Ġdefend ed
ĠHun ter
ass y
et on
Ġin put
il er
forman ce
ĠCons ervation
ĠP ant
ĠCont rol
Ġlin ear
ĠL is
Ġt anks
ĠIs a
Ġor chestra
ĠAm az
ĠBar cel
Ġimplement ation
in os
Ġre ct
iet h
s a
Ġgen etic
Ġp ale
Ġbatter y
0 4
Ġmanufact urer
ot he
Ġeg gs
ĠBuddh ist
ĠFin ally
Ġparticip ating
de f
ĠA er
Ġcond em
ryst al
Ġcollabor ated
elf are
Ġg ram
Ġmag azines
Ġphotograph s
at ar
Ġv ul
ix ed
Ġn inet
Ġdiscuss ion
stit utes
200 8
Ġ6 6
Ġland ed
ĠDemocr at
row s
ĠTurn er
ĠL iga
m o
Ġdeliver y
ĠM all
ac ed
Ġgro ss
et he
up s
ĠL ag
Ġresign ation
M I
ĠIndust ry
incinn ati
Ġ188 6
y gen
Ġviol ent
Ġ9 5
work s
Ġconf ig
Ġreb ell
ĠDemocr ats
Ġinte gr
ah a
Ġtradition ally
Ġen rolled
Ġpromot ing
Ġindust ries
Ġp y
; &
ĠF isher
ĠCent ury
Ġdang erous
ĠBul gar
ĠFac ulty
A t
Ġhe ir
ĠArch bishop
Ġmechan ical
ĠW es
ĠRid ge
Ġhousehold er
b ing
former ly
ĠM ak
Ġconvent ional
Ġpet ition
Ġfl ights
ĠFrid ay
Ġ7 2
p hew
g ener
ley ball
Ġhun ting
Ġto ol
Ġr itual
Ġt ons
Ġide al
Ġhe ar
Ġcontro ll
au ge
Ġsympt oms
Ġacc ord
Ġextens ively
Ġrest ricted
ĠOper ations
O r
200 9
Ã Ł
ĠUr ban
Ġra nd
Ġprefer red
Ġ5 8
Ġt ies
Ġdev oted
Ġdepart ed
ĠTig ers
200 7
ĠTechn ical
Ġf ab
p resent
Ġpract ical
ier ra
Ġm os
C an
f eld
ĠAng lo
ĠV ideo
ĠW or
it arian
ition al
ĠSa udi
Ġfun eral
as ant
0 3
Ġ els
Ġs alt
Ġmanag ing
ok ed
ĠS id
ĠS aints
ib ilities
z ed
z ing
er ior
Ġal ter
Ġex clud
ĠProv in
Ġass ists
ĠI celand
Ġtw in
Ġfe e
Ġsurv iv
ĠD aily
is hers
v i
Ġem pt
ĠPun jab
Ġus age
mon th
ĠCon c
Ġconv icted
el i
Ġexerc ise
ĠTerrit ory
ĠProtest ant
Ġrare ly
Ġprote ins
ĠMor oc
ĠC ad
ĠP il
Ġ188 4
ue z
ĠNov a
Ġels ewhere
ĠCo al
Ġdescrib ing
Ġb ases
al g
onom ous
Ġp ip
ĠC ob
out heastern
g ame
ow ski
Ġ188 1
ĠC all
iv ic
Ġtop ics
ul ating
Ġr ig
ĠBarb ara
Ġmach ines
ĠLe eds
ĠHud son
vent h
ĠO ur
Ġvent ure
Ġmid fielder
ĠKir k
ĠC incinnati
Ġpric es
ĠS r
j ection
ĠMin or
hol m
ĠP ra
Ġin ducted
ĠRe port
Ġbelie ves
Ġcooper ation
Ġpoin ted
Ġt ested
Ġsc ores
ro id
ĠG round
ĠK ap
ĠD od
Ġwid er
Ġcap s
Ġaccess ible
Ġsla ves
ĠB our
ĠR AF
ĠMicro soft
Ġrand om
Ġl ibr
arri er
b us
ĠBarcel ona
Ġcomp iled
Ġac res
ĠCamp aign
20 12
t rans
or ia
Ġcl ock
Ġprepar ation
Ġgu ar
Ġsh ift
Ġin tern
ĠV I
Ġnob le
ĠP on
ang ular
ĠAl aska
Ġpe oples
ĠL ov
ĠDe ad
ot ion
Ġtrans mit
ĠJ azz
ĠSpr ings
ry pt
Ġappro ached
ĠFre edom
ĠH av
ĠC S
ĠThe od
Ġexp ensive
ĠPlay ers
Ġlook ed
g el
Ġ5 9
Ġre aches
ĠAt hens
Ġkey board
ĠA ber
Ġwas te
Ġwind s
Ġb achelor
ĠComm ons
ĠRet urn
Ġ8 5
k ov
ĠL P
ĠChrist ians
ĠF act
Ġav o
Ġrang ing
Ġe igh
ĠColomb ia
ĠP ack
ĠIndust rial
iv ia
Ġtourn aments
ick ing
Ġbi ological
ĠAzerbai jan
ĠPl ant
ĠT ag
ĠColl ins
Ġconcern ing
re z
b in
osp itals
Ġr ide
w inning
Ġarg ument
Ġ" (
ix on
Ġex ecution
Ġfilm ing
Ġlay er
Ġcontribut ing
Ġres umed
ĠK now
ĠLl oyd
ĠHeb rew
ĠH amb
ĠCirc uit
ĠSte vens
Ġcan al
Ġfarm ing
Ġout standing
E E
ĠSpe ed
Ġn ut
oc c
Q u
en berg
Ġus ual
ĠShe l
Ġfram ework
ĠPict ures
est on
ar ation
ĠDi ocese
ig inal
Ġw ard
ĠG rey
ĠD iam
Ġl ingu
Ġdist ribut
R T
Ġsur pr
Ġsub sc
orn e
Ġrec alled
Ġcur ren
Ġr iding
ĠSt ars
Ġcorrespond ing
Ġb aby
ĠM ason
Ġinsp iration
ĠOl iver
P r
ĠC atherine
ĠY ang
Ġa qu
ĠSup port
ĠDak ota
Ġpict ures
Ġtrib ute
ĠM other
Ġrock s
Ġspecial ized
ar v
ĠL ions
st ance
Ġdep ression
ĠJon athan
Ġdis ch
200 6
0 2
Ġbelong s
im ir
Ġexpos ure
ĠC inem
Ġinher ited
oth y
Ġge omet
et ies
ĠSong s
ĠEvent ually
ĠF em
ĠJ a
Ã ª
om ic
ur st
Ġdesign ation
ĠWh o
Ġh a
Ġ8 00
ĠAl t
Ġf ill
B O
Ġdep icted
4 00
Ġ188 2
b ow
Ġsub t
ash a
Ġun incorporated
Ġsem if
ĠChristian ity
Ġcert ified
Ġsm ooth
Ġin hib
ĠL anguage
Ġev olved
ĠEth iop
ab a
Ġclos ure
Ġdelay ed
ĠS ig
ĠC lay
ort ion
wh ite
Ġmin istry
o j
Ġnar rative
" '
ĠNep al
Ġg ast
Ġp ages
Ġr um
ĠA ction
ĠCurrent ly
Ġj u
Ġrese ar
Ġarr iving
Ġinterpret ation
ĠAd vent
Ġvict im
Ġdoll ars
ĠMoh am
Ġbirth day
v ol
ĠâĢ ¢
Ġreleg ated
rup ted
Ġexhib itions
Ġdifficult ies
Ġlegisl ature
Ġcolle ges
ĠL en
le ction
ĠEx amp
r ors
ĠVin cent
e an
ĠBor ough
ĠSpe cies
Ġsound s
Ġc avalry
poss ible
ro oms
Ġhistor ians
en ia
Ġident ical
Ġinc umbent
Ġdepart ments
b ul
ĠSystem s
en cer
ĠSm all
ĠL oc
Ġinterview s
Ġcomm enced
it ic
a wn
ra wn
ĠM ales
om on
Ġspe nd
og le
ĠF if
Ġde emed
ĠSt orm
Ġun like
Ġshop ping
Ġm arch
Ġeff icient
ic ing
Ġvis its
ster dam
ĠP ay
ĠSt u
Ġp seud
Ġdise ases
Ġvert ical
ĠSymph ony
Ġmain stream
Ġth in
Ġtax es
Ġreport ing
Don ald
Ġp or
200 5
ĠNor folk
Ġsum mit
ĠY e
ĠB und
arri ors
H z
Ġcl im
g arian
ĠP S
Ġdiplom atic
ol en
Ġt ens
ĠEx per
Ġcolumn s
ĠConfeder ate
f ree
O ne
Ġne uro
ĠWrit ing
Ġcom fort
Ġleg acy
R I
Ġsim pl
Ġneut ral
Ġabs ol
Ġhel ps
Ġchalleng es
ific ial
Ġcirc le
Ġvar iant
amp a
ĠG iants
Ġinform ed
ĠC ase
ĠSec ret
t z
Ġinh ab
Ġlat est
com pass
Ġdecor ated
Ġper mitted
as er
Ġgall ery
ĠKen ya
Ġsla ve
Ġdec ide
ace ae
ĠR hod
Ġgradu ation
F F
ĠBl ues
Ġmeas ured
Ġcons olid
Ġacc eler
ĠNev ada
Ġburn ed
Ġattempt ing
Ġphys ician
t wo
Ġwrit ings
ĠNap ole
ap ped
Ġend ors
Ġfin ance
O N
ĠB ath
ĠPol icy
ĠNew castle
Ġgu ests
Ġs iege
A M
Ġto t
Ġcr uc
s he
u ber
m other
20 13
Ġcomp r
Ġfle w
Ġne phew
ect ed
ĠAl ger
ha us
Ġro ster
Ġm oral
ĠC elt
ĠM az
ĠC ann
i ability
ic he
ath on
ra ham
ĠArgent ine
ĠCra ig
ĠS ide
re leased
Ġtor ped
Ġgu ide
a is
Ġc yl
ĠRog ers
Ġ rib
Ġan nex
ĠTh ose
Ġeconom ics
Ġquarter back
ĠPhoen ix
let t
ĠMas ters
Ġd atab
Ġcop per
Ġn am
Ġbrig ade
str ong
ĠTe ch
ĠForm ula
Ġfund amental
s or
Ġm ask
Ġsk i
Ġsh ops
Ġtick et
ĠVeg as
Ġ188 3
Ġre ducing
Ð µ
Ġremov al
ĠL an
p ol
ig o
Ġs aved
Ġdisband ed
Ġm al
ĠClass ic
or g
ĠL iving
ĠR al
stitut ed
Ġpla cing
ĠObl ast
Ġt ag
Ġent hus
ĠOb ama
ĠH em
ĠCh air
Ġhy per
ĠS ah
n Ã©e
Ġcon ven
ĠBr ight
Ġportra it
Ġpow ered
Ġrele vant
ĠP le
Ġsc ope
Ġcon fess
Ġwalk ing
ĠC old
Ġslow ly
ling ton
or ough
Ġt ram
Ġrecover y
Ġpup ils
Ġcou p
ĠF ull
ĠH ann
y st
Ġin ternet
ke ley
nd a
ĠJeff erson
Ã ¦
ĠR ing
ĠSt age
ĠH ugh
Ġra ising
Ġr is
ĠH ad
ok a
ĠTy pe
ĠDer by
Ġl es
Ġ6 2
Ġ187 6
ĠCroat ia
Ġpers pective
Ġ9 9
Ġt ight
ĠR oll
w as
ĠSer ge
p iece
ĠAb u
Ġ187 1
Ġhor ror
Ġbeaut y
Ġg iant
p ower
ip per
uck land
ĠArchitect ure
ĠF ab
Ġvac c
Ġenfor cement
Ġb ag
cl os
Ġt ill
sc ar
Ġdem ands
Ġdist inction
Ġprom in
ĠG ate
ĠR at
ij i
Ġrep orter
Ġtempor arily
Ġmurd ered
Ġco ached
Ġsp ir
ĠS che
Ġsimultane ously
Ġrem ote
Ġsub marine
en os
p y
á º
Ġattend ance
ĠWars aw
Ġ6 3
Ġp airs
Ġaff air
ĠC ond
Ġcharacter istic
id o
Ġt enth
ĠG un
ĠR ange
Ġcl oud
abl ished
Ġv oy
Ġdiss olved
ro us
Ġsamp le
Ġcoin c
Ġrece ives
ĠHer bert
Ġt ub
ĠCost a
at us
ĠP el
ĠB rew
ĠEx ternal
Ġab olished
ĠDen ver
ict ions
Ġcoin s
Ġfor g
D F
Ġcarri es
ĠAm sterdam
ĠK l
ĠTh ir
Ġf ulf
ĠP in
ĠM ind
ĠChe ster
Ġopt ions
I L
Ġf ighters
Ġexclus ive
ĠT as
Ġ ur
Ġpredecess or
Ġent reprene
Ġcross es
s ized
ĠAd miral
' d
st ery
ĠâĤ ¬
ang le
n oon
Ġpart ial
Ġesc aped
Ġdistinct ive
ĠBe h
Ġinter change
ĠLu is
Ġhistor ically
Ġph arm
Ġb ath
Ġco at
Ġpul led
ĠM end
ific ate
Ġswit ched
Ġindic ating
th lete
Ġtarg ets
ish ops
Ġres id
w ig
Ġal ive
r aska
ĠL ock
Ġst ead
ĠS ad
Ġbeet le
o ons
Ġatmosp here
Ġaccom pany
Ġrestrict ions
vel t
Ġm amm
Ġsit ting
ĠC N
em ploy
ĠH ope
hel m
S m
Ġpro ve
ĠEconom y
ĠT erm
ĠB ased
ĠOr d
ĠH erman
Ġdo ct
ĠB av
Ġcomp ound
c os
Ġaware ness
cul es
Ġcl an
ĠTer ry
G erman
ew ay
Ġro ot
ĠH ond
ĠF u
at ra
fam ilies
Ġthink ing
ĠMag n
Ġp ushed
ĠM ul
Ġnom ine
ĠR ivers
ĠPrim ary
Ġgrad es
ĠA uckland
Ġra c
ĠAn tar
Ġ184 0
ĠB uch
omet imes
Ġcompris es
f our
ĠB og
Ġ187 8
Ġdis app
Ġexpla ins
ĠW oman
ĠC ou
Ġinter cept
s ong
ĠDr ive
Ġsup plied
ĠPeters burg
ĠPer ry
ĠIndepend ence
ĠFloren ce
Ġthe ories
cy cl
Ġm aps
Ġkid n
Ġin struction
ĠVen ice
Ġhe nce
an ne
ir k
id ad
Ġh ills
Ġelement ary
ĠCom ics
ir ms
ĠB ot
over y
ar r
or o
20 14
ĠAd v
Ġrestaur ants
Ġab oard
ĠJ oy
ces ter
ĠJer ry
Ġrev ol
Ġtechn ologies
Ġpro secut
Ġle agues
Ġcolla pse
n an
Ġhy brid
et ary
writ ten
Ġthe rapy
ĠY am
Ġg athered
Ġspe aker
ĠForm ation
ĠV e
ire ct
al am
Ġappro aches
Ġf asc
Ġs ugar
ĠBulgar ia
Ġcompar ison
ĠMah ar
ok ing
ose xual
st own
ist ing
ĠK ab
ĠRe lease
Ġphr ase
am ation
Ġbas in
Ġch ron
Ġrecip ient
ĠY ale
ĠI b
Ġdescend ants
Ġen compass
Ġs oph
le e
th rough
l ength
Ġent ers
ch ild
iz er
Ġexcell ent
ĠW u
Ġman s
E ng
ĠM ol
ĠS outheast
up t
20 15
Ġor n
199 0
Ġo dd
Ġre la
r ary
ĠEd wards
A nd
Ġsequ el
Ġnomin ations
Ġbank rupt
Ġ186 7
Ġcollect ive
ĠSe b
ĠSp irit
ĠSy rian
uz z
Ġelev ated
or p
Ġcarri er
Ġf at
Ġvir us
rag ue
Ġhypot hes
ĠCl imate
Ġstud ios
ĠHol land
Ġacadem y
Ġass um
Ġc iting
Ġout door
ĠMer c
ĠAlbum s
Ġcor ruption
Ġ6 1
Ġch rom
ir ts
Ġun certain
Ġemot ional
ĠGon z
ĠChap el
ĠB ald
Ġg ear
Ġj ump
Ġqual ification
Ġorganis ations
Ġorgan ic
ring ton
th at
Ġadmin istered
er r
Ġme at
Ġrec ur
Ġvar iable
ĠE sc
ĠProte ction
Ġp ian
Ġ187 2
ff ield
ĠBul garian
Ã¶ n
Ġwid ow
p ow
ac o
ty m
Ġreform s
Ġpro l
ĠHar bor
Ġimpro vements
ber ry
Ġgard ens
ten se
ĠFin ance
Ġ187 5
Ġsp ell
Ġwor st
k g
W hat
p ine
200 4
Ġs ke
Ġseem ed
c z
Ġun less
ĠZ e
Ġsk et
Ġen roll
Ġunder graduate
Ġg ran
Ġ6 8
ĠSh ar
Ġb low
P P
Ġbus es
Ġ187 9
Ġag es
Ġ7 6
ĠS or
st and
Ġconnect s
ĠHel en
isc opal
Ġcap ita
Ġw orn
app y
ĠAngl ican
ĠJ ess
d isc
ĠSh aw
ĠOtt awa
Ġans wer
ĠG as
ĠSur vey
Ġste ep
Ġco aches
ĠNeb raska
Ġfl ank
Ġall ies
Ġpit ched
c ount
Ġfeel ing
Ġpla in
Ġfor ty
p in
ĠLeban on
en burg
ĠFil ip
Ġfe ud
ĠY u
Ġexper iments
Ġret reat
Ġdifficult y
M usic
ĠH ob
f ront
ot ten
ĠRo ose
Ġcitiz en
Ġbut ter
Ġaggreg ate
Ġemphas is
Ġ6 7
ĠO il
ĠCur t
Ġtour ist
Ġarchae ological
Ġto x
B lack
ric ulum
ĠS now
Ġch oir
ĠSte ven
Ġaffili ate
o i
Ġconsum ption
T e
Ġobject ive
Ġg al
um s
Ġinstall ation
Ġt um
Ġbre eding
Ġnam ely
Ġsusp ension
ĠHen ri
Ġex plicit
m its
Ġpark s
Ġrecru ited
ĠS ierra
ĠWell ington
we ek
i ast
ĠS Ã£o
osp el
ĠPed ro
ĠHit ler
Ġer ror
Ġv el
u is
ent le
ĠMur phy
Ġspe akers
Ġtalk s
Ġdocument ed
Ġret iring
Ġvolunte ers
Î ±
ĠS z
am pton
Ġjud g
Ġearthqu ake
Ġz ero
ink ing
Ġpost s
em ies
Ġcolle agues
Ġprof ile
in ating
ĠShang hai
Ġdrum s
g iate
ĠK ath
Ġcontract s
ĠGra ce
Ġautom atic
ĠTib et
ĠH unt
Ġrul er
Ġaltern ate
imens ional
lev ard
Ġmonth ly
ĠVenezuel a
Ġcolla ps
is an
Ġpredomin antly
ĠM ann
ull ivan
Ġconsist ent
Ġs ung
Ġdefend er
ĠBeg inning
ĠS alt
Ġkilomet ers
Ġam ounts
est y
ĠC C
ĠBr un
ĠN i
ĠP ast
ĠOver view
Ġg ymn
B est
ĠG w
il ia
Ġtour ism
Ġth anks
ĠMal ay
Ġcomp rehensive
c aster
ar is
raf ts
Ġproced ure
ĠCroat ian
ĠRe cent
ĠProdu ctions
Ġstruct ural
it ary
ĠKe ith
ĠRel ations
Ġg ap
Ġscient ist
umn i
Ġben ch
ĠPre fecture
Ġexhib it
g om
Ġ186 8
Ġcor ps
it ro
ĠG ay
Ġ186 6
Ġ187 4
ĠHamb urg
Ġ187 3
Ġt elling
augh ter
Ġext inct
Ġres ol
Ġsle ep
ĠH om
Ġb ats
ĠDel aware
ĠÅ ł
ĠStud ent
te am
Ġchem istry
s ub
Ġsh aring
Ġmanus cript
Ġdevelop ments
Ġto urs
ĠEx change
Ġim possible
Ġre op
ĠSo ft
Ġacc um
Ġconc ur
Ġexpla in
ĠS P
ĠS ony
Ġfail ing
Ġland mark
ĠLu ke
Ġfriend ship
Ġfavor ite
Ġse eds
ĠÃ ģ
ĠYugoslav ia
ach i
Ġvocal ist
Ġs ure
ĠMan uel
Ġlabor atory
all ing
Ġper mit
ĠC rim
ĠRoman ized
Ġpro x
Ġdram atic
et ta
Ġarg ues
ĠHug hes
ĠByz antine
ĠN C
Ġpolit icians
vers e
Ġexact ly
akes pe
Ġd rove
Ġang le
Ġcasual ties
ĠS ay
ri en
Ġsp ots
ou stic
n ew
Ġ9 6
ĠNever theless
Ġpro of
ĠS ic
Ġwas n
ĠPlay ing
Ġal ign
ik o
ack ed
Ġnickn ame
Ġapp rec
Ġb ridges
Ġfif ty
ĠEnvironment al
Ġattack ing
ph al
ĠTh ai
ĠL ie
ĠMad ison
Ġs overeign
Ġchalleng ed
ĠS lav
ĠGil bert
Ġ187 7
re ction
ĠAgricult ure
Ġcom ments
I M
ĠF uture
ĠT on
Ġ id
ĠE C
Ġres iding
Ġinc om
ĠBer keley
Ġess entially
Ġpark ing
zy me
ater n
Ġr ice
ĠG ust
ĠM oz
ĠCont emporary
ĠRob in
ĠKer ala
ĠI T
Ġrat ings
ĠV ill
Ġlog o
ĠBl ock
off s
ĠJ oint
Ġtouchdown s
w ald
Ġamb assador
Ġox ygen
ĠP ic
ed a
Ġrefer ring
ĠO cc
Ġsc atter
ĠRoose velt
Ġst yl
ĠEag les
Ġvirt ual
ĠN at
ĠGo ogle
Ġobl ig
Ġveter an
Ġt one
ĠBer t
Ġmain land
U C
Ġa ims
Ġsy mp
Ġsust ained
Ġpre v
Ġfra ud
Ġwa iting
Ġcat hedral
ĠG ot
ĠStart ing
Ġdis aster
ĠCr ime
ĠShe ffield
Ġpl astic
Ġsup plement
Ġask ing
on ial
writ ing
as ia
Ġover t
ĠGreg ory
ĠT oy
ĠC ork
20 16
rop od
Ġphot o
ĠStu art
Ġneighbor ing
d s
att a
Ġy ard
Ġcompos itions
ĠEx hib
ĠM ath
Ġ9 8
agon ist
Ġf ib
Ġr hythm
Ġmin i
Ġst ake
Ġimprison ed
ĠI P
Ġcal endar
Ġb ell
r us
ĠColle ction
ĠN an
ĠMan ager
Ġin stitute
Ġor che
am er
cri pts
Ġqu ad
Ġra b
p p
Ġcons cious
ĠV ers
Ġper ceived
ĠHe avy
ĠFer r
ĠL og
ĠC arn
n amese
Ġsil ent
Ġrev ised
GB T
Ġconvin ced
Ġexpl an
v et
ĠTre as
Ġ6 9
ĠLu x
ĠStan ford
ip er
cc a
j oin
Ġl iv
pl ed
ĠK ash
Ġdist urb
Ġh ospitals
Ġprogram mes
' ll
os es
Ġcl ar
Ġunderw ent
Ġvict ories
Ġaccommod ate
c ore
op ol
ĠM ig
Ġtravel s
k ar
E P
Ġrefuge es
Ġd iet
D o
ĠAl tern
Ġvul ner
ĠHar old
akespe are
Ġst ops
Ġrad ar
Ġreserv oir
ĠK ay
Ġsus pect
Ġact ively
ĠBut ler
it udes
Ġconsum er
Ġachie vement
Ġun ex
ĠW ed
ĠS oph
ĠBob by
ĠRal ph
Ġlo op
Ġthere by
p ic
Ġl ie
Ġreg ist
Ġcontrol s
er as
Ġref lected
Ġvar iation
red ited
ĠAb raham
ro e
w ings
V P
y stem
Ġsc en
Ġbehav iour
l ane
n amed
g ence
ĠC ov
rap ped
Ġinter action
ĠN y
Ġbl ind
Ġ8 8
Ġh idden
Ġsign als
Ġun anim
ov ich
Ġsumm ary
ĠGuard ian
uss ia
Ġdiscontin ued
d al
ĠD og
ĠL arry
Ġceleb ration
" |
Ġl akes
Ġmaintain ing
Ġval uable
Ġfunction al
ann i
w right
ĠW ells
Ġ7 7
ĠPer formance
Ġre lay
anth rop
Ġbon us
200 1
Ġgrand son
Ġillust rated
Ġab und
Ġb ull
ĠIndones ian
Ġpay ment
ĠNash ville
Ġm ilk
ĠCom mercial
ĠG olf
or ious
Ġlaws uit
Ġprevent ed
ĠMethod ist
ock et
ĠCo ach
Ġprin ting
Ġfam iliar
Ġb one
Ġrun ners
Ġwork er
Ġpat ent
I R
Ġelect ro
ĠH az
ĠM ey
Ġ184 8
Ġreg ulation
ĠHor se
Ġm ail
Ġlook s
Ġviol in
p ost
Ġ7 8
Ġconce pts
Ġd ict
um er
o an
ĠDel ta
om ed
Ġreg ister
Ġdrink ing
Ġel abor
it ol
bo at
Ġgen es
ĠDe b
ĠF ight
ĠProvin cial
min ster
art a
ĠSecond ary
Ġhapp y
l ights
Ġlocomot ive
ĠSud an
ĠRepresent ative
Ġgra ve
ĠA x
ĠAv iation
Ġwill ing
in ery
ah o
Ġfoc using
Ġaff ord
ĠB ag
ĠGu ild
as hes
Ġf lex
Ġred es
t hen
ĠN athan
Ġextend ing
ok es
ĠB ird
ĠRail ways
Ġstat ements
ĠM ut
ĠH ab
Ġextend s
ĠWat son
Ġsol utions
b ie
Ġbomb ing
200 3
Ġcul min
Ġs av
Ġprep are
ĠInd ies
ĠWork ers
Ġcont ribute
Ġtheat rical
Ġair line
Ġbre ast
Ġav iation
Ġfac es
spe aking
Ġrev ival
Ġt ier
f ounded
ĠSus an
Ġbeat en
ĠK il
Ġans w
ant a
au kee
Ġpass ion
Ġsamp les
ĠHe in
ĠCru z
Ġarr ives
ĠMar x
ĠL ion
Ġ186 9
Ġemp ire
Ġto mb
Ġh ind
Ġdis order
ĠE g
z on
Ġfeel ings
Ġhand ed
ĠLe o
Ġm asc
ĠErn est
Ġfast est
Ġaddress ed
ĠSom ers
ĠNew ton
ĠK un
ot ing
L P
Ġg ift
yl er
ĠM ills
Ð ½
Ġ18 30
ai ro
Ġliter acy
Ġseg ments
Ġc ave
Ã© l
Ġcrop s
Ġ7 4
Ġcult ures
Ġcolon ies
M on
Ġins pe
c ott
ĠCab inet
ul us
Ġtravel ing
Ġj ail
ĠInt elligence
Ġholid ay
itte es
/ /
Ġfle e
Ġthir teen
Ġalleg ations
duc es
Ġphil os
Ġeng agement
. &
Ġfl our
ĠPl at
spe cies
Ġen act
Ġb in
c or
Ġeff iciency
ĠAr med
Ġflow er
Ġbroadcast s
rack s
ĠR ah
Ġc ogn
ess ed
Ġupd ated
Ã¡ s
Ġarr ive
na issance
ch ief
á ¹
ĠS ut
ĠLiter ature
ĠN ature
ĠB eth
ĠW ag
arter ed
ĠNe xt
ĠC red
fort un
Ġdra g
Ġf aster
Ġart ificial
ĠG ang
a us
ĠO ri
Ġfab ric
ĠD ennis
Ġpres erve
Ġgain ing
Ġperman ently
Ġnumber ed
aur us
ft en
Ġven ues
ĠR ams
ĠBos nia
Ġput ting
ĠE sp
ĠNot e
ĠJ ar
Ġph osph
ĠGram my
ĠFran co
ge bra
is p
Ġsuccess ion
Ġev il
cy cle
ul i
ĠK le
Ġimpro vement
te g
Ġphot os
ĠN AS
ĠArt illery
Ġrein for
ĠPer th
Ġevent ual
Ġsc iences
ĠB ass
Ġth rew
ĠL A
Ġcor on
Ġren owned
Ġcommun ist
Ġcut ting
ĠVerm ont
Ġdem anded
ĠD ol
Ġrefere nd
Ġpione er
Ġrel ating
Ġunderst ood
ĠEconom ics
B ig
he ld
ĠMus ical
Ġmart ial
ĠRhod es
Ġs ick
% ),
Ġtri ple
ans k
hold ers
Ġc ad
ĠD oc
ars on
spe c
ĠNe il
Ġo l
om o
Ġrang es
ĠWal lace
Ġafter noon
Ġtribut ary
Ġgold en
ĠF inals
L ove
ck er
Ġa w
Ġread ers
Ġc ounsel
Ġsh arp
Ġf iring
Ġemploy ee
m ade
Ġbel t
B E
ĠS ask
ĠE RA
ĠCom merce
ĠCompet ition
Ġlif etime
ĠRoc he
id en
ĠBl ood
Ġen emies
Ġrel ie
h in
Ġleg it
ĠSt re
m n
Ġ18 00
Ġab st
i ology
Ġsh orter
Ġp ap
Ġathlet ic
Ġvers e
ĠP rest
spe ed
ib n
Ġfew er
ĠM ap
Ġsh ield
ĠIs ab
ĠB ened
Ġannoun cement
ĠT ow
Ġm orph
Ġt ip
ĠU nd
ĠFin ancial
ĠR ank
Ġequ ation
Ġv ow
Ġas h
h is
Ġimm igration
ĠA bor
B L
Ġspok es
Ġse nding
ĠViet namese
Ġm it
ĠMc M
I f
Ġindepend ently
l iga
ac les
ĠP rague
ĠSh akespeare
Ġfor th
ĠM TV
Ġor b
Ã¼ n
v ar
Ġ7 1
f a
Ġord inary
Ġthe sis
Ġa thlete
Ġeditor ial
Ġcounter part
ĠK ur
l ived
ĠF low
c at
Ġrenew ed
Ġcent res
ĠPal mer
y ll
Ġpsych ology
Ġgener ations
Ġalleged ly
ĠMat hemat
ĠHig her
Ġfor cing
ĠP ut
h n
Ġgra v
Ġart work
Ġwarn ing
if fer
ĠMont ana
Ġf ame
al ysis
af e
200 2
Ġreview ed
Ġstation ed
f an
w aukee
ĠB uc
ĠEle mentary
Ġrepeated ly
Ġn est
ok er
Ġexam ination
Ñ Ģ
Ġ7 3
Ġprogress ive
Ġhard ware
ĠR if
Ġinterest ing
Ġst ored
Ġg if
Ġdes ert
Ġb ars
Ġfoot age
Ã± a
Ġdispla ys
Ġship ping
Ġalt itude
ĠFour th
Ġre de
Ġmoder ate
Ġt el
Ġunivers e
Ġcomput ers
ĠArn old
Ġab ilities
ĠRev ival
ub b
og ical
ent ieth
u ros
Ġboard s
ĠAmb assador
Ġrem ix
Ġc raft
Ġdel iber
he tic
ur ated
ĠK ol
Ġreserv es
f ast
Ġpe er
Ġin tense
Ġexper ts
ator ial
Ġt rick
ĠMond ay
Ġport ions
Ġrequ iring
Ġ9 7
Ġfre ight
d ess
ting ham
ĠT ed
Ġc rick
ĠK rist
Ġrebell ion
cent ral
Ġre ward
row ing
ent e
ĠPhill ips
Ġpat ri
Ġprom ised
Ġf ung
ist ani
Ġprest igious
uc ed
Ġmet ropolitan
Ġpil ots
ĠQu arter
Ġt ru
quir y
f urt
ĠO g
or ient
ĠH at
Ġfour teen
b ek
ĠL ear
en c
ĠPolit ics
_ _
el ing
oin ts
et o
ĠM ust
ap ing
ĠV ent
ĠV a
ĠNorth west
ĠS ang
M arch
ourn als
Ġsitu ations
Ġmin isters
Ġman ip
ĠEx ped
Ġen zyme
ĠS oul
omet own
iff s
Ġm emor
ĠC and
ĠB ond
Ġreb ounds
g ov
by ter
rand ed
ĠBel arus
N ov
id ance
Ġmole cular
ĠPalest ine
Ġdial ogue
ult ural
ill es
Ġrev erse
Ġaccur ate
Ġg rid
ĠT ong
Ġinter vention
plic ations
Ġadvoc ate
m id
6 00
ĠEd die
Ġreal ized
Ġbur ial
ĠFilm s
Ġpo ison
Ġd iversity
Ġsurre nder
Ġg auge
ater al
em pl
Ġfl ash
em a
tym ology
Ġor bit
ac co
ĠL GBT
Ġphot ographer
Ġpre lim
ĠSt akes
ops is
20 17
N T
ĠFran Ã§
ĠSw an
Ġex ile
Ġvar iations
ĠJ unction
Ġhand le
Ġins cription
Ġt ube
Ġel ite
r ish
Ġcl ot
ĠS uz
Ġj ew
Ġt issue
Ġdivor ce
ĠGoth ic
Ġinvestig ate
ĠPear l
Ġh orn
Ġdies el
Ġ8 2
l ined
ĠBou levard
Ġto ler
im m
Ġte eth
Ġare na
Ġhor izon
iet ies
umb ai
ĠArab ia
ra h
G u
Ġwid th
ĠColumb us
Ġm emb
Ġshif ted
ĠAn im
Ġtele phone
Ġconf used
J an
h aw
ĠInter state
Ġeng age
Ġsix teen
gom ery
Ġpr ince
ĠP od
Ġfollow ers
Ġbelief s
ĠP rice
ĠKr ish
ĠRena issance
van ced
J u
Ġprov isions
ĠRevolution ary
Ġc lay
unn y
aly mp
ĠCamp us
ĠCon cer
ĠPan ama
Ġsur prise
Ġl ights
Ġneighbour ing
ĠB ach
i u
ĠS yl
ent ry
ĠM D
Ġcirc ulation
Ġtrans it
ĠA j
Ġjud icial
Ġf ro
Ġadvert is
Ġcrit eria
qu er
A b
qu is
ĠCh an
Ġrif le
arv ae
Ġfall en
f ive
Ġo rient
Ġanth rop
el ia
ina e
Ġactiv ists
Ġex ha
ĠIraq i
Ġb oss
form ing
p age
Ġsever ely
Ġdra in
Ġlist en
Ġord ained
Ġbe am
H F
ign ated
it us
Ġw ish
ĠM idd
bre v
ĠEle ction
Ġdepend ent
ĠCelt ic
ed ed
ĠJ ur
Ġprofession als
Ġp ist
Ġback ing
Ġmag ic
ĠH D
ist ent
Ġex it
Ġmanufact urers
ĠRay mond
Ġm oll
ĠTun is
Ġsoci eties
ĠL ocation
ĠSask at
Ġunivers al
au er
Ġcivil ians
ĠLeon ard
ĠLi u
ĠHar vey
: //
Ġhand ling
198 0
Ġremember ed
ĠGro ve
ĠB ent
ĠCamer on
Ġb rew
ĠB A
Ġcommit ment
om orph
ĠJ in
ĠPr ivate
Ġor ange
Ġanim ation
ĠIn v
Ġ185 7
ĠFace book
uss els
ĠLe ader
Ġdeal ing
Ġun p
ĠBes ides
Ġcoff ee
ult ure
Ġserious ly
Ġempt y
ĠTas man
ia o
Ġpit cher
ĠBra h
ĠAn cient
ĠWil helm
Ġsus pected
Ġprison er
f ol
Ġmix ture
Ġlay out
ul ous
iz z
Ġn aming
Ġsim ilarly
Ġc ouncill
Ġdiscrim ination
ĠExamp les
ĠSer ie
ĠComp uter
he v
Ġmiss ile
Ġse ized
Ġcl ients
com mon
Ġt ape
Ġ9 2
Ġen abled
re ts
Ġm anga
Ġ185 9
im o
Ġra id
Ġspec imens
iss a
Ġb ord
Ġfind ings
el in
ĠS ak
Ġhy d
Ġf antasy
ĠClark e
ĠTw enty
Ġobserv ation
ĠMont gomery
ĠA A
Ġmagn etic
Ġbi ography
J ohn
Ġcelebr ate
Ġinf ection
w he
Ġnot ing
Ġsong writer
ĠAir lines
ĠD in
Ġex port
ĠFl ight
Ġqu een
ĠMot ors
E uro
Ġcut s
ie v
A ugust
ath a
Ġsusp ic
Ġrequire ment
ĠJama ica
Ġrad iation
hab ilit
leg raph
ĠEs sex
ĠV iew
b oys
ĠK ra
Ġassess ment
ro d
Ġh ometown
Ġw aves
Ġd ancing
ĠAh med
ĠP ul
ad ier
Ġhy p
Ġsepar ation
Ġpriv ile
Ġgovern ing
Ġgr ants
Ġp unk
Ġvar ied
Ġf isher
Ġflo ors
Ġsh ots
ĠGab riel
Ġaud iences
Ġperson ally
Ġtask s
Ġs oc
C D
Ġpres ents
Ġc ow
Ġtack les
ĠOak land
ĠStr ateg
ctor ate
Ġgoal keeper
ĠSte in
ĠE ld
Ġmaintain s
- -
ant i
s ur
p it
Ġnational ly
âĢĿ ,
ĠFried rich
Ġan ime
Ġconcent rated
ib li
av ia
ĠCar r
Ġfort ress
ĠIsa ac
ĠSe an
ĠPro per
Ġcrick eter
G M
amb ers
ĠB oe
to ok
Ġencoura ge
C o
h al
Ġpurs ued
ĠStat istics
Ġsc andal
m ill
Ġpack age
osoph ical
ĠOt to
re ated
ĠLe ices
ich i
ĠDire ct
ĠA ges
umber land
on na
Ġdecre ase
ĠStock holm
Ġcan on
Ġnation wide
ĠG and
Ġant icip
ĠR us
oin ted
Ġup coming
Ġsym met
Ġmer ely
Ġcongreg ation
ĠPar alymp
Ġc otton
ĠF am
ĠO scar
sec ond
ĠS uff
Ġtarget ed
Ġk ings
la ir
Ġcompris ing
Ġassoci ations
Ġenl isted
ĠTom my
Ġsk ill
ins ky
Ġinteg ration
Ġreferend um
enh agen
ĠAmaz on
om ber
Ġind eed
y ers
Ġport s
ĠCong o
Ġsup press
in f
Ġcons pir
Ġr ivals
Ġjournal ists
ĠF ul
um i
art s
an cer
ĠR aid
Ġf iles
az i
Ġrele asing
im en
Ġbe ars
our g
as p
Ġcon vert
ĠAm end
Ġstream s
Ġal ien
ĠAcadem ic
Ġbreak s
fer red
sh ore
Ġdog s
ĠSh ir
Ġ8 1
Ġab b
ĠCard inal
is ch
h alf
8 00
Ġspecial ist
Ġman ages
ĠA ra
Ġproced ures
is ode
ĠTri ple
Ġencounter ed
Ġimpro ving
ĠR uth
E L
Ġpresent ation
Ġdisc overs
ĠD ays
oc ent
Ġvolunte er
Ġex terior
Ġb are
sen al
am y
Ġhop ed
ĠJ ava
h all
ĠH ous
et e
S he
at ri
os hi
Ġaut obi
ĠRe yn
m akers
Ġbar rel
Ġcomment ary
Ġcre ates
ĠM ang
Ġpot entially
ĠSc hed
à ¥
ÅĤ aw
ĠDiam ond
Ġsign ature
Ġres ource
ia go
ap ur
oc y
ad ian
Ġrel atives
Ġc ir
ibl ings
ĠIn g
Ġconsid ering
ĠPop ulation
ĠM umbai
Ġcl ient
Ġadj ust
Ġa est
Ġvar iants
h ad
Ġl ad
ĠMil waukee
ĠJ ak
ĠCD P
ry s
Ġdoctor ate
ĠGi ov
ĠJo an
ĠN ak
Ġbr ings
Ġdest ination
ĠVal ent
S T
L B
ĠLeg al
h arm
Ġarrang ements
un ning
ĠBenn ett
ĠS ox
ĠL amb
oun s
as an
bor o
ĠW als
Ġthreat s
ĠMan ila
Ġinhab ited
Ġsuggest ing
Ġrain fall
Ġw ore
k an
ri fic
Ġfound ers
G C
ĠMc L
ĠBr uns
Ġ9 3
th al
Ġfair ly
Ġqu iet
ĠSc out
Ġ8 7
ĠPalest inian
ir us
Ġdivor ced
ĠJ en
z ig
Ġcl ergy
et ry
Ġc hest
Ġh ole
Ġprot otype
tain ing
ĠUs ing
ĠSomers et
ĠG T
Ġtransform ed
Ġre ver
ĠD ata
W orld
Ġmem oir
ap est
ĠB ear
ac a
iz ations
H C
Ġachie vements
ĠP ent
ĠLabor atory
h op
Ġopt im
Ġrecogn ize
uss ion
ĠCy cl
Ġto ll
Ġinter mediate
ish a
Ġind oor
ĠDomin ican
ĠA ires
Ġflu id
Ġdub bed
Ġaut umn
ingu ished
Ġvar ies
mun ition
ĠN g
Ġsurv ival
ĠCh ron
Ġoper ators
ĠAn y
ĠR ut
Ġgar rison
ĠNA SA
Ġcondu ctor
ĠS ite
Ġconfl icts
ub a
St ation
Ġreb els
Ġmat rix
ĠLuc as
ĠFor um
ah l
Ġcitizens hip
Ġun ve
os lov
Ġsh rub
Ġclos est
ters hire
ĠIm m
ĠR overs
ĠFriend s
Ġconj unction
Ġdi ocese
ĠRe ed
Ġdem ocracy
Ġsynd rome
uck s
ĠL ot
ĠF ro
Ġch ronic
enes is
Ġaver aged
199 9
Ġwe aken
ĠSp encer
Ġpra ise
Ġ7 9
Ġconf ron
Ġj ournals
Ġ" ",
h anded
ĠSus sex
ĠArt icle
ĠC ox
Ġproport ion
ĠNot es
ĠF ish
ĠB M
S w
Ġsing ers
b en
Ġst ones
Ġinter se
ĠL akes
Ġpo le
Ġsurviv ors
ĠPr inc
Ġf lav
ĠRe ading
ĠGeorg ian
f irst
iat ric
Ġm all
Ġp ush
Ġpan els
Ġfarm s
l ist
Ġchap ters
ĠKaz akh
Ġauthor ized
back s
Ġexp anding
Ġpsych ological
Ġa uction
Ġ185 4
Ġheadqu artered
Ġrevolution ary
ĠD aw
ĠExped ition
ens on
Ġno ise
ĠD ale
ĠNot tingham
Ġcur riculum
â ĪĴ
Ġkit chen
Ġs in
Ch rist
ĠL ok
ĠM C
G O
ĠA part
Ġlect ures
ov sky
Ġcritic ised
Ġbl og
I F
Ġs hed
ĠS of
ore y
Ġman ual
Ġann ounc
ĠMar vel
Ġtro uble
ĠB ros
Ġconduct ing
Ġprelim inary
arm s
ĠN ame
ĠEx pl
in ite
ĠSh in
ou rag
ĠIndian apolis
ax y
reg ular
av ian
ĠW ald
ail ing
Ġhon ored
ĠM old
Ġhon ours
ĠR af
al in
ĠWeek ly
ĠArt ist
ĠDe ep
ĠSeb ast
Ġpregn ant
uls ion
Ġpl ates
ĠPh ot
Ġ8 4
ĠB od
ĠW here
Ġpian ist
Ġinv ented
Ġlight ing
intend ent
Ġl iver
ĠArt ists
ĠCub an
Ġinter act
Ġshel ter
ĠD anny
Ġdatab ase
Ġmess ages
Ġon wards
on so
Ġwar fare
Ġb er
20 18
ĠF oster
ĠUg anda
Ġt ut
ĠLe ft
bro ok
Ġal tered
qu arters
Ġown s
Ġs outheastern
Ġb oot
bu ilding
b et
Ġconsult ant
ID S
Ġover look
Ġtri o
ab out
Ġbank ing
Ġor al
Ġvol leyball
Ġrest ore
Ġtop ped
Ġpros pect
ĠC R
Ġdis m
Ġcon sec
Ġgu idance
Ġdoub t
Ġb inding
Ġ185 5
ĠP ep
ĠC raw
V A
ĠFer din
erv es
ter bury
Ġpriv ately
ĠG y
ĠRo om
Ġment ions
ash ire
ĠLiber ty
ĠB ak
Ġst aged
Ġc la
Ġinter face
Ġsudden ly
Ġrec ruit
ĠPres byter
ĠBu enos
O P
Ġc oc
Ġd anger
Ġcod ice
ou ch
Ġconf idence
Ġcan cel
Ġl ux
found er
ĠDur ham
ad ers
y d
Ġemer ging
Ġdeep ly
ĠWest minster
Ġwithd rawn
ĠScient ific
Ġacknowled ged
ĠSt ill
d ied
ĠVlad imir
Ġpre y
ĠLa ura
bor g
i Ã³n
es ters
Ġbatt ing
i w
Ġlect urer
et ing
ĠBruns wick
Ġupgrad ed
ĠTod d
ĠRon ald
Ġex chang
ĠD est
is ons
Ġh ub
Ġm igration
Ġmin imal
oc ene
Ġwick ets
ĠP os
Ġde als
Ġtre nd
ĠGard ens
T ime
Ġbl ues
Ġanal og
ic it
ĠGu ide
Ġpros per
ĠCard inals
ĠEc u
ĠAbor iginal
ĠK arn
Ġtrav elling
U N
Ġgraph ics
ang ered
ĠCop enhagen
ator ies
ĠZh ang
Ġcon ferences
Ġline up
ĠK in
S outh
ĠG et
Ġess ay
ern ess
Ġkn ee
ic ism
g ra
Ġ8 6
ur se
Ġengine ers
Ġam pl
M e
ĠV II
ĠPort s
Ġper pet
Ġdepos its
Ġproceed ed
back ground
ĠS ource
Ġl arvae
Ġvoy age
Ġ8 9
ĠT ir
hen tic
ĠOw en
ĠC F
ok u
ĠK as
Ġalgorith m
Ġden omin
Ġdisappe ared
ĠMig uel
Ġpract iced
Ġ7 00
Ġpri ests
ĠE ight
Ġmin eral
Ġst olen
Ġst ability
ct uary
i ens
ĠS ullivan
ĠAr c
Ġident ification
Ġcart oon
Ġsp an
viron ments
ato es
ip her
Ġun employ
ĠSc ar
Ġhydro gen
ĠL ak
Ø §
Ġb out
bu ilt
Ġ185 8
ĠW ool
Ġfavour ite
al is
Ġr ally
Ġdo ctors
ĠY ellow
Ġreve al
ili ary
il ian
ĠKn ights
Ġim posed
rag on
ĠOut standing
ĠMe chan
R L
Ġtransport ed
g io
Ġstri king
Ġautom atically
ĠK urd
Ġw elfare
ĠJac ques
Ġsh aped
Ġs iblings
Ġ11 0
Ġadvis or
ĠLanc ashire
ĠL or
ĠHe ights
ĠC ec
ĠMc D
ĠP and
Ġder iv
ĠEd mund
Ġstre ak
Ġen able
Ġneighbour hood
Ġ10 1
Ġ185 6
ĠD ame
Ġent ity
ĠPerson nel
ĠM ik
ĠCy pr
ĠL ac
ĠP ath
Ġtorped o
Ġsuppor ter
Ġd uration
om i
Ġcons ensus
ĠWild life
ĠUr ugu
Ġhead ing
ĠL em
orm al
Ġb icy
ĠPak istani
d em
Ġco ord
Ġgovern ed
ĠTe ams
Ġdev ast
Ġm aid
w orld
Ġperform ers
isc al
ĠMore over
ĠPaul o
ic ia
Ġcar ved
Le ague
Ġinvest ors
th ree
le nd
ĠCzech oslov
ĠCont inental
Ġqu oted
n ut
Ġh az
art en
Ġrece iver
a ire
Ġst roke
ĠGl ou
E M
Ġimprison ment
Ġc ens
Ġfor b
Ġsail ing
Ġnort heastern
ĠAh mad
Ġac oustic
ĠAlban ian
ĠSaf ety
c al
d ire
Ġrid ge
Ġest ates
R ed
ĠA aron
ĠLithuan ia
ĠVol unte
D I
ĠC ant
l ies
ph is
Ġhe m
Ġcons ent
sk a
s outh
an ing
ath i
Ġtem ples
ĠJohann es
Ġpartic les
Ġh ung
Ġtop ic
ĠAddition al
Ġflood ing
e ffic
ov an
m us
Ġtow ers
ĠK ate
CA R
E N
it ely
ĠEcu ador
ĠPl ate
ah an
Ġsurre nd
Ġphenomen on
Ġwa it
ar ity
Ġh ier
ĠZ imb
ĠK em
Ġob sc
ĠD rama
ĠMan it
ĠMoroc co
st s
p her
Ġjournal ism
ĠSpe c
st ed
Ġinterpre ted
ĠParliament ary
Ġdem ocratic
Ġun ions
Ġpun ishment
Ġfer ry
Ġreleg ation
er ts
ĠJust in
ĠG overn
Ġdraw ings
Ġmut ual
ĠTw itter
ain ing
Ġ9 4
Ġmon arch
T o
ig ion
ĠNew port
Ġ9 1
ĠMal ta
Ġimpress ive
ĠE SP
Ġd ors
Ġw reck
ĠScot ia
ĠD y
Ġeas ier
Ġninet eenth
im an
Ġcust omer
ick en
ment ed
os ing
ĠN ine
ĠInd ividual
Ġenh ance
ĠMaur ice
á ¸
ĠSim ilarly
ĠGu ang
be at
Ġcomp ounds
Ġimm un
ĠLeg ion
ĠO ber
Ġch ore
Ġcompet itors
Ġback ed
ĠSub sequently
Ġep it
Ġup set
Ġconf ront
ind a
ĠComp an
ac ional
und a
Ġafter math
ĠArmen ia
ĠAnd rÃ©
Ġre actions
ĠArch ae
ĠM orning
ĠC itiz
Ġ8 3
he rent
Ġo w
Ġacqu ire
c u
s i
ĠFran z
Ġacc laim
M ad
Ġstrugg led
Ġlob by
Ġv ector
Ġf irms
h l
ber y
S ch
Ġru ins
ĠMag ic
Ġ ibn
oc ity
Ġf ru
d imensional
v y
em e
Ġar bit
Ġprec ip
ĠP age
pro duced
Ġ185 1
ĠNapole on
Ġhapp en
m ail
Ġsec ular
Ġgener ate
ĠObs erv
ab we
w oman
ĠRh ode
ĠT ampa
Ġinter actions
Ġprem ier
Ġso ap
c ano
Ġcompens ation
ph abet
ĠCan terbury
Ġmet ab
ĠH IV
al ions
J une
ic as
ĠPark s
Ġhe ct
Ġattra ction
uch y
ol ith
Ġsole ly
ĠL ess
Ġal tar
Ġlibr aries
Ġdest ro
Ġprompt ed
Ġd ock
il o
g reen
Ġdecre ased
Ġte a
nes day
ĠGu ards
P e
Ġquant um
ĠCirc le
ĠBr ussels
ĠTrans it
Ġair field
Ġover w
Ġpubl ish
Ġvary ing
Ġshall ow
Ġrecon struction
Ġthe ology
iz ard
Ġassemb led
Ġtest im
ĠK or
ĠGrand e
Ġadvent ure
Ġp ub
us a
Ġam munition
b one
ĠL oren
intend o
Ġv ital
ĠAnn ual
st age
Ġbe aring
Ġver te
ĠE ss
Ġpres idency
The re
ĠK id
ĠHind i
Ġsla very
ic ular
ĠR ice
ĠE is
Ġpay ing
ĠEag le
t age
ĠB ears
Ġpred ict
ĠV il
c ap
âĢ ¦
zh ou
Ġcirc ular
Ġread s
Ġart if
r ates
Ġterrit orial
Ġp ill
20 19
atur ally
ĠR ight
ĠIs le
Ġlay ers
on al
ĠEv ents
Ġsouth western
ĠC avalry
Ã ī
A P
Ġteam mate
Ġst eal
Ġimp ressed
ĠAdvis ory
t or
Ġhost ing
Ġoccur ring
b ank
Ä Ł
Ġl ift
ell ers
ĠJul ian
Ġpop ulated
, âĢĿ
Ġoccas ional
ĠF ig
Ġhelicop ter
urs day
ĠBel grade
Ġmus cle
Ġarm ies
ĠD uc
Ġtrans p
ĠCh i
Ġstory line
Ġcom ics
ĠC yr
2 50
D R
ĠP i
ĠInter ior
om atic
Ġconfig uration
Ġkill s
ĠT at
Ġcol ours
r ators
ĠM am
ĠL ink
g overnment
rid or
ĠAp oll
ĠCorn wall
Ġmilit ia
Ġmer c
Ġre ass
y on
Ġb apt
Ġshe ep
Ġo v
ĠB elf
Ġrock et
l ia
Ġabs ent
Ġapp rent
Ġsequ ences
Ġbene ath
ĠV ern
ĠDev on
alt ies
off icial
s burg
ĠCypr us
K ing
unt ary
ĠF un
ĠP ain
ĠH us
Ġobserv ations
ĠW alt
Ġin g
ĠV oice
od ia
ĠN as
ĠC row
Ġvar ieties
uck er
miss ions
ess a
Ġregard less
ĠP ont
Ġaccompl ished
Ġinteg ral
Ġr ational
ĠFran c
Ġro ok
Ġpropos als
ĠH ull
velop ed
onn ell
Ġent ries
ĠCard iff
ri ft
imens ions
ĠPlay Station
Ġwhe els
Ġbul k
Ġstret ch
Ġless ons
ab e
ĠF at
qu et
ros cop
ĠAg re
pl ant
h im
ĠEst ate
à ®
Ġmans ion
ar am
Ġby pass
Ġstrong er
Ġen vironments
Ġconsequ ence
ĠAd vanced
Ġj et
ĠA ctor
or ge
Ju ly
ij a
ym ph
ĠOrig inal
ĠGene va
iff e
it ting
Ġdistingu ish
aj i
Ġinvol ve
Ġhop es
ĠN ancy
th an
ĠA FL
Ġbi ology
Ġgraph ic
ĠDist inguished
199 7
Ġshould er
Ġveget ation
ĠRec ording
el ong
O T
N ational
199 8
ro le
ĠDav ies
ĠR aw
ĠZimb abwe
Ġp ace
Ġh ook
pr ises
il ion
Ġball ot
Ġcle ared
ĠHol mes
ĠArm strong
Ġb old
ĠL az
olog ically
ad ows
Ġb ore
O ctober
" &
Ġhand led
ĠFerdin and
o que
ĠG ael
ĠX V
Ġth orough
Ġworksh ops
ri um
qu est
Ġf o
Ġcomp rom
ĠSalv ador
Ġexpl ore
is le
Ġpres ervation
Ġcomp act
ĠCa uc
ĠOther s
ear ing
Ã© r
ĠPrinc eton
A ust
in yl
ster ious
Ġinse cts
Ġ185 2
Ġman or
Ġg host
g rand
ĠC ust
U SA
Ġfe es
Ġw are
ĠP ly
ĠAm ateur
est rian
A pril
Ġuncle ar
Ġin clusion
Ġcab in
ĠH ass
Ġde ce
S ec
od ing
ed ge
Ġh ull
ĠChel sea
ĠMar ri
ĠB ark
E ast
b oth
Ġlearn s
Ġatt itude
Ġc ock
Ġfe els
Ġter rain
s elling
Ġexplos ion
oun ters
Ġg arn
Ġz ones
Se ptember
Ġfar mer
Ġinc idents
Ġrenov ation
Ġs its
Ġadopt ion
ord inary
Ġal umin
Ġf ate
Ġdo zen
Ġpray er
E F
ĠChap ter
ol ics
Ġto m
Ġfoss il
ĠKing ston
ĠLou ise
Ġsurf aces
ĠO S
Ġfurn iture
Ġreven ge
Ġd ying
n ai
197 0
Ġaer ial
ĠConstant in
Ġc osm
ust ers
b est
lu ence
Ġens emble
ĠC ort
ĠX I
Ġ ic
Ġs ulf
Ġproper ly
ĠEngine ers
ĠHe ath
a uc
v as
Ġdef ine
Ġflow ering
Å Ľ
ĠR oth
en ess
ĠTr in
che wan
ĠBC E
Ġo ct
Ġcomp lain
Ġtri ps
Ġcent ered
ĠS oci
ĠD j
ĠAp ost
Ġtox ic
Ġf ron
im er
Ġam ph
Ġbu ff
ill on
Ġbass ist
d ist
ĠAmend ment
ĠP om
Ġwatch ing
Ġmo ist
Ġdoct rine
um m
ĠF oot
Ġrel uct
Ġle ase
ĠWood s
F amily
Ġhabit ats
C ar
ĠL ords
Ġkilomet res
Ġp ink
ĠL odge
Ġst ick
Ġeg g
Ġinter im
Ġexp elled
ard ed
Ġbacter ia
ag ger
Ġvirt ually
Ġint ens
Ġmission ary
oph one
st ock
ĠA ub
Ġundert aken
um ps
Ġhom osexual
ĠMon ten
Ġ185 3
Ġtrans formation
Ġfre estyle
ĠG am
ĠPresbyter ian
ge nds
ĠBas in
ĠL iv
Ġair ing
Ġ20 22
ĠR ush
Ġsc hem
ĠH i
Ġdevelop er
f r
iv ities
T r
Ġprepar ing
Ġliter ally
ĠTh or
Ġtrib al
Ġgast ropod
te chn
ĠL ig
lac ier
ĠEm ma
Ġpost hum
Ġcor poration
song writer
ĠBrook s
ĠA chie
ĠRab bi
ĠD und
Ġcollaps ed
ĠPop ular
Ġint ensity
b ian
Ġcomm anding
Ġar ray
Ġconsequ ences
ĠF lying
ĠQ ing
ĠAct ress
at em
pr ing
A f
ĠEp iscopal
Ġaccord ance
Ġswe et
ĠA w
Ġcontin ental
Ġcollect ing
ie u
Ġanch or
ĠHur ricane
fortun ately
ĠH ir
Ġbre ed
ĠF BI
on ne
Ġassign ment
ap a
Ġcolon el
cour se
Ġclot hes
ĠG ren
ran o
at ics
Ġtour ists
Ġrenov ated
Ġspec ified
ĠSh ield
ĠDrag on
Ġdis agre
Ġconf irm
Ġunex pected
Ġrem n
ĠCont est
ĠL isa
ĠF lag
ĠRepublican s
Ġmagn itude
Ġl ying
Ġcal cul
Ġburn ing
P ol
ĠF ras
ĠSant iago
ĠC ut
ĠLegisl ature
ĠA ch
ĠSur rey
Ġadv ised
air y
ple te
Ġpre val
Ġequ ally
Ġwithdraw al
ĠP R
Ġev ident
Ġmom ents
ĠF ighter
ĠC u
ĠCap itol
Ġsport ing
Ġcondem ned
can ic
Ġmanufact ure
Ġtre as
ur as
av ier
ubl ished
Ġc ant
al an
Äģ n
Ġinvestig ated
ĠSt ri
al la
Ġf action
Ġth rown
inn ed
T P
Ġsac rif
Ġportra its
Ġregist ration
in as
Ġp ounds
ĠO wn
ĠH od
ĠL ocated
Ġblock ed
ĠP ick
Ġep id
ĠH MS
ĠA my
ĠCour se
e per
C P
lin ary
ĠM Ã©
ĠBened ict
ut a
ibl ical
Ġrid ers
Ġexpl oration
: #
stan bul
Ġmonitor ing
G S
C S
ĠF ly
( "
ĠEd ition
ĠPl anning
ĠP rison
Ġrev ived
ĠGe off
ĠEll is
Ġsymb ols
ĠN intendo
Ġdevelop ers
ĠSaskat chewan
Ġa ster
ish i
ĠB ran
Ġpoor ly
it ations
a ft
Ġcap abilities
Ġtro ubl
De cember
ĠD iet
Ġtheore m
ĠBrad ford
Ġenc ourag
Ġsl opes
Ġf ault
Ġtw entieth
Ġvic inity
ĠAlban ia
Ġgather ing
p ath
Ġun con
Ġinaug urated
Ġconf usion
er als
d orf
Ġacc laimed
l ic
Ġtheore tical
Ġmathemat ical
ĠPubl ishing
Ġbot an
Ġ ion
Ġg rain
ĠM ing
ris ing
l isted
Ġt ale
ux iliary
ĠColon ial
Ã¤ r
Ġ184 9
ĠPet e
Ġdepend s
Ġdepict ing
ĠId aho
Ġc odes
N P
ĠSol omon
Ġpro sec
ar u
ent o
ucle ar
ĠD ob
ri er
Ġabsor bed
ĠPro p
Ġsuburb s
Ġsub species
Ġlim estone
Ġall ocated
Ġra pe
idel ines
Ġrot ation
ĠLuther an
ĠLux emb
ĠM obile
ĠB il
Ġmechan isms
ĠFellow ship
ĠTh orn
ĠM ull
ĠP iet
ĠK w
ĠMar io
e astern
Ġabsol ute
ĠP ir
ĠF erg
Ġan ten
tle ment
Ġbox ing
ĠAndrew s
u ke
Ġestim ates
ĠB onn
ĠV id
Ġl ib
am ine
Ġg la
Ġstep ped
ad h
Ġab brev
Ġarchitect s
Ġdiscip line
Ġl ung
Ġnorth western
ap pro
ĠFif th
ĠA FC
Ġf atal
ĠP resent
Ġal gebra
Ġgirl friend
Ġbad ly
m ember
ane ous
ro vers
Ġun w
Ġrap per
Ġb read
ĠR BI
ĠHer ald
Ġround ed
Ġpred icted
Ġarg ue
Ġre join
ast ics
Ġdyn amic
Ġconstant ly
ann on
w art
u pe
Ġd ancer
ĠWed nesday
in ts
n on
ĠUS S
Ġinterview ed
ĠAr senal
ag i
ĠDyn asty
Ġsw ord
Ġknow s
uch i
Ġ184 7
ed o
B ar
Ġph on
Ġcl erk
Ġcur ve
r ating
Ġwild life
Ġbe er
Ġsm art
W hen
ĠO z
ĠPhil osophy
Ġpol ar
ens en
e u
ĠEm my
art et
Ġrival ry
ĠRe ich
ĠRod rig
ild a
Eng lish
Ġch lor
Ġmos que
Ġm ild
iction ary
Ġmanus cripts
ĠGiov anni
im ity
ĠD ia
Ġboard ing
Ġrep airs
ĠC ert
Ñ ģ
h ou
ĠMach ine
O W
Ġhit ting
Ġinnov ative
Ġoverw hel
Ġ" ...
Ġch orus
Ġmark ing
x i
c ard
Ġcurren cy
Ġcust oms
any on
ĠHop kins
com es
Ġshe et
Ġwe igh
Ġtalk ing
Ġw ake
ĠAn a
Ġfavor able
ĠFern ando
Ġsac red
col span
Ġacc us
Ġm ount
Ġbankrupt cy
ĠPrincip al
ĠF olk
Ġ" ".
ĠI BM
Ġoppos ing
ĠMem phis
L os
Ġgener a
l if
Ġsculpt or
Ġmeas uring
ĠCrit ics
Ġnomine e
ĠRichard son
Ġassass ination
Ġconqu est
g ary
th ouse
Ġdiscuss ions
Ġinstru ctions
ĠA ur
Ġdes ired
ĠKum ar
it ory
Ġpromot ional
Ġsepar ately
ĠGib son
Ġjoin s
Ġpar as
Ġconsider ably
ĠLaure n
duct ive
" "
% ).
Ġsemif inals
Ġdep icts
ĠG Ã¶
P er
O L
ĠManit oba
ĠGu j
Ġref uses
oy e
Ġsal ary
Ġfinal e
Ġed ges
ic z
ĠAn at
Ġleg ally
ĠMe h
ar in
Ġvo iced
in ished
ĠV eter
Ġdist ant
199 6
e er
Ġquestion ed
ĠG P
Nov ember
Ġprob ability
th ood
Ġcompr ised
ĠG ol
ĠFound ed
Ġc reek
.. ."
qu in
Ġm arri
ac ular
ĠESP N
ĠM ine
Ġwat ched
ethe less
ah u
Ġscreen play
Ġintro duce
Ġfac ade
ĠNiger ian
Ġpen insula
ok o
Ġf la
Ġcomm ittees
ĠA B
ad al
cent er
Ġspect rum
Ġresear cher
L ife
Ġdet erior
ĠB alk
... ]
elect ric
ang o
Jan uary
Ġconsid ers
ĠPow ell
h urst
hold er
ĠD im
Ð¾ Ð
et ics
199 5
c ock
ĠE tymology
ĠCal gary
ĠDes ert
ĠT ab
an ch
Ġtra ff
ĠCom edy
ĠPe ak
ĠOs lo
Ġw ound
ĠStud y
ĠNad u
Ġbrand s
mon ton
E d
ĠSchol ars
Ġsk y
ĠSim pson
h istor
yl um
ĠEston ia
Ġrecre ational
Ġflag ship
Ġadminist rator
ĠMarc us
ĠPresident ial
Ġconv oy
Ġagre ements
Ġemb arked
Ġox id
Ġdeleg ation
ĠS ter
ĠRes ources
orient ed
Ġeigh teen
Ġadv ocated
os ystem
ĠN umber
ol ar
Ġest imate
Ġkind s
C ent
Ġfer til
Ġtorn ado
Ġc ott
ĠSab ha
u h
Ġbor row
ac hers
Ġ184 6
ĠPly mouth
ĠDe cl
Ġmot if
ol ine
ist le
Ġout come
ĠBaron et
Ġinvestig ations
ĠBright on
ĠCh ase
Ġ13 0
Ġem igrated
land o
Ġa f
Ġhar ass
arri or
en ne
M al
Ġscatter ed
ĠAcc ess
as ium
H ow
U P
Ġsk ull
Ġag gressive
Ġdiagn osed
ch ron
Ġprem ises
Euro pe
Ġnecess arily
Ġconce ived
M r
Ġte lev
Ä ĩ
he ro
Ġad equ
ĠNA TO
Ġcruc ial
rest rial
Ġcopy right
ric a
Ġconsider ation
Ġaut onomous
ĠBry an
ighth ouse
stru cted
Ġvulner able
ĠBl oom
ĠSpe aker
ĠPar am
Ġcol span
Ġaut hentic
Ġmat ure
ĠDun can
Ġexhib its
ĠT ree
ĠWar wick
Ġunve iled
Ġmanif est
ĠFrank furt
Ġd imensions
un al
Ġnickn amed
ĠPal m
L et
ĠCh in
v or
Â ²
ĠDe uts
cript ions
alif ax
Ar t
Ġn avy
ĠGer ald
Ġop ens
ip ur
og ram
Ġse al
ĠUnivers e
st able
ĠT iger
) ",
Ġconvers ation
Ġent r
ĠAgre ement
H ung
ĠD ipl
ĠEd itor
Î ¿
Ġunder lying
man uel
ate ver
ĠCinem a
Ġres erved
ical s
ĠBe aut
ĠNS W
Ġ18 12
Ġsocial ist
ĠT all
Ġv inyl
S uper
Ġtr ig
ĠEm ily
ĠMe g
ĠK ill
G P
ĠCol in
ke es
Ġprohib ited
Ġqu arters
w ind
aw i
B rit
Ġsculpt ures
ĠReg ular
Ġham let
Ġprom ise
Ġcompos ers
Ġhorizon tal
Ġsur pass
Ġlov ed
Ġmin im
ĠCl if
ĠJul ia
Ġstat istical
Ġguar ant
ĠAp pro
Ġ {
ĠSh op
Ġun c
ĠHend erson
Ġa rose
ĠS ene
Ġre per
ĠB end
ĠRe con
Ġsuperv ision
Ġpen et
Ġster e
ĠW atch
ĠUS SR
ĠE ve
it ative
Ġmar ble
Ġfr ust
Ġc rack
Ġre habilit
gr im
clus ive
Ġneigh b
ĠBrad ley
che l
Ġp in
Ġstrateg ies
Ġactiv ated
as m
Ġserv ant
ĠLe x
Ġbo ost
enn ium
ar ians
nd ez
ĠÃ ĸ
ĠP orter
I reland
Ġgu ards
ett es
ĠNap les
ĠRac hel
g ard
ed uc
Ġprox imity
st op
Ġl ip
Ġl aps
Ġrecon c
pow ered
ĠOffic ial
ĠPrest on
ĠAr d
Ġrespons ibilities
S an
ĠAll an
ĠPla za
ĠC rist
ĠComple x
ĠW onder
Ġd ish
ĠEv angel
Ġnav ig
Ġr ises
ĠA F
ĠEuro vision
ĠCr us
S te
ĠTe h
Ġhypothes is
Q ue
ĠHar bour
abl ing
ĠFilip ino
re ens
it ated
la us
ĠN atal
Ġatt ribut
Ġjoint ly
ĠBla ke
ĠP ink
h orn
Ġsub family
ĠPro f
Ġlegend ary
ĠBa iley
Ġ15 00
Ġopt ical
Ġlif estyle
Ġphys ically
Ġsub urban
Ġhur ricane
ĠW orth
j ust
Ġdirect ing
ĠK urt
Ġret rie
Ġvar i
Ġrefere e
Ġf ires
ĠDire ctors
Ġagre es
sc reen
ard i
anc ers
Ġprot agonist
Ġarg uing
ĠC anton
ĠD ow
SC O
ĠH erm
ĠT ask
Ġfe eding
Ġmater nal
Ġoff ense
Ġcon tend
Ġcrown ed
ĠTh ursday
ĠInd igenous
ĠV ij
Ġproceed ings
iv o
Ã ¯
Ġj ack
ĠI F
Ġmy sterious
Ġstri kes
Ġn aturally
Ġdraw s
est e
ĠL ay
Ġin tend
Ġprov en
ĠV ale
g ue
Ġenroll ment
p ay
ph ant
cycl op
ĠP ract
ĠSlov enia
ĠL ah
Ġexplan ation
ĠAmer icas
the m
est ablished
Ġmet h
Ġathlet ics
Ġauth ored
Ġst abil
Ġd inner
ĠPro gressive
ĠCh ancellor
Ġto b
ew ise
ĠAssoci ate
Ġinstru ctor
ĠGl ass
Ġra w
ĠS aw
ĠC anyon
ill ance
ĠEm b
ne ver
ĠGu atem
Ġcons ort
s ix
R P
Ã¡ r
Ġs or
ĠAgain st
ĠCath olics
Ġsynthe sis
ĠU A
ĠLe op
oc ate
Ġgen res
Ġrecept or
ĠSim ilar
Ġ18 20
ik ing
h as
ĠTan z
ĠCh ad
ĠLuc y
ov es
ĠT alk
ĠG amb
Ġhealth care
Ġexpl ored
add y
1 50
Ġsens itive
Ġfacilit ate
ĠP ine
Ġant ib
Ġb ills
Ġbas ement
Ġpost pon
Ġmemb rane
ĠW as
ĠF eder
Ġlog ic
Ġir regular
Ġport fol
Ġimport ed
Ġsubd iv
Ġconspir acy
ĠMidd les
Ġor th
ĠCarol ine
7 00
Ġinter ven
ĠEug ene
g ae
ĠT yler
Ġ( '
Ġdr ives
m ile
er i
um ble
Ġhe ter
Ġknock ed
Ġsc ales
Ġ184 5
ĠWith out
ĠBur ton
Ġorient ation
Ġrecur ring
le z
Ġarg uments
Ġfre ed
r ud
ĠLiber ation
B rien
ou x
ĠC hess
ĠCar ne
à ¦
Ġiniti atives
Ġconsist ently
ĠCom b
G ood
ĠFa ith
stad t
Ġh oles
ĠSh ore
ĠH alifax
ĠR NA
w ord
ĠV at
Ġnot ion
oc hem
ĠR A
ĠPhys ics
em por
Ġpl anted
Ġremov ing
ĠX X
Ġpre f
ĠS old
ĠEd monton
pro duction
ĠC ord
ĠLy on
Ġal phabet
Ġin land
Ġl un
Ġdesc ript
cons cious
Ġpolit ically
ik es
im mer
ĠZ amb
Ġcam eras
Ġrend ered
ĠM ade
mark et
Ġst int
ĠRh ine
ĠBed ford
Ġmole cules
d an
ĠM uk
M T
ĠDe pression
Ġrein force
Ġcertain ly
ĠS ou
c ot
hen g
Ã© m
ul ates
Ñ Ĥ
ĠPublic ations
ĠLes lie
Ġob st
Ġpreced ing
in um
ĠExhib ition
Ġless er
Ġn ose
ĠVar ious
ĠBurn s
Ġdis abled
i ating
ĠMil ton
ĠCurt is
ar ium
Ġmuseum s
ĠPorts mouth
Ġpay ments
Ġgrand mother
Ġspons orship
ĠCoal ition
199 4
Ã Ĺ
es ar
amp ed
h ouses
i ott
ĠE k
Ġsurrend ered
ass is
az e
ze gov
Ġsc ar
rit ic
Ġdec ree
d is
ĠFras er
ĠGl obe
ant le
Ġentreprene ur
is ers
Ġsustain able
Ġperform s
ĠBoe ing
ĠBelf ast
ĠRoberts on
ag le
ĠWes ley
h art
w alk
lik ely
Ġax is
Ġrun way
Ġsuccess ive
Ġh tt
ĠKenn eth
ch air
Ġcommercial ly
ĠTest ament
ell ar
Ġe ating
ĠC ave
ĠF ra
Ġcon ve
Ġh ide
ĠM ale
Ġdig it
Ġphilos opher
Ġam id
Ġind irect
Ġp ig
Ġtro phy
ĠLe vel
Ġap olog
Ġdemonstr ate
Ġor ch
Ġst air
Ġsub stance
ĠK ang
ĠRe id
Ġcreat or
Ġcust ody
Ġcalc ulated
ĠRel igion
ĠAl pha
h t
Ġper former
lay er
Ġphil anthrop
in is
m el
Ġnovel ist
Ġsw ing
Ġas ide
ĠAgricult ural
ĠTour ism
ĠFerg us
S L
Ġf ract
ĠIn spe
ĠPr ussia
Ġbatter ies
Ġcongress ional
ĠR ib
iment al
app a
Ġbond s
Ġ ),
199 3
j ud
ĠL ut
ĠNot re
ĠBuddh ism
Ġre plic
ĠRom ans
ĠV iol
ĠHead quarters
Ġb ones
Ġhum id
Ġabst ract
ĠEd ge
Ġse ctors
ĠAdminist rative
ĠV III
Ġmet re
ĠS ul
ĠC el
Ġd ense
ak k
ĠAlb any
if ier
Ġmill ions
cles iast
Ġt ension
Ġreb el
Ġtack le
Ġl ig
Ġconsum ers
Ġun ited
Ġspons or
199 2
b ase
r ise
ĠReyn olds
Ġexam ined
ĠSc reen
ĠHe at
ro up
ĠAber de
th is
Ġmass acre
Ġge ographical
ĠMc Donald
20 20
all i
ĠStaff ord
ĠJ ung
oy le
Ġterror ist
ĠS isters
Ġra ids
est ock
Ġdeleg ates
att y
ĠT able
ĠW end
Ġthr iller
Ġut ility
ĠBas il
Ġworksh op
Ġfemin ist
Ġn ights
Ã °
land ers
Ġdisp uted
Ġcomp at
Ġunsuccess fully
le ft
Ġr ushing
Ġb ishops
Ġdire ctions
ĠCla ud
ĠWrit ers
ĠH els
ĠWind sor
w id
av or
ĠNik ol
ĠD um
Ġcl uster
Ġmon ks
law s
ion ed
Ġbul let
Ġt aste
ĠSher iff
Ġc hess
Ġt ables
Ġ *
Ġlast ing
ic us
Ġvo ices
Ġt ent
f old
oty pes
ues day
ĠC ed
ĠMan or
Ġc ounts
Ġcir cles
Ġcontra cted
Ġfound ations
Ġinv itation
l og
Ġspec imen
Ġobtain ing
ĠChar ter
Ġal umni
Ġ183 7
im on
Ġdon ations
Ġther mal
Ġsett ings
D E
Ġreg iments
ĠSem inary
p resident
ats u
t itled
enz ie
Ġstream ing
Ġreop ened
aut hor
ĠSt ore
ace ut
Ġpoll ution
Ġo ak
en o
ĠG an
Ġpropag anda
ĠD ew
Ġg ates
ĠTra vel
ater nal
Ġinnov ation
ĠC ly
ce pts
Ġdef ect
ĠM iles
ĠK ann
Ġs ax
Ġk iss
Ġf inger
Ä Ļ
Ġancest ry
ĠSp art
ĠGl enn
ĠNe g
ĠCont rovers
ĠÅ ģ
ing en
Ġeng ra
d aughter
Ġimp ression
Ġhighlight ed
ĠLithuan ian
u in
Ġvel ocity
ĠL omb
and ro
Ġend angered
ĠBe a
m ay
se at
h ow
en ary
Ġhealth y
s al
ac ing
Ġachie ving
Ġcerem onies
p us
H er
Ġbow l
zegov ina
it ively
Ġcontinu ously
ĠAlexand ria
ĠI stanbul
Ġ12 5
P ort
ĠInd ex
ĠSpring field
ĠD w
F ebruary
ĠAng els
S at
Ġrul ers
ĠT ennis
az a
ĠC os
Ġout lets
Ġpromin ence
ĠH es
ĠL enn
cess ion
Ġb eds
p ri
Ġmurd ers
ĠTra in
Ġob vious
ĠBab y
Ġ[ ...]
Ġvac ant
ĠC B
Ġdep ot
Ġc ryst
Ġbatt alions
Ġtob acco
r ition
as se
Ġaccompany ing
Ġm ud
Ġnational ist
ash tra
ĠEthiop ia
Ġtrad em
oca ust
ĠRoche ster
al id
s up
Ġprior ity
Ġtact ics
ĠI gn
Ġpast or
P al
Ġsy l
Ġp ine
che z
isi Ã³n
ill iant
ĠW arriors
Ġt un
Ġtr im
Ġep ic
Ġlength s
iform es
Ġveter ans
ĠBalt ic
av i
ĠOr lando
ĠL S
her ic
Ġcert ificate
H ar
Ġbr ut
kins on
Ġproc laimed
Ġapart ments
ĠA ri
ĠBer k
ep s
pl ane
Ġc anton
Ġlong time
yl an
Ġed itors
Ġver b
ĠLuxemb ourg
m and
ĠLanc aster
] ,
ĠShe n
Ġcast ing
ĠPhys ical
Ġwrest ler
ĠWork ing
Ġprevent ing
ĠL ic
ber n
omm ission
Ġpron ounced
ĠKos ovo
Ġc ub
Ġrom ance
er cis
ist ence
Ġcount ed
Ġrect angular
Ġelabor ate
Ġf ier
Ġt onn
N orth
Ġsn ail
l is
ĠS O
so le
Ġar ist
c ussion
ĠMc N
Ġlo ans
Ġendors ed
ĠWag ner
R ock
is ive
Ġd ressed
book s
ipe g
ĠB ord
ĠB lu
Ġdeploy ment
ĠN acional
ĠAr ctic
Ġenter prise
Ġdis orders
Ġlab els
Ġsp ite
ĠC IA
ĠBank s
ĠMon th
en i
ĠDou g
ĠLiter ary
ĠH off
ad os
Ġunder go
Ġdisc ipl
ĠG ur
Ġorgan ize
Ġpresent er
ad io
Ġaud ition
Ġr ings
Ġde alt
Ġs unk
ĠMar ines
ĠM Äģ
Ġsuff er
ĠAd rian
Ġmon uments
ĠA N
en cia
Ġv ig
Ġcompan ion
own er
Ġpre t
ond o
ĠI g
Ġadv ancing
ur ities
ĠDay ton
Ġhot els
ĠH alf
Ġren t
uk u
Ġremark able
ĠB ever
Ġ184 1
re ation
c in
Ġrook ie
Ġpar ade
ĠSe oul
e ffect
oy a
ĠFranÃ§ ois
Ġp el
Ġk ids
ĠO st
orm s
ĠCo hen
Ġrev olt
ĠÄ Ĳ
ograp hers
Ġhar bour
Ġmerch ants
Ġdisappe ar
ĠW ake
Ġc ere
ov i
Ġfact ories
Ġpo ets
Ġaccident ally
Ġaccur acy
ĠD ud
Ġcare ers
ur an
S al
19 60
ĠLe y
Ġbound ed
Ġprop ri
Ġn an
ro at
y ch
Ġartif acts
form ed
ĠSouth west
ib a
Ġess ays
Ġrespons es
ĠEll en
ercis es
Ġle ather
ĠM is
Ġab ortion
Ġopen ly
Ġ3 50
Ġsl ot
Ġpresent ing
Ġmy stery
ĠP or
ĠP Ã©
Ġille g
Ġmob il
ĠBo hem
Ġh arsh
ugh t
ĠWW E
Ġne ur
ĠB rid
Ġread er
Ġpres um
Ġcatal og
Ġsub mit
ĠLyn n
Ġdiv ide
Ġing red
Ġun e
Ġpurs uit
atern ity
ĠK om
) ".
and in
Ġdif f
Ġ183 8
Ġchalleng ing
mod ern
Ġce iling
ĠYan kees
Ġ184 4
op y
aul ts
Ġreflect s
Ġenh anced
Ġeval uation
ĠMor rison
et ti
Ġcommission er
Ġall ied
Ġins isted
Ġprot esters
ĠCh uck
Ġrecommend ations
Ġtruck s
Ġdemonst ration
Ġf iscal
Ġpartn ered
head ed
at aka
ĠW A
Ġg amb
ĠTy p
Ġdiplom at
Ġb alls
ĠMaced onia
Ġfe ather
Ġit em
Ġqu it
p res
ĠE b
et al
ĠEx cell
ay ette
199 1
an ian
ĠAT P
Ġ183 6
Ġer rors
ĠK ad
Ġconcur rent
ĠBe ing
Ġdis pos
nd on
Ġhuman ity
Ġinv ested
ĠCle ment
ĠCar roll
el o
ĠClass ical
i ary
ĠNob el
ĠBund es
Ã¸ r
Ġhum or
m ic
Ġstand ings
ĠHun ting
Ġent ities
Ġcontest ants
part y
ĠFact ory
Ġreview er
ĠMax im
Ġlack ed
Ġsp ur
Ġinv aded
ĠChurch ill
Ġproceed s
Ġurg ed
el ly
Ġcompl icated
Ġorche st
r ut
il ateral
ĠD ong
ĠH aven
ĠB ronze
ĠL ip
Ġroll ing
Ġintro ducing
uff icient
C ap
e ctions
" âĢĶ
Ġem issions
Ġ10 5
he ars
Ġwitness es
Ġdecl aration
Ġresc ued
Ġp av
y ards
Ġplan es
Ġorgan isms
Ġint act
Ġmanag ers
h ra
Ġin fer
Ġad mission
Ġprotect ing
Ġpar ishes
ag ers
Ġbat ted
ĠR iv
Ã± o
Ġtru ly
Ġmarket ed
Ġmotor cycle
Ġir rig
Ġf ights
ĠSoft ware
ĠPre viously
ĠCon stitutional
duc er
Ġhect ares
ĠM atch
Ġcontroll ing
ĠCrim inal
ĠLeices ter
clos ure
ĠC rystal
Ġbomb s
og o
Ġcre am
M en
Ġd iving
ĠL ines
om ical
ĠSac ram
Ġr amp
Ġpract ition
anc a
ĠW C
Ġover come
ĠT roy
ĠIn stitution
Ġh ol
Ġpar ad
ĠMon roe
Ġgod s
O ld
Ġm oon
h ot
Ġrel iable
G N
Ġgu ided
ĠU z
Ġaccept ance
ĠK i
ĠR T
Ġaccommod ation
Ġo ri
elf th
ab i
ĠCorn ell
Ġsup pl
ĠS ie
ĠEm ploy
ĠAlger ia
abl o
Ġmyth ology
ĠCh al
op ing
ĠHer zegovina
ĠY uan
ĠSt ructure
ĠA I
G o
ĠSe x
ĠM oss
ĠB atter
Ġbre ath
ĠMar tha
Ġloc als
Ġ183 9
ĠK yle
Ġint ellig
p ie
ĠKash mir
Ġ14 0
ĠEle ctions
ar ag
Ġc rypt
he nd
cl ub
Ġneighborhood s
ĠWinn ipeg
ĠO ct
Ã ½
gro up
he y
Ġdeg rad
ĠRos en
ĠChile an
ĠP eng
Ġaut o
ar ound
ins k
ĠIndust ries
Ġbelie ving
Ġm ad
l ar
col or
ĠCong reg
ĠSe g
Ġavail ability
J apan
ĠAntar ctic
role um
R NA
Ġ icon
Ġsp elled
ind ed
rec ord
ĠBarn es
b ol
Ġvol canic
Ġen orm
Ġf are
whe el
iffer ent
Ġc ater
ĠS M
I tal
Ġn a
ĠS pect
Ġnav igation
Ġelder ly
l ast
Ġvari ables
ĠSlov akia
ari at
ĠNAS CAR
ere k
ĠRe y
Ġprofession ally
ĠTheod ore
m usic
ĠJes se
Ġfil ter
ĠHar per
Ġed iting
Ġobject ives
ĠH arm
Ġequ ality
sm ith
iz a
Ġc ivic
Ġcr ashed
Ġvol tage
Ġb io
Ġwarn ed
ĠOver all
la ve
Ġfort une
clesiast ical
io x
ĠBal let
Ġtestim ony
Ġeth n
ĠCop a
Ġder ives
ĠRich ards
Ġres olved
ĠK aren
ĠTax onomy
Ġan x
Ġsur geon
Ġb rack
ĠMov ie
art ime
ĠWy oming
ĠInd o
ĠMar in
W C
Ġkill er
Ġgod dess
ing le
am as
ansk rit
Ġt une
ĠP ale
ĠMar ian
st roke
ish n
Ġseek s
ĠGram mar
H P
ograp hed
ĠMos es
ĠMar l
Ġinher it
Ġmarg inal
ĠAfter math
Ġfrag ments
b les
ĠLind a
and ra
g art
Ġwitness ed
r one
c s
Ġunder took
Ġorgan izing
ĠProgram me
ĠI TV
l ass
ir ie
Ġp ension
Ġpl ural
ĠB rom
io let
Ġnarrow ly
W ill
ĠConstantin ople
Ġproject ed
ĠMan ufact
ri ans
ĠMar ÃŃa
Ġmem ories
Ġbal let
Ġreun ited
ch urch
ĠUl ster
ĠCarne gie
D es
ĠC ros
Ġe ar
Ġform ats
Ġl over
ĠHug o
Ġec osystem
Ġexha ust
M a
ĠS ap
ĠBla ir
ĠGael ic
im i
D ay
Ġcomplain ts
K A
Ġtick ets
ĠMerc ury
az ar
Ġs aint
Ġdr unk
ĠEle ctoral
198 9
Ġf ed
ĠG ir
epend ent
asc ar
Ġn urse
Ġpreced ed
Ġspe aks
Ġsub str
W R
ĠSc ots
b ird
hem atic
Ġ184 2
c ence
ut o
Ġnot iced
Ġcont rad
ĠM ail
be ck
m ons
ĠEn s
Ġstar ter
Ġwalk s
ĠHay es
Ġcomed ian
ĠK ot
ĠAnd ers
g eneral
ĠB erm
ĠMar ion
E SCO
Ġle ased
r ill
ĠChief s
O ut
ĠÃ Ĺ
ĠD arl
]] ,
P ar
ĠMalays ian
pent er
ĠSpeed way
ĠT uesday
col m
at ro
amb a
Ġrecre ation
Ġrank ings
ĠIs s
ĠM ick
cl amation
Ġkn ight
ĠDisc overy
ĠCh ange
Ġam alg
Ġover lap
ĠA L
Ġc arriage
ĠMin ne
um en
ĠMar cel
f iction
ĠB rent
ĠGust av
Ġenact ed
Ġm arsh
Ġamend ment
r h
ĠAir craft
ĠTh ames
Ġcrew s
ĠN u
ĠT otal
ĠTri p
Ġcap ability
ĠBrown s
aff e
ĠUt tar
ĠSt yle
Ġch a
ĠS uk
F ran
ig i
Ġex ercises
ĠE ffect
ne um
Ġconv iction
ĠK end
ĠB j
ĠY emen
Ġ183 2
Ġ16 0
Ġmod est
ã ĥ
ĠJohn s
Ġprosec ution
Ġcateg or
Ġdo ctoral
Ġcrit ically
Ġdisp utes
Ġ183 5
oc he
ber ger
Ġconqu ered
ĠApoll o
m ag
Ġdestro ying
in stein
Ġrub ber
Ġlux ury
Ġreinfor ced
ĠRe ver
ĠInn ov
Ġb arrier
L ittle
Ġs aving
re a
ĠJenn ifer
Ġtra ce
G old
Ġmamm als
ĠL ost
Ġch aired
Ġmar itime
al ong
Ġtra ils
og g
ĠDar win
ĠH ood
ĠR i
Ġg ray
ĠC airo
Ġknock out
ĠL if
Ġgradu ates
Ġconscious ness
Ġdetect ed
Ġelim ination
ĠCh amp
d ig
Ġbene fic
ĠB agh
Ġs izes
um ph
Ġscreen ing
es a
ĠL av
Ġ ĠĊ
Ġover th
ĠLud wig
al though
ile e
Ġun likely
ĠHous ing
Ġclimb ing
ĠMet al
Ġviol ation
Ġdis k
ĠHe aven
ĠB irth
Ġrecon naissance
ĠBu ild
isc her
ĠQu est
ĠJane iro
Ġsol ve
fore st
ĠE aster
Ġspe eds
Ġknow ing
Ġse ating
av el
Ġp enn
ĠF alk
ces tershire
ath am
Ġaccount ing
ĠD S
ĠP omer
ĠLe gend
p pe
Ġ184 3
cour t
Ġhold er
Ġlater al
Ġbord ered
ĠSched ule
Ġphil osophical
iÄ į
ind ers
Ġper ception
Ġterm inated
s chool
ĠSuper ior
Ġlaw yers
k ers
Ġm il
ĠPar agu
Ġw ishes
Ġcert ification
id an
ble m
Ġfresh man
Ġinter rupted
ĠStr at
ĠCraw ford
ver age
ĠS elf
ĠLouis ville
ĠBald win
N R
ast ed
T R
l ore
Ġstay ing
Ġ1 18
Ġo re
Ġgame play
ĠMong ol
ens ed
y cl
id ge
ĠHol ocaust
Ġprov ider
ĠN iel
Ġspot ted
Ġb arn
ious ly
ĠM ater
ĠCont in
ĠL ap
ĠMy an
ĠKn ox
olith ic
ĠEd gar
Ġtransmit ter
' )
ĠLyn ch
ace ous
Ġnurs ing
ĠDou ble
Ġfund ra
iat us
ĠKazakh stan
w en
Ġovers ee
ĠN um
ag ne
Ġcon vey
ĠEll iott
ĠWe ather
Ġanti qu
ĠCharl eston
b ot
er ie
Ġattract ive
ĠH ale
Ġt ong
ev o
Ġcontact s
ĠS ard
en ic
ĠH il
Ġwings pan
Ġpregn ancy
ĠL ogan
Ġth read
ĠPol l
Ġdet ection
pe z
Ġs id
ch ar
ĠTrin idad
ari us
ĠEston ian
Ġup rising
! ",
ĠY a
Ġin ches
ĠL il
ĠBud apest
ĠWe i
ĠSouth ampton
ĠPict ure
Ġju ven
ĠJohn ston
ag ogue
Ġcorrespond ence
Ġl anes
R ol
ĠRel igious
Ġm aj
Ġcom merce
att i
ĠCarl o
ĠSh i
Ġappe aled
Ġhigh ways
d ing
ĠL ar
as is
Ġvers es
child ren
Ġlo ose
Ã© g
ĠCom bat
m ain
ĠMyan mar
ĠIn iti
ĠCol ony
lam m
Ġdece ased
Ġce ase
el age
Ġimmigr ant
Å Ļ
Ġconstitu encies
ch in
Ġcarri ers
ĠBi ology
Ġk in
ĠJul ius
end ed
ug a
Ġmach inery
ĠSant os
Ġemb assy
Ġview ing
Ġl aser
hy dro
ĠNew man
are l
g g
Ġmeasure ment
ĠS H
Ġcook ing
am ination
Ġillust rations
Ġdiagn osis
rew s
Ġg entle
ĠN ass
s an
itor ium
Ġfru its
Ġcontin ent
con nect
ak ov
pend ing
at ial
occ up
o op
Ġab olition
Ġrail ways
is lav
cover ed
Ġavo ided
ĠBu ilt
Ġscreen ed
ĠT ropical
ĠG iven
Ġf rig
Ġsc orer
haus en
Ġcont ents
U p
Ġext ract
ĠBav aria
ĠG em
ĠEduc ational
Ġmission aries
Ġun ity
Ġenl arged
Ġher b
Ġgran ite
Ġnew er
Ġopin ions
Ġl ady
Ġexplicit ly
A c
ĠLear ning
ĠS weet
ĠH ern
w rote
Ġcons erv
wa it
Ġinter ference
Ġconsec rated
Ġsc out
aren ts
Ġtr ump
Ġprom ising
Ġautobi ography
Ġsit com
ink i
Ġ à¤
ĠBr as
Ġjudg ment
Ġinstitut ional
ĠN ixon
or rect
Ġdrop ping
ĠSic ily
eth yl
Ġtra ces
ĠR oh
Ġpostpon ed
let te
ĠOn line
mit t
mar ines
ĠD oll
ĠMer it
Ġloan ed
Ġw ished
AA F
ĠAppe als
Ġin ception
ĠJer emy
Ġin quiry
Ġres ided
Ġdrain age
Ġres pected
s ay
ĠAd olf
ĠP ere
Ġstr ings
s qu
ĠU se
ĠB ren
ĠH ack
ĠJ ake
Ġres ur
ĠPatri ots
ĠPr ussian
ĠJam ie
Ġsubt ropical
ip zig
ĠS it
ĠH ut
Ġan arch
Ġc ement
ĠLead ership
R oman
Ġsal v
Ġg ly
Ð º
c ats
ogen ic
raf ted
Ġfoss ils
Ġcor rel
ĠUnd erg
Ġmiss iles
Ġcogn itive
ĠM ob
ĠSt alin
war f
ĠD ylan
Ġpartic le
ut ing
Ġcru ise
Ġpur ple
ĠB un
Ġlif ted
Ġthrow ing
F rench
ĠAr ist
or um
ĠBeat les
ĠS amp
ĠAberde en
Ġsp elling
ĠNew found
ĠRaj a
ĠDor othy
ym es
Ġtrain er
Ġelim inate
ĠUrugu ay
ĠTh an
Ġm ills
Ġl iner
end ing
che m
ĠChar acter
Ġp ier
Ġreal izes
ĠF o
Ġref urb
Ġt et
Ġsubs id
ir ty
Ġsm oke
ĠBur ke
G od
ĠS ons
ĠPar ad
s il
il ogy
P D
Ġprov iders
Ġmechan ics
Ġmar ched
Ġs ued
ĠP ars
Ġdef ines
oc es
Ġautom obile
ĠBill board
oura ble
om al
Ġdecor ative
Ġd ust
ĠS ent
âĢ ľ
ass ic
as ma
Ġris ks
Ġbroad caster
C omm
art ed
eg ro
ĠP au
ĠBet ty
pl us
ĠPh arm
ĠF est
Ġgeomet ry
Ġdiss olution
Ġf iber
art e
D r
Ġv ault
Ġwalk ed
j iang
ĠO pt
Ġbroad er
Ġchart ed
play ing
ar re
w ill
Ġspace craft
Ġfin ite
ĠIns urance
Ġf usion
R es
Ġcolle ctor
u um
Ġro de
ĠA ven
ĠStre ets
ĠM aid
Ġsmall est
Ġfl own
c ience
ĠWol ver
Ġequ ations
on ing
Ġt uber
C O
ĠMinne apolis
Ġadd s
Ġass ume
Ġdevelop s
Ġgovern ance
Ġb ind
Ġp ipe
Ġstrugg les
ĠTreas ury
ĠGh ost
f in
Ġfold ed
on ica
ĠTh under
on ed
ĠRaid ers
Ġgl ob
ĠT ru
the re
the l
ond e
Ġc ig
ĠHer o
ad ic
Ġc ro
arri ers
Ġser ver
rif ied
Ġfl ies
Ġrequ ests
Ġr ider
ĠM oor
Ġdors al
ĠW ick
Ġv ine
ĠAd ult
Ġres ides
Ġdim ension
Ġcelebr ations
per t
Ġl ens
Ġstrugg ling
ur ally
Ġhost ile
al ore
ĠDub ai
ond a
ĠK oh
com ed
Ġsecret ly
ĠEmer gency
S o
ip el
È Ľ
ĠObserv atory
ĠĠ ĠĠ
l at
ĠL ed
Ġh iding
ĠD raw
ĠH ors
Ġcycl ing
ain ted
ĠKrish na
Ġse greg
ĠSher man
ĠMathemat ics
s im
Ġto uc
ĠFem ale
P ac
Ġinst ances
j in
Ġbu ying
our se
ĠBel le
ĠBor is
Ġlic ence
ort ic
ĠPr iv
Ġly ric
Ġ3 60
ĠLaw s
Ġpod cast
uis ine
ĠMal colm
Ġhapp ens
Ġwor se
Ġch assis
ĠK aw
Ġfram es
Ġaccompl ish
ĠKarn ataka
ĠCla re
Ġteam ed
Ġserv ants
aut h
M D
Ġh oney
ĠLeban ese
Ġdec ommission
Ġsimilar ities
ĠK re
Ġwhe at
Ġterm ed
p el
ĠI D
Ġfact s
Ġph ases
Ġro d
Ġmeasure ments
Ġign ored
ĠDr um
Ġancest ors
Ġthe aters
n umber
ĠSum mit
Ġt ar
Ġbow ling
pr int
Ġc rafts
ĠS ind
ĠEp isode
ĠY ard
ĠRif le
que z
Ġeduc ator
Ġgu idelines
Ġcommand ers
Ġadvis ory
count ry
x imately
Ġliv estock
ĠJ i
Ġmod es
Ġcelebr ity
ĠNewfound land
bre aking
Ġd orm
Ġcouncil s
ik er
Ġpot tery
ĠWals h
Ġcost ume
ĠU FC
ĠCan cer
Ġin cl
ĠD ock
Ġnob ility
ĠKenn y
ĠImp act
ĠR ican
ĠR ica
get own
ĠNort heast
spec ific
Ġen closed
Ġsl ope
Ġdescend ed
E m
led on
ĠMarsh al
Ġt ap
Ġpla que
Ġportfol io
ars ity
ĠM LB
ĠEm il
ĠMer ced
ĠL ook
ĠL af
Ġhar vest
ĠMar itime
T I
Ġemot ion
Ġinvest ments
ĠSc andin
eli hood
Ġsim ul
Ġs ab
je ctions
J ust
ĠCl ara
ĠSw im
ĠFer ry
ĠSh an
ĠS D
rib le
Ġfood s
Ġgar age
k u
ĠRos a
ĠSp ider
Ġf us
ĠY et
Ġmet er
ĠS le
g ree
ĠSebast ian
ĠF an
Ġlik ed
om ore
la ch
m ud
Ġcomplex ity
Ġcl er
ĠÄ Į
ĠC ul
ĠD iana
ĠS ed
Ġshell s
ĠH ost
ĠEd win
l ink
ad vant
ĠD art
F S
Ġre ef
Ġtransl ator
Ġtrust ees
Ġsem in
Ġexclud ed
os ion
Ġdes k
C ity
ĠGrad uate
Ġrev ers
Ġanth ology
ĠStr ong
g ood
ĠPro gress
Ġexp ense
commun ications
ĠMon ument
ĠPhil harm
rit ies
Ġ9 00
ĠBur ma
ĠDra ke
Ġpersu aded
Ġgarn ered
Ġinf ected
ĠN urs
ne z
ĠQu in
b illion
Ġbo om
ill as
Ġequ ity
Ġsurve illance
ĠF iji
ĠStra it
Ġtraff icking
Ġcomb ining
Ġdem anding
cl iffe
Ġwebs ites
ĠErn st
b ad
ĠLis bon
Ġdescend ant
Ġacc redited
Ġstrict ly
ĠE y
Ġback up
Ġst ems
l ide
Ġschem es
H O
ĠBre ak
ĠL LC
ĠCount ies
g ent
be it
Ġd ens
Ġpup il
B R
Ġdesign ers
rit z
A ss
og ene
f und
Ġload ed
ĠGriff ith
od ium
Ġsp awn
Ġadv ances
ĠR as
ĠE t
Ġhigh lights
198 8
Ġn erv
Ġse nds
ĠSy rac
ĠL ing
Ġsand stone
Europe an
Ġis n
Ġcoordin ates
Ġhom eless
amb o
n ian
Ġcoordin ator
ili ation
ĠCow boys
ĠCh oice
Ġsub marines
Î ½
ĠAndre a
Ġg am
n ormal
in ia
Ġ18 15
Ġang ry
Ġbomb ers
ĠTasman ia
P M
Ġplay wright
Ġvol untary
r ade
ĠP itt
Ġd ining
Ġinf ant
ĠW it
Ê ¼
Ġtask ed
ĠUN ESCO
ĠG ospel
add le
Ġtransl ations
Ġpen alties
ro b
Ġwaters hed
Ġ umb
Ġutil ized
Ġmetab ol
ll er
ist ically
Ġsp l
ĠMoham mad
t re
Bl ue
Ġspect ators
ĠStat istical
ĠChem ical
ĠKer ry
ww w
ĠConcer t
Ġc ord
Ġch ains
ĠGre ene
Ġbutter fly
Ġbus y
Ġd ancers
ĠCor por
ĠHein rich
ov ed
end ers
ge nder
ĠDiv isiÃ³n
Ġw artime
Ġcorrespond ent
an an
R eg
Ġdec oration
Ġ ell
Ġsubstant ially
ĠZ ion
ĠR az
ĠMad ag
Ġtr igg
co le
Ġp ump
Ġarch ives
ik s
Ġpossess ed
ĠSet tlement
at to
ĠQ atar
Ġprot ocol
Ġevery day
Ġpeace ful
ĠOut side
Ġsh rine
Ġmand atory
ĠMahar ashtra
Ġcapt uring
row th
um ping
Ġthe or
b ay
ian e
J ournal
Ġcolle ague
Ġd ent
Ġcould n
ĠPant hers
Ġl ith
z ens
Ġw ool
ĠSte fan
ard ment
Ġl ighter
ab ul
ĠGre ens
oot ing
Ġre plied
ral tar
Ġtub es
Ġkick ed
O s
Ġprogress ed
Ġmand ate
is ure
Ġw ards
ĠCon stitu
Ġlink ing
ĠPat ric
rel la
ĠRe agan
ĠAnn ie
Ġbicy cle
ĠB ene
H igh
Ġg est
Ġdem o
g age
ĠC ool
ĠV it
ĠTel ugu
Ġbox es
k ind
Ġbig ger
ott a
L es
Ġinform al
aw k
Ġind ie
ĠTw in
Ġaest hetic
Ġenthus i
ĠCh o
Ġcountry side
ĠBol ivia
Ġad m
an che
Ġd il
ĠS anskrit
Ġpe aking
ĠBel ow
e ur
ĠSte am
Ġde an
Ġcontribut or
Ġaddress es
us hes
ĠT ah
Ġput s
ce nding
Ġconv ince
Ġd ys
Ġcon stituted
ĠMar qu
ĠBeng ali
ĠRock y
Ġb anner
ĠBas el
Ġprol ific
Ġmat hematic
arth y
Ġnum er
Ġdestroy er
e a
ĠM oney
Ġsed iment
Ġprec ise
ĠHonor ary
ĠB ash
ĠM ile
ĠVat ican
Ġlist ening
Ġadvoc acy
ĠB order
Ġseem ingly
k al
ĠK ids
ĠH ook
ĠV ick
Ġopt ed
or ian
ĠRe in
Ġs ad
ĠS ikh
Ġ10 2
Ġ183 4
ĠA G
en za
Ġstat ues
ĠD uchy
g as
Ġgram mar
Ġse ar
olog ne
ĠTit le
Ġdec ay
Ġd rown
ip linary
ĠLe ipzig
ĠJo el
ĠCla ude
Ġlect ure
Ġres on
ĠL arge
ĠS E
th ird
Ġs a
Ġl ord
on aut
ol an
Ġcompar able
V C
Ġcl oth
Ġexp enses
res hold
pro f
Ġparam eters
ĠSyrac use
od s
Ġdes per
ĠCla ire
Ġregul atory
ap or
ol in
Ġad mir
ĠG ates
Ġaffili ation
p al
Ã¨ s
ĠG ymn
Ġpe as
ĠCre ative
is or
Ġ Ï
Ġstri ker
Ġmet all
ĠMad ras
ĠAssoci ated
el ic
Ġeng aging
ĠOrig in
ant o
Ġdam ages
Ġ18 14
ĠHam pton
ĠAr ms
ĠG av
uzz le
ĠMey er
et z
Ġval ued
ĠSte phan
Ġen abling
ĠSh adow
Ġprof its
Ġcancel ed
ĠDev il
ĠSing le
w yn
Ġor phan
Ġinv ention
198 7
r ina
Ġult imate
ĠBer ry
ĠI N
E very
im eter
ĠGu adal
Ġsum mon
ĠUn fortunately
asc ular
id ay
Ġpri zes
Ġtrap ped
d istance
Ġd ign
d ad
ĠThe ory
h aul
B r
Ġp m
Ġre ly
v oy
Ġsec uring
Ġd up
ĠI z
Ġtrans mitted
ĠChem istry
Ġhe ating
ĠL al
Ġtrail er
ĠFergus on
Ġreve aling
ĠF ur
Ġan at
Ġsearch ing
Ġc arn
ĠArch ives
Ġretain ing
ĠConf ederation
it ars
Ġfilm maker
Ġdialect s
im ar
Ġper cussion
l arg
ack ing
ĠSil va
Ġm ood
ou b
Ġm ock
Ġcur ved
Ġde er
ost ic
Ġen erg
ĠHeavy weight
ĠM om
ĠSyn opsis
ĠG M
ĠGar c
ur ai
Ġconf ident
head s
h uman
Amer ica
heim er
ĠF on
v iv
ier i
Ġsym ph
Ġter restrial
Ġcon stitute
Ġplant ation
Ġcyl inder
198 5
ĠMad h
Ġqual ities
ĠNe igh
ch ant
ĠPlan et
ĠGib raltar
Ġanal ys
ra pe
cl ip
ĠTe legraph
Ġunemploy ment
P resident
ĠMadag ascar
av id
ĠS ag
Ġins criptions
ĠBel t
Ġexpect ations
Ġcolle giate
Ġshow c
Ġlo os
Ġexcept ions
ĠTanz ania
Ġsurpr ising
ud ed
Ġhero es
Ġm a
Ġrela x
ĠT in
Ġseason al
Ġspread ing
Ġsystem atic
ĠC ock
Ġac ute
Ġdif fers
Ġunanim ous
ĠC rom
Ġc af
Ġrem ake
ĠB uk
Ġinc orrect
ĠC i
Ġenorm ous
Ġs ank
ĠCauc as
g ang
at z
com be
Ġhop ing
Ġch im
Ġdis gu
ĠW aters
an ium
Ġmod ifications
ash ing
to ire
Ġexpert ise
Ġqu e
ĠJ ag
ĠTrib une
am ar
Ġcompet itor
w al
act ic
ĠPo etry
ĠConc ord
V N
Ġment or
ĠK och
ĠCommun ication
Ġgain s
O K
Ġsil k
er os
amp h
ĠHard y
ĠDoc ument
Ġto ugh
ĠB ast
ĠP u
ĠY ar
Ġplat inum
Ġfresh water
t urn
oin ing
j ord
Ġn ave
ĠMar co
ĠLand mark
ram id
ĠS ources
bra him
Ġmir ror
Ġins urg
Ġcompl ications
Ġc ra
Ġrep ublic
W F
at um
Ġup grade
: "
ĠF ork
Ġdisp at
Ġmel od
Ġap plies
ac ritic
- "
Ġplace ment
Ġsh r
ĠGuatem ala
ver n
Ġrev ersed
ne ys
ĠRec reation
Ġisol ation
ĠUC LA
am ous
Ġquant ity
ĠSal em
Ġwick et
at isf
Ġble nd
Ġwel comed
t w
ann ah
ĠMP s
bu ild
Ġd ome
ĠP irates
ĠBro ck
Ġship ped
et erm
oc o
t el
ĠAg u
b red
Ġpoly mer
ĠPart ners
Ġ183 1
Ġsix ty
ĠG ul
ged y
Ġlack ing
Ġatt ained
ĠTerm inal
ĠAchie vement
Ġal ly
ĠS ara
Ġloyal ty
Ġst range
le igh
Ġac ids
wid th
inn ings
Ġwood s
198 6
o il
Ġvol cano
Ph il
Ġf ran
Ġchrom os
Ġalign ment
Ġge ographic
ĠJ ets
Ġrock y
arm ed
ĠComm od
Ġre struct
Ġsomet ime
ener ation
Ġdiam ond
ĠSuff olk
Ġl ac
ĠPow ers
Ġclass room
Ġchar itable
Ġextra ordinary
ĠK iss
Ġin ver
Ġarm or
Ġext ant
ĠJosh ua
edd ed
au f
est ead
an or
Ġany where
Ġflow ing
ĠC e
Ġ10 3
ĠCal vin
it ical
ĠT ank
an z
Ġrelig ions
ĠPot ter
ĠBudd ha
Ġm igrated
ĠChe v
Ġteac hes
E G
et ian
ĠV ander
f ight
Ġsubsc rib
Ġass ert
Ġdiv ine
ĠFight ing
c ity
ĠAugust us
T op
n ie
l ate
Ã¡ ndez
ĠSound track
Ġenc ounters
c idae
ĠR he
Ġart ic
Aust ral
N L
Ġinvestig ating
Ġovers aw
Ġwh atever
D own
Ġapp lying
; "
cont rolled
as ive
y g
ĠM ikh
Ġkeep s
Ġin equ
Ġtonn es
Ġcommemor ate
ĠPh ase
ĠR ao
Ġexpla ining
ĠWin ston
Ġposthum ously
Ġ- -
un i
Ġrout ine
ĠPrem i
ĠChen nai
Ġreg ulated
Ġbut t
L ou
ĠS ugar
Ġelectron ics
Ġcons on
Î ¹
uc a
ĠThom son
Ġexcess ive
Ġpurs uing
Ġident ifying
Ġreal m
Ġman eu
Ġdeleg ate
ĠCzechoslov akia
s ome
ĠAcc ount
am en
c amp
Ġreform ed
Ġdispla ced
ĠJul ie
Ġw onder
ic ist
H a
ĠMid land
id ian
Ġbox er
Ġdisch arge
Ġdist ances
Ġ( $
ĠE du
Ġun official
n ational
ĠK Ã¶
ĠInd oor
Ġinter f
Ġdiscipl ines
Ġsk ating
ĠSacram ento
Ġm asters
ast on
ĠC ay
Ġstrong est
it he
ĠFl oyd
Ġre pl
Ġke en
Ġprec urs
N ote
ĠPap ua
ĠDown town
ĠW imb
i ad
ĠBomb ay
ĠZ en
Ġf itness
ĠW ander
Ġsn ake
Ġtra ced
ĠMarri age
. ),
Ġe ase
Ġbl amed
Ġm ate
Ġl oud
ĠNe gro
ĠPart icip
Ġbus h
Ġswe pt
ugh ter
om ers
Wh ite
Ġpubl ishes
Ġlegit imate
Ġsucceed ing
Ġsk illed
Ġcomb ine
Ġdifferent ial
Ġoverwhel ming
Ġbet ray
Ã© d
ĠGriff in
om as
Ġide ology
Ġweek day
ĠMÄģ ori
Ġquant ities
Ġcomple ment
Ġcar b
Ġc ass
Ġlaunch ing
Ġshort ened
ĠH undred
ev iÄĩ
Ġte nder
ĠW ilm
ul in
Ġm isc
ĠCon sequently
Ġ183 3
Ġtra ct
ĠCom position
ĠSol ar
od ay
ĠB ibli
al and
ĠWeb b
Ġgrav ity
Ġteen ager
Ġreven ues
Ġsent ences
Ġfav ored
Ġsan ction
ĠExcell ence
P G
T ur
ĠB ody
ĠIn stitut
ĠR up
Ġappro aching
Ġf ountain
Ġcompla int
Ġprecip itation
Ġcomput ing
Ġimm une
H ol
ĠN uclear
Ġsw orn
Ġsett ling
Ġw age
ĠNor wich
c ond
Ġsm ugg
Ġconsult ing
ĠMonten egro
Ġsacrif ice
Ġaut onomy
unc iation
Ġdetect ive
ĠHels inki
Ġh iatus
Ġdem olition
Ġviol ations
ĠE ye
Ġh aul
Ġsup ern
ĠHawai ian
Ġenc oded
Ġcommun icate
Ġt a
Ġcoin ed
ĠPla ins
H R
ĠH omer
fl ix
erg arten
it ivity
Ġ10 4
ĠPla in
ĠNorth western
conom ic
be ing
d rop
ĠSlov ak
Ġst rain
Ġout s
Ġer upt
ĠMax well
Ġceleb rities
esc ope
em i
Ġschol arly
ĠGeor ges
ro ft
ĠProv idence
is y
Ġsurpr ised
and i
ĠS uccess
Ġevac uated
run ning
Ġtort ure
er ick
any a
Ġfre ely
Ġfin est
ĠC umberland
v als
Ġwh it
Ġpre ference
Ġflo ating
Ġcorpor ations
di ocese
ant om
Ġex pend
Ġob s
ĠHy der
ub ble
ore t
ĠJud a
198 4
Ġmel ody
Ġtr unk
Ġbr illiant
ip ping
Ġwood land
ĠD uff
oc ide
. ).
Ġsub ordin
Ġinf ect
Ġl od
ĠH ag
Ġbe ings
ĠSand y
l oss
Ġlik es
Ġteach ings
v ine
ĠWill ie
Ġag gress
Ġres emble
urg ical
ros se
Ġemploy er
Ġnever theless
Ġaffect ing
ĠS iber
Ġsevent een
ge ons
mid t
c io
Ġfin ancing
Ġev ol
Ġaccept ing
Ġimpro v
Ġp orn
Ġcru iser
unn els
ĠPro cess
ĠGand hi
Ne ill
Ġb und
Ġwar rant
Un ited
G reat
ĠT oul
oot s
Ġremn ants
ĠMar athon
r ÃŃ
ĠCast ro
Ġsuggest ion
ok en
Ġgener ating
yl on
Ġprin ts
ain es
Ġsovereign ty
iss ues
ĠLat via
l oo
Ġorgan s
ĠSen ators
Ġsoph istic
ĠF iction
ĠBul ld
Ġeffect iveness
Ġbes ide
od ied
Ġbreak through
Ġinter active
Ġtens ions
ĠM ats
v ie
ĠS tern
ĠS ometimes
ort ed
Ġinter rog
og h
Ġsh adow
Ġgif ts
ĠPro s
M ag
ĠR ox
a ud
ĠCl oud
Ġscreen writer
Ġcom eb
y t
u ity
ĠG A
ĠWhit ney
ĠF ed
ĠPer iod
ĠJackson ville
s pring
Ġh oly
art y
Ġattra ctions
Ġv est
erv ing
C R
em ann
Rol ling
u en
Ġtechn ological
Ġdom ains
Ġc um
Ġconsolid ated
z burg
Ġcult ivation
Ġbr ass
Ġincorpor ate
Ġtradem ark
Ġj un
sh ot
Ġpubl ishers
C onn
ĠChen g
ĠH ast
ĠW id
ĠH ed
ne g
pher d
ob ic
ĠAfter wards
19 50
ĠM Ã¼
ĠOrig ins
ri o
Ġreg ards
ĠIn teg
ell ation
Ġund ef
c ule
Ġfellow ship
ĠNort on
Ġso ils
Ġtrack ing
Ġupd ate
b lack
ĠVis ual
Ġfe ared
omet ric
ĠAct ing
ce ae
ĠCitiz ens
Ġremark ed
ib an
us ually
ĠGeor getown
Ġsurve ys
op t
ĠS lam
t ures
Ġsuperv ised
ĠC ologne
Ġtot ally
Ġsupposed ly
Ġsp here
or ic
ap o
ĠMort on
ĠSh am
sh aw
ĠNic ol
ĠL ub
Ġcont ing
iss ued
Ġcontest ant
Ġcomment ator
Ġuniform s
Ġh alls
Ġcol ored
Ġquarter finals
Ġrepe at
ĠBas ic
Ġlimit ations
ĠG lor
onn y
Ġannex ed
ĠWimb ledon
Ġlandsc apes
ĠP am
Ġpart ition
r ust
Ġsquad rons
l iter
Ġthough ts
Ġpl ed
ÃŃ s
la ke
Ġportray al
ĠFel ix
ĠC ele
198 3
ĠWor cester
Ġun rest
Ġcor ridor
ĠDod gers
Ġb ike
ĠEmp ress
D M
A g
Ġintegr ity
Ġsen ator
ĠS ib
Ġabund ant
ĠAn to
Ġcou pled
ĠHigh land
cy l
Ġcare fully
fr ame
ĠSof ia
Ġlength y
ĠVern on
t ail
ĠV ision
ab s
ĠC ivic
ern er
ĠCamb odia
ĠCamer oon
Ġret ros
ĠSant o
ir s
ĠM VP
Ġcycl one
Ġoccup y
Ġreflect ing
ĠL ars
p i
Ġsum mar
Ġins ufficient
Ġb omber
ĠK ane
at as
ĠLin ux
F irst
Ġcompla ined
Ġsat ir
W ar
Ġreg ained
am by
ĠMoham med
iformes Family
Ġse as
Ġst ance
ĠCare y
in qu
Ġfail s
so ver
ĠIniti ative
ĠD erek
ĠEl is
Ġcr ater
ĠRot ten
load ed
ĠLeop old
aw ks
Ġdis qu
Ġ3 000
ĠToy ota
Ġcon sole
ĠO le
Ġcontact ed
f ilm
Ġmist ake
Ġpath s
Ġt rem
Ġfe ver
ĠF ut
Ġst uff
Ġrecommend ation
ĠIb n
Ġte nds
D T
ĠD res
por ter
Ġa ided
udd in
ĠA IDS
ĠP ione
Th at
ĠOrgan isation
Ġmon op
Ġb itter
Ġdet ention
Ġ ).
ĠBol ton
Ġrob ot
ĠCh urches
K O
Ġin ning
k ok
em ption
Ġim plies
Ġdo zens
Ð »
ti ary
ĠV ed
Ġdis advant
ĠT aj
sh a
ĠPatri arch
ĠChron icle
ou p
re qu
Ġ10 6
ĠBron cos
Ġere ct
em ia
Ġadequ ate
pl ing
ĠS ales
ĠGard ner
bour g
Ġsan ctuary
Ġmin ers
Ġamph ib
Ġattribut es
Ï ģ
Ï Ĥ
Ġo wing
ĠD rew
op ter
ĠAst ron
ĠÅ ½
ĠBoy d
Ġp ond
Ġteam mates
Ġm m
ĠAut o
ĠHum ph
ĠAn alysis
Ġnerv ous
ĠRec ogn
Ġpat ch
sh op
ha o
ee per
ber ra
ort s
ĠRaf ael
Ġsket ch
Ġvilla gers
Ġab d
Ġqu ar
ong s
Ġpre vention
U K
iz ers
Ġstead y
um ped
Ġp aved
hard t
Ġele venth
ĠF let
ron ics
Ġtal ented
Ġdef ault
ĠFac ilities
ent on
ĠMet acritic
ĠVict ory
C or
amp ire
ĠG ian
Ġform ations
ĠNet flix
Ġweaken ed
Ġra ced
Ġdemonstr ations
ĠAd mir
G eor
Ġvacc ine
in ology
Ġcult ivated
pe x
ĠTur ks
oz o
ocol ate
Ġspr ings
Ġam bit
g reat
Ġc uisine
Ġl ined
ib ia
Ġcon ced
Ġg ig
i ar
Ġpublic ity
Ġtend ency
ĠIn ternal
Ġre hears
Ġs acked
ĠB ess
ĠLa ur
A p
ĠChap man
Ġencourag ing
es ian
d ia
ĠT ian
ĠInspe ctor
Ġh ab
Ġfact o
Ġhuman itarian
ĠSax ony
Ġev angel
Ġn erve
ĠRe b
Ġinse ct
ĠLad ies
Ġcann on
ĠTr ue
Ġteen age
Ġ18 25
ĠV iv
Ġin ex
d or
ĠL Ã©
ĠSt oke
ĠTibet an
Ġh o
ĠG ross
Ġsail ors
ring e
ik k
En ter
ĠL ect
sp ace
Ġspecial ly
Ġrad ius
Ġcomeb ack
ĠAll ies
Ġmet als
ĠAppe al
M O
c ope
Ġl unch
ĠLib ya
s ometimes
Ġout comes
pe i
r s
ĠGarc ÃŃa
m atic
f i
ĠGener ation
l ation
Ġad mit
ĠSh iva
Ġmet eor
at u
Ġtact ical
T unes
erv ille
ĠB ard
Ġbro w
Ġarc ade
ĠKle in
ĠN in
ĠCo ff
ĠL ob
ĠM ald
Ġd well
Ġvir al
ard ing
it ational
S E
t em
ĠCole man
ĠK ok
J ew
d ict
P I
ĠRoad s
Ġinstru cted
af a
ĠC otton
Ġimag ery
ĠAle ks
Ġ \
own ers
ing ers
P aul
ĠCo aching
Ġstop ping
ĠR ally
Ġhang ing
itro gen
Ġdoub led
Ġ18 10
z el
Ġimpact s
ĠAll Music
Ġ' ,
ĠFull er
Ġr ushed
Ġun m
pe ople
ĠT yr
ĠColomb ian
Ġwire less
ĠEngine er
Ġprin cess
Ġdeterm ining
ĠF antasy
Ġdesign ing
Ġtw elfth
agre b
Brit ish
R O
Ġpal m
ĠR CA
ĠCon rad
ĠW ik
ĠVir t
ĠB ac
ĠC av
ĠEurope ans
ĠA th
Ġdec isive
ĠBerg en
P lay
Ġdiss ert
Ġactiv ism
te e
ipel ago
Ġcont rary
Ġend e
Ġreason able
ĠMerced es
Ġthink s
Ġfin ishes
ĠBar oque
ĠX box
Ġtro op
Ġsp are
ĠCase y
ke ys
B re
Ù Ħ
Ġen z
histor ic
, '
Ġb ail
Ġund ers
Ġbl ank
Ġcompet es
ĠR ule
Ġun t
Ġdream s
ĠC arson
Ġst om
Ġsh aft
bo ats
W S
Ġper ipher
g irl
Ġcont empor
Ġtong ue
all ow
ĠFrances co
Ġbe aches
ĠShe ikh
ĠGar cia
ante ed
im id
erm o
Ġb ark
ue b
198 2
ĠB in
Ġlingu istic
Ġmix ing
Ġbl ast
arri e
Ġlov es
ĠWinn ers
ll i
Ġpeak s
ĠI X
ĠBrun o
ĠC it
Ġt iny
Ġsup erm
ĠHistor ically
Ġboy friend
Ġinspe ction
C he
Ġw ages
ĠD ion
Ġmot ivated
Ġfra ction
Ġm es
ĠD ul
ĠN H
Ġth reshold
Ġsex ually
D ie
ĠK olk
is che
Ġtra its
197 9
Ġa uxiliary
ĠEx eter
ĠHel ena
P op
Ġincom plete
h ole
ĠHa iti
ĠLe one
ad ia
ĠW N
Ġcho osing
Ġhand ful
Ġspec ulation
ĠR ules
is ans
ra cted
Ġeth ics
N ot
Ġoff shore
ĠMay a
ĠCle ar
Ġconsequ ently
ĠL it
f ar
act or
Ġsh apes
Ġemploy ers
Ġjum ping
Ġexp ired
ĠCer amby
New s
ust ain
ĠNorm andy
Ġmon archy
com p
Ġ" -
ott i
Ġcool ing
ham pton
ĠConserv atory
ĠK od
Ġsn ails
L ive
Ġdec om
Ġri ots
ĠParalymp ics
ĠH ok
ĠF uj
Ġw ounds
les h
ĠProdu cts
ĠI de
field s
ĠBatter y
ĠR ather
ĠG unn
Ġco effic
ĠS F
Ġemb ra
Ġnar rator
198 1
L E
ĠFre eman
ĠVolunte er
Ġcommercial s
Ġ18 21
Ġfrequ encies
Ġâ ĪĴ
Ġfeed back
ĠT unnel
raph ic
Ġbreak down
ĠRuss ians
ĠMic he
ĠSt ories
Ġmist aken
ĠOri ental
onn ie
ĠP ool
Ġclass rooms
ĠPhilharm onic
ĠVol ume
Ġd iox
Ġemot ions
ĠStrateg ic
Ġemphas ized
ĠW i
s ize
Ġover time
ĠV all
Ġfront ier
Ġpersonal ities
Ġreal ize
z an
ĠW is
Ġthreat ening
M us
as aki
Ġresemb les
Ġge ography
ade qu
ĠSport ing
Ġcoll ision
or ig
ĠD ixon
oph on
Ġj aw
rain ts
ĠV augh
ĠT ake
Ġun ified
Ġrehabilit ation
un ched
Ġass erted
ĠCeramby cidae
Ġgener ic
ĠH ul
Ġencompass es
ĠF en
Ġri ot
ant es
ĠM ilit
Ġgall eries
Ġmoll usk
Ġat op
Ġarch ive
ĠMon ter
ĠRes erv
Ġcour ty
ĠBuck ingham
ĠBo at
ĠMon ica
ĠW ins
p ark
w ara
ĠUz bek
ĠJ ob
ĠR ost
ĠH uss
Ġdiscuss ing
ĠN E
Ġam ino
ĠHaw ks
ĠM ix
Ġde pr
ĠIsland er
ĠZ agreb
Ġliber ation
ag ram
Ġf ake
ĠColle giate
ĠIn st
ar f
ĠH abit
Ġh unt
Ġa ug
Ġincorpor ates
Ġdis ability
Ġtelev ised
Ġp aired
Ġcomm od
Ġlock ed
Ġde eper
ae us
Ġexcept ional
d el
ĠD ag
ĠC over
ĠCan berra
Ġat omic
ĠW ord
B ook
Ġh urt
Ġposition ed
Ã¢ te
Ġr ic
Ġdon ation
wer p
Ġens uing
Ġde ity
Ġsubd ivision
ĠP M
ĠFle m
Ġen ables
Ġdet ained
Ġsoph omore
ĠParam ount
ĠGl ad
Ġmoment um
d ec
ĠH ew
197 5
l ings
n as
Ġst amps
Ġaccess ed
Ġl ots
ĠD re
iz able
ĠTrad itional
st ones
Ġl ane
Ġpione ering
abul ary
Ġcons umed
ĠHond a
Ġv ibr
Ġpor ch
ĠC ore
ĠIn side
M iss
ig uous
r ath
Ġi Tunes
ĠR iley
y u
os ity
Ġsub mer
f ried
c ross
] .
Ġec clesiastical
Ä ħ
Ġambit ious
ĠBrit t
ĠS T
ers ion
e ches
Ġvalley s
Ġp neum
ĠB oh
un ting
Ġtre nds
e ated
Ġcerem onial
Ġnegot iated
Ġcla use
Ġtext ile
Ġyear ly
ĠAlb ion
Ġmon k
Ġpow der
ĠMun ster
Ġsuff ix
ra ul
Ġpast oral
Ġinc ons
olph ins
Ġpurch asing
Ġincorpor ating
ĠC ao
ĠQu inn
il ib
Ġconf isc
Ġfinal ist
Ġdecl ining
Ġjew el
Ġadv iser
Ġpro ud
st orey
ĠH ence
ne ath
Ġs her
Ġded ication
Ġspir its
Ġspr int
Ġexecut ives
Ã§ a
Ġgra ves
Ġo val
ĠMad onna
ĠR ip
ĠY ok
S I
Ġb inary
Ġnot orious
ĠRober to
R E
Ġdyn amics
Ġpresum ably
oun ce
ĠL ik
Ġresol ve
on ge
ĠAct ivities
ĠMin isters
min ton
ĠK ub
Ġancest or
ĠI L
Ġsymb olic
u ine
et ed
ĠR C
ĠCh rys
ul la
ĠAv iv
ĠZh u
Ġrel ied
ut ely
Ġre duces
Ġfore wings
des ignated
ĠDem ocracy
Ġke ys
Ġmot ors
p ired
Ġw ives
ĠJen kins
ĠDr ug
ow o
yl ogen
is se
ys elf
Ġbet a
Ġpath way
he ed
Ġj oy
Ġconf luence
ĠS V
Ġrad i
ĠJ orge
ian i
ĠEuro pa
Ġo ath
c ery
Ġp ir
Ġel ong
Ġcho ices
Ġ18 28
iling ual
ĠAltern ative
Ġabb ey
Ġadd itions
Ġmodel ing
Ġmort ality
f ig
Ġsh irt
Ġcou rage
Ġrelie ved
ĠEmb assy
ĠT i
ĠP aper
so on
ĠSw ift
Ġassess ed
Ġd ances
ab is
Ġadvent ures
ĠVik ings
cut ta
ut ter
ĠAt hen
ul ent
Ġval ve
Ġmaid en
g ins
ĠW ong
ĠSh ak
ĠBad en
ĠSm art
pla ced
Ġrecept ors
w elling
Ġcomb ines
yn om
y led
a ic
pr ising
Ġanticip ated
ank ar
ĠSand ers
Ġan ger
Ġb arg
ĠT ud
le ading
Ġim aging
Ġcollabor ative
Ġguarant ee
ĠMikh ail
Ġamend ed
ĠHy dro
ĠY osh
un ted
ĠS iles
Ġ18 24
Ġmag ist
ĠNaz is
Ġtrans action
h of
Ġcomm issions
ĠMid lands
Ġm ouse
ure n
Ġwhere by
Ġemb edded
Ġim per
ens ions
ĠOl iv
ĠRed s
ĠHerman n
Ġconcent rations
M et
Ġline age
on el
Ġski ing
R ussian
ĠSix th
ĠIm port
am on
Ġp aternal
Ġfinancial ly
Ġdra gon
ra ction
ĠCons ult
ch ay
ĠJ ub
Ġex empt
ĠBe yond
oin ting
it as
ĠDrag ons
q i
l ord
ĠZ ar
ch annel
Ġirrig ation
ian ces
ĠHyder abad
Ġac cepts
atter son
Ġterror ism
Ġdef ining
ĠTh ings
ĠAl most
Ġsp ar
b rown
Ġreper toire
uc ci
ĠD ors
v ian
Ġad he
es que
Ġtend ed
Ġtreat ments
ĠPl us
Ġ10 7
ject ed
Ġinst ant
Ġconf ined
ĠSid ney
ĠOffic ers
ĠSh u
Ġabbrev iated
Ġcur ves
Ġdoll ar
ĠH its
le ague
ĠCongress ional
et us
Ġbe ats
ĠD A
Ġ18 29
ĠRever end
ĠI ber
m ith
ĠH utch
Ġread ily
Ġb ol
ĠMalay alam
ĠY uk
ĠHam mer
Ġt u
ĠV isc
Ġemploy s
ĠTol edo
ĠAnd roid
Ġinter red
ĠMichel le
ĠFlet cher
ell es
Ġaccus ations
ĠR ag
Ġdark er
ĠW er
ĠFor bes
ĠCec il
Ġcl usters
Ġre vel
on o
Ġacqu iring
athe tic
Ġb ays
Ġan onymous
ĠK ens
ĠP ond
Ġnucle us
ia g
Ġsp y
osp ace
Ġsubject ed
ĠBrand on
ĠI st
int ro
ĠSut ton
Ġstate wide
Ġpil grim
ĠSh aron
ĠInvest ment
Ġv end
Ġdest inations
ĠAsh ley
Ġn as
ĠW yn
ĠJess ica
ã Ĥ
Ġgu err
Ġgen ome
Ġball ad
Ġec ological
Ġdown stream
Ġsurv ives
Ġrein st
ĠR ash
th s
Ġpret ty
s ite
ĠI brahim
Ġens uring
ĠS ister
Ġfunction ing
Ġexpl oring
S il
ĠS inc
d ong
ud s
Ġgra vel
ĠL und
Ġaster oid
Ġsuccess es
Ġra ck
ĠCa esar
ĠJoy ce
ĠR ook
ĠJan et
Ġsoc io
Ġcinem at
ĠRe be
Ġ17 90
Ġpure ly
ĠAn imal
Conn or
Ġc rystal
ĠH ank
Ġmed ic
ĠL och
ĠS unn
Ġcan cell
Ġrac ism
ĠJ as
Ġshoot s
M ed
Ġpost al
writ ers
Ġin mates
P L
ĠK ind
Ġcommand s
Ġto ile
197 8
Ġpoll s
al us
ici ary
ra id
Ġpriv acy
ĠL ima
Ġsc reens
Ġhar bor
ĠS iege
Ġa unt
Ġdeal er
ĠCompan ies
ĠSing er
Ġmot to
Ġesc al
Ġdeliber ately
Ġcreat ures
omet hing
Ġdestroy ers
Ġcamp uses
k el
aceut ical
ĠW an
Ġgu itars
Ġspecial izing
Ġconvent ions
ĠJes uit
Ġren ted
re ach
Ġpseud onym
Ġdec iding
ĠM iz
Ġcomp uls
ĠStri ke
Ġswitch ing
M B
ĠW ings
ur ia
ĠAnd hra
Ġparticip ant
Ġproport ional
oura ge
B el
Ġoccup ies
Ġb ust
ĠL uk
ĠNic arag
ĠG le
Ġmarri ages
ul ative
ĠUnderg round
ĠVij ay
ak o
ct u
Ġt ales
ĠAnt werp
Ġadvoc ates
Ġh orm
ĠWin chester
Ġadvant ages
ac iÃ³n
Ġkn ife
Ġtri angle
ĠSlav ic
ĠG os
Ġun common
n ership
ĠDund ee
Ġcre st
Ġpain ters
Ġsing ular
Ġf illing
ĠJuda ism
Ch ief
Ġcomfort able
Ã ®
s eries
ĠTunis ia
ay e
cur rent
k le
Ġbare ly
Ġcr ust
ĠC ell
or row
Ġdecommission ed
ĠTom atoes
ĠC ome
ĠCo ch
Ġm ere
ĠAn s
Ġ18 13
Ġobserv e
ĠG DP
ĠAlexand ra
Ġt unnels
are z
ĠK rak
et ter
Ġr ush
s ince
M ac
ist on
Ġn it
Ġres ist
ra z
ĠH BO
Ġinc arn
pro te
Ġdecl aring
ath lon
Ġinc ent
ĠClass ification
Ġim plic
p ound
Ġfulf ill
ĠKolk ata
ment ioned
Ġrow s
ä ¸
Ġ10 8
ĠRol and
ĠL iz
197 4
ra ys
Ġf ears
str ument
Ġdipl oma
ug ged
Ġin herent
st en
Ġrev ision
ĠConstant ine
ĠRebe cca
Ġpl asma
Ġeat en
ph oon
r ically
d ish
it ate
ri pts
N G
ĠCh ambers
C ont
ĠEnter prise
T H
Ġsol ic
ĠP ablo
Ġan terior
Ġpost ing
Ã ²
ĠMcC arthy
Ch icago
f unction
Ġpost erior
Ã³ pez
Ġche ese
ĠMot ion
U s
ĠRand y
Ġple asure
Ġto oth
ĠCon vers
v ir
ĠT ul
Ġenter tain
Ä Ľ
Ġpress ed
ĠTim othy
b is
D aily
Ġm ast
ĠN ig
Ġovert urn
ĠD ry
ons hire
Ġer osion
ĠDavid son
ĠSh ire
Ġst amp
Ġguar anteed
ĠC ran
Ġg re
Ġd airy
Ġl ighthouse
Ġs ings
Ġnew sc
ĠR w
Ġinstall ations
rape ut
ĠE rie
197 7
N E
ĠPier ce
Ġdissert ation
Ġveget ables
ĠDa wn
th on
G l
ĠP red
Ġbi as
F I
Ġbrand ed
O D
av irus
Ġdram atically
Ġcontinu ation
ĠM ant
e xt
ĠWeb ster
Ġan them
9 00
A rab
ĠUS C
Ġell ip
Que en
ĠDen is
ĠSac red
ĠGreek s
197 2
ĠBundes liga
Ġsc rap
sc ape
ĠPer forming
ĠM orm
ĠHy de
ĠAl leg
ĠL un
ĠT rent
ĠInd eed
Ġpremi ership
Ġ Ø
Ġbes ides
f red
Ġmat ched
Ġaver aging
Ġw it
ĠM und
ĠV eh
ĠJeff rey
Ġsh oes
I l
p he
ĠCher ry
M el
Ġmatch ing
ĠVal encia
ĠFI BA
ĠI ps
ĠLet ters
ct ica
red itation
Ġele ctorate
L R
lin t
ĠGlou cester
M in
Ġst ip
ĠF resh
Ġlocal ities
Ġcompat ible
Ġpreval ent
ĠB ram
Ġcouncill ors
Ġad oles
O ur
Ġlos es
ĠLe igh
Ġsumm ers
pos ing
197 3
Ġg rap
ĠIceland ic
Ġrif les
eng ine
ĠCal cutta
". "
Ġstat ute
ĠTrad ition
ĠOp position
Ġtrad ers
le w
Ġmagn et
ĠM its
ed e
ul ine
W ho
ĠField s
ph ones
Ġopt ional
Ġf oster
ĠBh ut
ĠThe ological
Ġret ro
ab el
Ġpar ody
197 6
Ġsuper intendent
per m
Ġr h
Ê »
Ġvilla in
w ana
ã ģ
ĠHold ings
ĠCov entry
Ġne o
Ġm apping
ĠNord ic
ĠG lacier
ĠHann ah
ĠWander ers
Ġmat ric
ĠH aj
os aurus
Ġ18 26
ĠSh im
Ġsyn chron
Ġrec all
ĠPr ide
ĠFilm ing
ĠV ald
Ġdel ays
ĠPoly techn
ĠM t
and an
Ġbats man
Ġnon profit
ĠBra ves
Ġmass es
se nd
Ġfrag ment
Ġdemonstr ating
Ġcolumn ist
Ġ18 18
Ġrob ust
Ġfort ified
G rand
Ġtrans cription
ĠP ole
ĠBrig adier
ĠGuj arat
com b
Ġexcav ations
ĠIn ner
Ġdu et
ĠLe af
Ġdeb ris
J ack
ĠC ott
p per
ĠT ucker
ĠHart ford
Ġcon form
Ġaffect s
Ġthr ust
ropol is
board s
Ġp ocket
Ġstrip ped
Ġcomprom ise
ĠCly de
ĠHast ings
ĠPhill ip
Ġweak ness
Ġf res
Ġport al
ĠV es
ib ald
Ġcost umes
Ã³ d
S a
ess ing
ĠW en
Ġvow el
Ġres ide
ard y
Ġintellig ent
os o
Ġrem inis
Ġsle eping
Ġsurg ical
Ġenter prises
Ġannoun ce
ĠInvest ig
ĠF ow
Ġad ul
ĠCh arg
Ġactiv ation
gr ass
Ġles bian
Ġhelicop ters
omet er
ĠM ell
che t
Ġche f
en heim
ir ling
ip le
ĠF ram
ĠC H
ĠE rik
Ġevolution ary
Ġpro long
ĠBut ter
Ġalgorith ms
ĠFerr ari
Ġspons ors
eb e
Ġcycl ist
j ee
ĠK amp
ĠSc outs
Ġb ure
Ġp ic
Ġw itch
ĠGr ass
ĠK ob
Ġassoci ates
T er
Ġbar on
sk irts
ĠJ up
Ġfe ast
j ani
ĠVenezuel an
ĠFe atures
ĠMan ch
ĠO ften
ym met
ĠX avier
Ġprotect ive
Ġj e
Ġderiv ative
Ġsufficient ly
Ġborrow ed
ĠS EC
Ġdocument ation
C ount
ĠM s
ÃŁ e
lim ited
Ġe y
ĠK atherine
Ġdefend ers
H y
Ġpol ynom
ĠRest oration
Ġprepar ations
isp here
ĠMiddles ex
Ġdescript ions
ĠC BC
Ġpage ant
Ġsaf ely
ĠDres den
Ġqu ot
Ġhe ated
Ġpromot es
ĠW S
ou f
Ġint ra
d ep
agn etic
in ster
ary a
ep ers
Ġre ctor
Ġwant ing
Ġc ort
Ġsc rapped
ĠAng ola
ĠK ai
Ġmother s
ĠBe au
ĠEld er
man s
Ġflex ible
le ctions
act ory
Ġ10 9
Ġclin ic
ĠNiel sen
por a
Ġun conscious
ĠW ade
ĠK ul
Ġmod ule
year s
ĠTeh ran
Ġgamb ling
Ġcollect ively
ĠHan over
oph ys
w y
Ġin adequ
ĠF rem
ĠCN N
it Ã©
S up
ĠAub urn
re cht
Ġrep aired
ĠTe xt
ĠB olog
ĠG ut
sh ine
ĠC unning
Ġc av
ĠElect ronic
Ġfore cast
Ġtum or
ĠSal is
r atic
Ġsub mission
Ġemer gence
Ġphenomen a
Ġdispla cement
ĠPatric ia
ĠP oints
Ġbre ach
ĠTor res
less ly
ĠConserv atives
an u
Ġpro se
ols hev
ĠGeoff rey
se in
Ġunder way
ĠBar ack
ĠEl s
ĠJack ie
s l
ĠC od
ĠÃ ĵ
ĠA ce
ĠL Ã³pez
ĠG aul
Ġthe ological
Ġreal istic
Japan ese
h ig
ĠY ah
Ġtri angular
Ġingred ients
ĠR ole
r il
Ġritual s
Ġex ports
orth y
ĠFl ash
ĠTer ror
ĠJ ian
Ġbas al
ĠPart nership
Ġs aves
T T
ĠM are
ĠEm irates
ĠPsych ology
Ġtest ified
Ġinherit ance
el ed
Ġrejoin ed
Ġout fit
Ġfor um
ex cept
prof ile
O h
vent ions
art on
ĠH im
Ġapprox im
uv ian
ĠProm otion
ĠNe o
ĠDud ley
1 30
Ġdeliver ing
ĠDeuts che
ch y
is al
ĠÅ Į
ell ites
ĠTh anks
ĠN O
ĠAl ps
ĠC ash
ĠCh u
ĠNew ark
ĠM ugh
Ġal beit
ĠV ery
ĠEd en
Ġste ering
Ġaccept able
b as
Ġlabel ed
Ġpod ium
ĠFranc isc
for ward
t ailed
Ã¤ n
B N
or ters
ĠSh ane
In t
larg est
Ġg aming
ect ive
ĠDecl aration
occup ied
ĠRud olf
Ġfre el
ĠR oma
ĠW are
Ġtransfer ring
ia e
ant astic
Ġfin anced
Ġhier archy
Ġf rog
eal ous
ĠL ands
Ġref lection
olog ic
Ġw ag
ĠPer cy
B er
Ġsynthe tic
app ropri
ĠD unn
rep resent
ĠSch ne
ĠKu wait
Ġwrest lers
cyl inder
M ic
Ġmar athon
ĠS ale
Ġinf ections
Ġinfl ation
Ġacc ent
ser ver
Ġh atch
bro ther
ĠAlber to
ĠJ al
Ġch ase
Ġgovernment al
ĠPark way
ĠP all
ĠS pl
ĠSinc lair
ĠU d
Ġsp ans
ĠKn own
ĠAg nes
ĠBulld ogs
Ġflood ed
ĠM IT
Ġdeterm ination
Ġsuff rage
ĠSt a
ĠBrad y
sh i
Ġgu y
Ġloos ely
ĠUC I
air d
F l
ĠOcc up
us er
pl ate
Ġout skirts
Ġter ra
Ġpartnership s
ĠN ames
ĠBah rain
ĠEthiop ian
or ers
ĠC ret
Ġunder water
Ġrec ycl
Ġtheat res
ĠAdv ance
ĠF K
ĠOk in
ĠMon astery
ke eping
Ġv it
Ġinter val
Ġschool ing
re b
Ġfus elage
Ġstrengthen ed
ĠM ih
b ahn
Ġmasc ot
Ġdef unct
Ġcouncill or
ĠRe bell
Ġvac uum
ĠParagu ay
Ġun h
Ã¨ ne
ov al
Ġpers ecution
ĠOm aha
Ġdiox ide
ah i
Ġass et
ĠCred it
Ġas pir
Ġl ion
m ut
ĠR S
af i
Ġremark s
Ġrefuge e
r ug
ĠProper ty
ĠL uck
it ian
lant ic
ĠBo oth
la bor
ĠP ied
Ġse aled
k ed
um ann
ĠGonz Ã¡
Ġmedal ist
Ġaddress ing
ĠMong olia
Ġm im
ĠR ig
Ġswim mer
ĠS Ã©
ĠA ston
sc ill
19 45
ĠS K
ĠWill is
ĠPri est
Ġreorgan ized
Ġc it
ot ted
ĠE ra
re cted
Ġm ice
ĠM iy
Ġlisten ers
Ġsophistic ated
ĠS ue
Ġint ensive
W ith
Ġsp anning
Ġhaz ard
ĠAp plied
ĠGi use
Ġn itrogen
Ġcatal ogue
Ġwh olly
ĠCub s
ĠVeter ans
ĠTit ans
ĠBerm uda
ĠF ashion
ĠNic olas
ĠB ott
ov ic
res cent
Ġvirt ue
Ġ18 16
ĠH ang
Ġtr ilogy
ĠC risis
Ġar che
ĠIr ving
ĠC ald
ĠF ry
ĠReserv oir
ĠAr lington
ĠK C
ĠN ou
ĠTe achers
Ġcounterpart s
ĠHol ly
Ġg reet
B ro
ĠN est
Ġch ances
ot on
ĠD ise
ĠTra cy
ent ric
Ġin act
ĠC aled
Ġcult iv
Ġtal ents
ĠArab ian
ĠEx p
Ġem ail
Å ¼
ĠT ac
Ġannounc ing
Ġcat ches
ĠA la
ĠHe y
Ã¼ ck
Ġexplos ive
ĠB ug
ran ger
ĠCle m
Ġsubmer ged
Ġat oms
Ġoccup ying
Ġplate au
uit ar
Ġsubdiv ided
ĠZ am
Ġchemical s
Ġ11 5
ĠNe ed
Ġtim ing
ĠI CC
ĠUnivers ities
o ids
ĠSupport ing
Ġh alt
ĠC ategory
not e
ĠF ri
Ġund is
ivid ually
Ġpla ins
ĠS ally
ĠMc Le
er land
ĠMatthew s
Ġw arriors
Ġsl ogan
ĠExt ra
ĠChe ro
Ġpharm ac
im eters
ĠCor p
Ġdia gram
ĠGreat est
Ġfa ctions
ĠK ick
H D
ĠK ras
Ġlack s
Ġm ath
ĠA way
Ġep onymous
p oints
ĠAdvent ures
ĠOs aka
Ġun named
ĠP oz
Ġevac uation
Ġminor ities
Ġinvent or
Ġemb ry
ĠH ollow
ĠAss y
Ġ180 6
Ġnegot iate
ad ays
er oy
ĠB S
ĠS ach
il ers
Ġfort ifications
ĠMe eting
W ork
ĠD up
Äģ d
Ġprim itive
ĠC asc
ĠClin ical
ovi ets
Ġex empl
ab ar
ĠBas que
Ġlun ar
b ons
pl an
is en
Ġoper as
ĠGonzÃ¡ lez
ch ard
ĠSoph ie
Ġtax i
ĠE z
ri ka
e i
1 20
ag s
ĠBry ant
ĠC ities
play ed
ĠTh ur
ĠBull s
Ġ18 27
gener ation
Ġconcept ual
ĠHeart s
ir able
ĠN GO
ĠT ren
ĠAt l
Ġresid ences
Ġcorrect ly
Ġexceed ed
Ġro pe
ĠM anning
Ġ180 1
d ou
Ġexpress ing
Ġup stream
Ġir re
Ġprofess ors
Ġexcav ated
Ġic onic
Ġant is
Ġnight club
ĠP asha
Ġsatisf ied
le en
ĠLe Ã³n
Ġst ained
ĠMaced onian
ĠM k
Ġmag ical
ĠLam bert
ut ory
ĠH our
Ġexpl ores
197 1
Ġcell ular
196 9
n ar
f u
agon al
it ism
Ġl augh
Ġind ef
Ġcorn ers
Ġmathematic ian
T F
ĠD uk
ĠS erg
Ġdeb ates
ĠB Ã©
Ġundef eated
Ġsm oking
auth ored
ĠTre vor
Ġret ains
Ġdis hes
Ġload ing
ĠInvest igation
Ġlight weight
Ġpsych iat
Ġc aves
Ġran ch
chang ed
196 8
ĠSav age
Ġpract icing
ĠEle anor
Ġrecon structed
the y
us p
Ġdomin ance
Ġtrans actions
er en
rit e
Ġware house
ĠAl g
Ġprom ises
Ġrem od
ĠAbb as
Ġatmosp heric
N D
Ä ĵ
Ġcoordin ate
ĠS I
Ġwa ived
Ġanten na
Ġesc apes
rib e
Ġafter ward
Ġrep rin
r ar
Ġmet ro
Ġtall est
ĠImp ro
Ġ Âł
Ġd warf
ĠN ed
Ġord in
ĠChero kee
Ġatt itudes
Ġeconom ist
Ġcy cles
ĠR um
ĠRav ens
ĠM W
ĠBang kok
ĠDaw son
ĠP GA
Ġg y
ĠBagh dad
Ġb uck
arn a
Ġrig id
Ġprof ound
Ġfix ture
Ġaqu atic
m art
ĠSt ro
ĠDe e
ĠCan on
Ġins ight
af ia
Ġmet ric
Ġsu ited
Ġadvertis ements
t aker
Ġkidn apped
ĠVisc ount
J P
ĠStand ards
Ġcap ped
Ġins ign
Ġlif elong
Ġas ylum
ĠTr uth
Ġpist ol
Ġexcell ence
Ġap ost
ĠD as
ĠM og
Ġdisch arged
n orth
C E
E nd
Ġbroad ly
al one
ĠInt ro
abet es
ĠB enson
b irds
Ġd ug
ĠPort o
ĠPear son
ĠPar ade
Ġconclud es
Ġg rab
Ġf ut
7 50
Ġunder neath
ĠV inc
Ġexp on
P l
ĠSalis bury
ĠL ope
Ġadj oining
Ġfaith ful
Ġjuven ile
Ġident ifies
Ġcooper ative
Ġalt ogether
ul ance
ĠAnn iversary
Ġtarget ing
ĠT uc
t able
Ġcap tained
ĠBh ar
A D
is eries
ĠSteel ers
. ",
Ġl umber
Ġodd s
Ġl ymph
oph y
Ġcompos ite
ĠRe x
op rano
oc us
Ġspe eches
Ġcelebr ating
ĠInnov ation
ĠNew sp
Ġdecor ations
Ġfa una
en stein
ĠCed ar
Ġ180 3
M R
l ance
Ġmark er
Ġpromin ently
Ġtrigg ered
Ã¨ res
ĠSe venth
The y
ĠAbdul lah
ĠChrist ie
Ġin ac
M G
t ier
as o
ĠX in
Ġpr ide
Ġcorrespond s
Ġch anc
ass ed
th irds
Ġar ise
Ġavo iding
Ġper f
Ġm aker
Ġh urd
ĠAl m
Ġsc ripts
Ġbar racks
ĠF CC
Ġcourty ard
B o
ĠChar ity
ĠIps wich
Ġg ospel
N O
Ġ4 50
iol a
am oto
ĠRes p
he id
ĠT il
Ġsket ches
ys hire
Ġnational ism
Ġind uced
Ġmin erals
Ġgener als
ew ard
yn amic
cis ely
ĠSem i
Ġage nda
ĠCal der
ĠD erb
Ġfolk lore
Ġmer ge
c ip
Ġunanim ously
ĠAntar ctica
ĠZ oo
be e
ilib rium
Ġsh ar
ĠÅ ļ
dr iven
20 21
Ġdi ary
ĠLoren zo
ĠB ally
F rom
ĠH arri
Ġwhe never
Ġcomp aring
ĠB it
ĠCarl isle
Ġanaly st
G reen
ĠP ius
ĠP atterson
Ġm akers
ĠRel ief
utt gart
ĠB ates
ĠHass an
Ġplan ets
ĠP end
Ġpoin ting
Ġb its
ĠAngel a
Ġatt ain
ink s
ĠV y
ge e
Ġret reated
ĠGiuse ppe
ĠHaw k
Ġm ang
ĠGaz a
Ġmax im
ĠM ets
ĠMa o
s igned
Ġphys icians
Ġstead ily
ĠG ov
ĠZ ero
Ġvis itor
ĠPat rol
Ġair ports
view ed
Äģ b
Â ½
Ġmole cule
ĠSt ark
Ġpar ap
Ġgra ce
ĠP ag
ok i
Ġinn ocent
ĠBat man
Ġal igned
ĠIs h
ĠÄ °
ĠC osm
Ġ18 19
pl er
Ġcrim inals
e ason
ĠPet erson
Ġf ence
ĠZ ur
ill i
Ġpro pon
Ġinf lamm
ĠShir ley
abl ishment
Ġcontra ctor
Ġred ist
Ġout let
Ġdeb ts
ĠR ough
od on
ĠF ast
Ġcompl iance
Ġspe ar
ĠFal con
Ġmemor able
ĠB le
ĠH ers
ĠCom pos
ĠSerge ant
if a
Ġcivil ization
ĠLind say
du ctions
ĠBeh av
Ġautom ated
ul ing
Ġcreat ure
ĠChrist ine
Ġoverlook ing
ĠV and
ĠL Ã¼
Ġplant ations
Ġstorm s
D er
th or
ĠWh ilst
Ġdism ant
yn the
ĠS eth
ĠPr att
ĠHon ors
ĠC ove
Ġsk ate
om ans
Ġme al
ĠRan ch
ĠPhilip pe
ĠM ud
Ġpra ising
Ġcalc ium
Ġpossess ions
ul ia
Ġover night
ĠBar rett
Ġmod ification
St ate
Ġcampaign ed
al ach
b il
ili ated
Ġflood s
ĠC hes
ri que
Ġex iled
Ġun in
ĠC ram
la ble
L L
Ġid ol
Ġp ushing
ĠC ounsel
ĠY ak
ĠPres ervation
M Hz
ĠAugust ine
cyclop edia
our t
Ġwel come
ĠCunning ham
Ġs inking
ĠRecord ings
Ġori ented
ĠG Ã³
Ġpat ents
Ġjud ged
ĠRe e
Ġhe aling
ĠSh arp
ĠMin ing
ĠK oz
Ġr all
Ġinj ection
Ġgl obe
ien cing
ĠH os
t ax
ĠY i
Ġheav ier
s ung
ĠBuch arest
Ġgroup ed
ĠControvers y
B ad
Ġmid night
Ġ18 22
Ġr ides
Ġholid ays
ĠM I
ĠJ agu
Ġhom eland
Ġ18 23
Ġins cribed
f al
ent er
ĠBron x
ort on
ĠAir ways
ĠBlack burn
Ġmotor way
ĠReturn ing
ĠJacob s
l ift
ĠLet ter
Ġcancell ation
ov sk
Ġp amph
ĠColle ges
Ġ11 1
ĠMarket ing
U R
og l
ĠR ising
Ġ17 0
let ter
Ġshe ets
ĠArchitect s
la ge
Ġsimilar ity
Ġlad ies
Ġcoord inated
ood y
Ġsp atial
oper ative
hor se
ĠIS O
Ġansw ers
Ġemer ge
Ġacc idents
Ġrecept ions
ac io
H is
ĠAp plications
ĠAugust a
ra it
Ġun aware
ĠTur in
ĠIn ver
Ġsemif inal
ĠBart on
ĠAustral ians
Ġviol ated
Ġar ches
ĠCol ts
Ġlicens ing
ÅĦ ski
Ġburn t
S ax
at ile
Ġ179 3
Ġnumber ing
Ġten ants
Ġtribut aries
ĠB rem
ĠSat urn
ĠH ak
clip se
ĠLank an
Ġs odium
Ġmy st
ĠCh ak
Ġche ap
Ġhe x
Ġphot ographic
ĠClay ton
ĠCh ip
196 7
Ġsynd icated
Ġunder going
ĠG ould
omin ated
th y
Ġd rought
An n
ich ael
Ġvot er
ĠHabit at
M er
Ġover head
ins ki
Ġsuspect s
f em
Ġhold ers
Ġclean ing
Ġpriv at
Ġhold ings
ĠÃ ħ
Ġrel ates
Ġprecurs or
j ar
Ġb arriers
av ers
Ġpick s
Ġthe olog
Ġdef icit
Ġl ords
Ġintent ions
ĠB ound
Ġper ennial
Ġaccount ed
ong o
Ġsp o
ĠZ ach
ist o
ĠMag dal
cul osis
ĠN iz
Ġtre ating
Ġcame o
k t
Ġn atives
ĠHam mond
ĠDe al
ĠDuc hess
ĠPre par
air craft
back er
ĠF landers
ĠMap le
Ġobserv ers
à ´
ĠEl ite
Ġsu ite
Ġill um
Ġpip eline
Ġsuper hero
us ch
Ġdis abilities
Å º
Ġconcent rate
N or
Ġinstitut ed
Ġpres ided
ĠT D
Ġsexual ity
an as
Ġf u
Ġappe als
Ġreinforce ments
m ese
Ġorigin ating
Ġg ren
ĠNational s
Ġtra gedy
ĠCl an
ct ive
s un
ĠJ ing
Ġspec ification
Ġmountain ous
ps y
ĠCar penter
ĠPer uvian
Ġpost season
Ġkid ney
c ue
ig hed
Ġins erted
ĠCred its
Ġdet achment
Ġforest ed
he e
Ġf als
Ġ12 8
Ġcontinu ity
Ġappoint ments
atin um
ĠCatal an
ĠC ey
ÃŃ o
Ġ180 9
im edia
Ġharass ment
M F
S ee
Ġinter fer
ĠSam oa
ĠM ou
Ġtra uma
ĠSha wn
ĠS earch
ĠBi har
he ll
Ġb ab
ĠAct s
ĠZh ou
ĠKy iv
Ġch icken
ĠHab sburg
Î µ
ĠL oss
ĠT ell
ĠD oming
ĠS oviets
ĠRebell ion
ĠSch midt
Ġneighb ors
ĠR och
ĠTown s
Ġh ire
Ġspecial ty
ĠAut onomous
ov Ã¡
Ġbut ton
Ġdrop s
ĠP erm
Ġpos itively
ĠA AA
T rans
j un
ĠCh oir
ĠAl c
Ġassum ption
ĠSwim ming
Ġdev ot
o ften
Ġgovern ors
ĠDown s
ĠTrack s
ĠJ et
ĠG ott
ĠP ret
ĠT ort
we ed
for th
gu ard
Ġp iv
ĠMos que
ĠMar ina
Ġrecru iting
ĠC I
Ġsand y
ĠNorm al
ĠRaj as
A z
ĠTechn ologies
Ġdep iction
Ġassist ing
Ġpeas ants
Ġorganiz ational
Ġw agon
Ġt issues
Pac ific
Ġnational ity
ĠPra irie
ĠC hern
ĠE van
ĠCorn el
ĠPars ons
N FL
Ġch ambers
Ġres idency
ĠRol ling
ĠReform ed
Ġdepos it
ĠU m
Ġac et
ĠHow e
Ġexplo itation
Ġn aked
Ġc ros
h p
ib al
Ġge ological
ĠP rel
ol ves
ĠGal way
ne cess
Ġcol oured
Ġforb idden
Ġanx iety
Ġmon ster
ĠMid west
al og
M c
Ġse iz
Ġ18 17
ĠM LS
ĠAnt io
Ġdis par
L ondon
by e
ĠSt uttgart
Ġec ology
w ear
ĠCarl ton
ĠÃ ĩ
T wo
Ġalumin um
Ġsle e
ĠS ob
ĠY as
Ġdefe ats
Ġinf ilt
ĠChe shire
ĠPack ers
ig ibility
Ġharm ony
V al
Ġst ab
ĠAra bs
sequ ent
Ġspokes man
o ft
ĠMac au
Ġmark ings
in ist
Ġcomp ly
Sp anish
es pecially
ĠF i
ĠL ily
Ġintro duces
V ar
Ġthe ft
ĠRivers ide
Ġtrans fers
ĠSk i
Ġpe ers
Ġpe nding
Ġinfer ior
Ġtownship s
Ġ11 2
ĠC able
Ġbot tle
ĠAust ro
Ġhand ball
ound ing
ĠSax on
Ġon set
Ġper mits
Ġfre eway
Ġ2 20
Ġsav ings
Ġch ip
Ġover haul
Ġped estrian
Ġthrow s
Ġrep et
Ġdecla re
Ġprogress ion
al om
Ï Ħ
l led
Ġpref ix
ĠKann ada
Ġl yr
Ġexam ine
ĠW B
ĠO mar
ĠN em
ĠD over
Ġfire arms
Ġhal ted
Ġsurpass ed
Ġt in
if iers
ĠAdmir alty
ia k
Ġentreprene urs
Ġreg ain
ĠWe ber
ĠW ant
ĠO v
ĠHigh lands
iod iversity
ember g
s son
Ġcandid acy
ger ald
uther land
Ä Ĺ
T or
b age
cc entric
c us
Ġpool s
Ġbes ie
Ġdem ise
Ġ180 8
Ġrebu ilding
g one
w hen
ĠV A
ĠCla rence
Ġsynthe s
ow l
ach ute
ĠGe ographic
ĠB ri
Ġ5 000
Ġle gends
ĠGreen land
R ep
ĠK ah
ĠM ons
alif ied
ĠI A
ĠMed ic
Ġrebu ild
Ġexper iencing
ĠCorn er
Ġadapt ations
st a
Ġpre cisely
Ġmodel ed
ĠIsab ella
ĠInter est
ĠCor on
ĠJ ain
ĠV ia
ĠM Ã¡
ĠN ay
z one
ĠK ak
Ã¶ m
ĠGal axy
Ġflag s
Ġconfron ted
Ġind ividually
ĠS idd
Ġcan vas
Ġproduct ive
Ġt ang
Ġover view
Ġex ported
Ġdispat ched
ur able
ĠR ust
Ġab rupt
Ġcoord ination
Ġview er
Ġmigr ants
ar ine
osp here
ĠJer ome
ĠSt anding
Ġph ones
Ġreact or
ĠUlt imately
Ġconst raints
Ġo scill
Ġpl um
ret ion
Ġcomplex es
Ġref usal
pop ular
ĠH ague
ap le
ĠLat vian
ĠF ol
Ġcott age
S aint
ĠBow ie
à¤ ¾
ould er
ĠHu ang
c irc
Ġpred ators
Ġdepos ited
ĠSe v
ĠUlt imate
Ġabund ance
ĠE va
H E
Ġpitch ing
Ġfemin ine
Ġst uck
Ġreun ion
ĠCann es
ant an
ĠÃ ł
Ġun related
Ġstri ps
Ġcur ator
Ġtri umph
m are
er ver
ve z
F ort
ĠT ate
ocal y
Ġpla int
I m
e aux
ĠAr cher
M od
ĠBot an
h on
Ġgen ocide
rict ion
Ġgen uine
ĠJak arta
Ġp ard
ey er
Î ¼
ul atory
und ers
ĠId ent
Ã¨ ge
Ġspec ulated
Ar thur
Ġdi oces
ek a
ĠCommod ore
Ġref using
ĠVen us
ĠJose f
ĠF res
Ġdis in
ĠIll ust
ĠC ot
Ġe agle
ĠValent ine
Ġth roat
ĠT arg
ĠM ake
ĠIn sp
ĠBM W
Ġp ent
ĠHond uras
ĠP BS
Ġcomp ass
ĠBolog na
ut ers
Ġcrowd s
ĠThir ty
ĠC ors
Ġmob ility
st orm
ĠH in
Ġm ural
Ġcirc uits
n ick
ĠAlf onso
Ġroll er
ad an
Ġapp arat
us ive
Ġchief s
ĠTe aching
Ġarm our
udd y
Ġvict orious
Ġm ourn
Ġh ate
ia z
Ġc ats
e conomic
19 30
Ġ/ &
Ġ179 8
ual a
ĠAndre as
ĠW ire
Ġfier ce
Ġreminis cent
Ġansw ered
ĠMar se
ĠShe ll
L D
Ġcard inal
Ġpre tend
S am
Ġad mits
ĠD oyle
Ġcl iff
ĠL ug
Ġpos ed
ĠP asc
ĠE ar
Ġaccum ulated
iv ism
c Ã©
ĠCom ic
ĠBar ber
raul ic
ĠThe res
Ġd ental
Ġcomp ression
ĠU P
ush i
Ġsem ic
ĠX ia
ran es
V er
S k
ĠJo ey
Ġrecogn izes
ĠT ut
w itz
Ġ ×
Ġdefend ant
record ed
ĠFl at
u ctor
ĠAd ults
Ġlay ing
L and
e ight
Ġ" '
ĠN ut
avel ength
squ are
Ġacadem ics
S un
Ġf ores
ĠTra vis
Ġrepro ductive
T y
Ġr het
ĠD id
ow itz
Ġheav en
Ġrep orters
aster ies
ĠCh am
Ġ179 4
Ġcatal y
ĠLope z
M art
un ion
Ġt ab
S ur
en ian
rol ley
Ġsens or
Ġ18 11
Ġwork force
Ġcle aring
ĠSund erland
en ko
ĠX u
Ġeigh teenth
ĠMoz amb
ĠRou ge
om at
ĠTreat ment
H am
ung le
Ġl ag
Ġim plications
ĠO vers
ie g
Ġcor al
ĠGovernor ate
Ġang les
Ġextens ions
Ġin ev
ĠSy nd
ĠP ray
Ġ180 7
ĠT C
ason ry
it ud
Ġcor rupt
Ġgif ted
Ġpun ish
Ġs tern
en ities
n ance
Ġpost er
Ġfl ora
Ġexpress ions
Ġdispos al
ĠJournal ism
Ġtit ular
ĠArch diocese
ĠSe lect
ĠAm anda
Ġin ability
ĠM ate
Ġdam aging
ow ment
Ġn ode
Ġprem ium
ĠGra ves
Ġmoth s
Ġfe eds
ĠCl iff
ĠNum erous
Ġrepresent ations
ĠNon etheless
ĠS aid
Ġass im
cl er
Ġrecover ing
pre ced
Ġstom ach
Ġag ing
ĠBe ir
ot er
ĠInf rastructure
Ġres ume
Ġt ips
ĠEx c
ĠIs les
ail able
ote chn
Ġcontain er
fl ies
ra red
ĠN aw
cont inental
ĠK ell
ĠCam den
Ġsimul cast
et ch
ĠAr r
Ġis ot
ĠO rient
Ġrec apt
Ġsub way
Ġ179 5
d ated
ĠAssoci ates
Ġj ersey
ĠChrist church
Ġlim iting
ĠW ave
Ġthick ness
Ġter tiary
Ġmut ations
Ġclimb ed
ĠH S
Ġsat ellites
az ing
ung a
196 5
ĠMal t
Ġdec ent
g iving
Ġ1 19
G ame
og ues
Î »
Ġbe friend
Ġcompr ise
ĠBar th
Ġtrig ger
ĠElis abeth
o ise
ĠN un
ĠK ant
ĠWilliam son
Ġb ip
ĠNo ah
Ġentire ty
Ġrepro duction
ĠSch war
Ġancest ral
ot ive
Ġaff ection
Ġcal m
Ġslow er
Ð ²
ong a
Ġsim ulation
ĠI R
ĠAt las
ple x
Ġb iblical
Ġexped itions
ĠGreen wich
um ing
Ġoccur rence
ĠAss am
ĠSub sequent
ĠJup iter
Ġsp ont
ran king
oph il
Ġhand ic
Ġrenov ations
Ġsoc ially
ar as
Ġinter vals
Ġday time
Ġl amp
ĠFal cons
co e
Ġfundra ising
ĠHol t
T M
ĠL ans
op hers
ĠEvangel ical
u o
er ation
ĠEc ology
Ġcompuls ory
ĠJoh an
ress es
Ġa pex
G E
ĠMay o
ĠSt op
ĠGerman ic
ĠMoh amed
Ġimplement ing
pt ic
ĠBang alore
ĠTai pei
T om
ĠFitz gerald
l arge
ĠBox ing
Ġmerch and
w aters
Ġgrand daughter
Ġshock ed
In ternational
ĠBark er
ĠMarc os
__ __
Ġcomm ence
Ġextra ction
Ġ180 5
Ġj ealous
ĠD uck
Ġh ob
Ġcy t
ari os
Ġball ots
Ġch ord
âĢ ĺ
Ġpl ots
Ġoff spring
Ġarm ored
ĠH C
ĠCar bon
ĠTaiwan ese
ĠW igan
ĠS ain
sh ow
t ford
ĠBah Ã¡
Ġeth ical
Ġreg ulate
Ġreluct ant
d iv
ric ular
Ã ¬
Ġbackground s
N ight
Ġprocess ed
Ġreb randed
Ġsus cept
w ave
Ġpro jection
ĠJ enny
anc ies
ĠSom alia
ĠRand olph
Ġassign ments
Ġbl ade
umb ers
br ates
ĠFlor a
ĠGu err
Ġste als
Ġbeet les
Ġcomp art
Ġout right
Ġ16 00
lyn n
ig ma
ĠO man
Ġprot ested
Pe ople
F rance
Ġbure auc
Ġlow ered
ĠSe ym
ĠM use
Ġpatron age
Ġsp ark
ĠH M
Ġphys icist
ĠFlem ish
g uez
asc us
Ġsong writing
Ġham mer
S und
M o
ĠEm manuel
Ġst atic
ĠSe lected
ĠH oney
Ġher ald
g ren
f ax
ĠDisc ography
c as
ĠPrim era
Ġshoot er
Do ctor
ĠBe aver
um ar
medi ately
ĠSum m
ĠI k
Ġcart oons
i ency
ĠMac Donald
Ġsub stances
ĠMin i
Ġbehav iors
Ġj am
Ġre election
ĠSh annon
Ġglob ally
Ġs erm
ĠEst ablished
ĠGame play
Ġsummon ed
Ġver dict
Ġfung i
Ã©t ico
ĠWater loo
Ġsp or
ĠEn c
ĠGaz ette
Ġenfor ce
ĠL od
ĠRena ult
Ġdet ached
Ġext inction
Ġinc red
Ġpap al
ĠM B
ah ar
ĠSol o
anth a
Ġmon etary
Ġsuperm ark
Ġoblig ations
ĠTal iban
ĠD ix
st ep
Ġb ells
Ġdefin itions
Ġeconom ically
n esty
ier re
196 6
cha ft
Ġcour thouse
inn ess
Ġr ust
it le
F inal
Ġdevelopment al
Ġsoci ology
N Y
ĠCount ess
Ġprivile ges
Ġto y
ĠWal ton
se ven
ĠCh op
Ġbuild er
Ġn iece
ĠT urb
! ".
ĠV or
Ġ180 4
ĠAppro ximately
ĠB olshev
A ir
ĠM uss
em on
Ġprovision al
in itely
Ġpres idents
ap hor
othe rapy
ĠD ust
ĠF unction
Ġle v
Ġhon est
id ia
ĠT rial
ra ve
Ġnot ation
ĠShe pherd
ĠFront ier
ĠCoast al
her ty
ening rad
Ġdim in
ĠArchae ological
Ġst aging
ic ularly
S em
ĠTerrit orial
ĠCey lon
ib i
rÃŃ guez
Ġb urg
Ġfe as
Ġrob bery
Ġspokes person
work ing
Ġshort age
Ġsurvey ed
p ret
ĠC z
Ġscen ario
ig on
Ġs el
ĠSol id
m eter
gu y
C al
ĠEl ena
est an
Ġpl aster
ĠNational ist
m ounted
ĠEnt ry
ĠL j
Ġob server
ĠOper ational
Ġbirth place
Ġdel la
Ġ ump
g ic
Ġgeomet ric
Ġpup pet
z ew
Ġal ike
rank ed
ĠIn tern
Ġapparat us
Ġ17 80
ĠGen oa
Ġl as
Ġse ated
Ġrot ating
ĠR it
Ġ å
ĠD ana
ĠD Ã¼
Ġinter ception
ĠUn ity
Ġred dish
w on
Ġadv erse
iz ards
Ġsle nder
Ġh iking
ĠCh ong
Ġch ancellor
ĠRod rÃŃguez
ĠA id
ĠPlate au
ĠCar th
h ak
Ġsem inary
ĠT ap
ĠClub s
ĠT es
ĠInt el
a er
Ġdiffer ently
ĠVik ing
sh an
ry n
Ġsup reme
Ġnurs es
b ilt
ĠRe ports
Ġwin ters
Ġprompt ing
Ġwh oles
Ġprec ision
ĠS ustain
ĠB oss
S y
T ra
il is
ack er
Ġge ology
Ġcon ferred
ĠPhill ies
Ġresp ir
Ġn odes
ĠHans en
ĠPol es
196 4
roll ing
k ill
ĠBy r
ĠWhe eler
Ġinvest or
Ġshare holders
ĠAdvent ure
ba um
ĠB rett
Will iam
Ġbad ge
ran ces
Ġrede velopment
ĠHar lem
Ġbow ler
Ġamalg am
ĠStevens on
F re
Ġm yself
Ġdes p
ĠAbb ott
Ġcontroll er
ĠBos nian
N U
ĠW elfare
preced ented
ĠParad ise
ĠOkin awa
âĢĻ .
Ġsub tle
Ġupd ates
Ġpl ug
ĠAss ess
ac ity
Ġde port
ĠKurd ish
ĠAl am
Ġelect rons
Ġpredecess ors
ĠDe leg
i ator
ales e
Ġrefer enced
ĠCrit icism
Ġorchest ral
ĠM GM
Ġorb ital
Ġt iles
Ġdocument aries
osa urs
p rom
ĠFle ming
Ġdel ight
ĠPolytechn ic
ĠE yes
Ġsubordin ate
ĠD ram
O per
Ġvic ar
Ġbattle field
Ġinterpret ations
ĠLah ore
E s
Ġprocess or
Ġaccur ately
ic ity
ĠH ours
Ġphys i
Ġsyn agogue
Christ ian
ew ater
Ġz oo
aw an
ĠPremi ership
ort al
Ġturn out
Ġadvertis ement
Ġblock ing
R ob
m ov
ĠM ord
ĠBever ly
Ġf ederation
ĠRe leased
ĠPlat form
ĠDerb yshire
Ġcru el
Ġpress ures
ĠP erman
F O
un it
ĠDors et
idd ing
Ġnom inal
Ġv iable
ram s
Ġfro zen
Ġbur den
ĠD ru
Ġpo etic
Ġeval u
re v
Ã¡ d
ĠA u
Ġth ank
ĠProgram s
ĠLe h
Ġsan ctions
Hung arian
Ġsupern atural
Ġconsort ium
ĠAut om
ĠEd ith
Ġsp arked
ograph ies
Ġculmin ated
Ġren tal
Ġprosecut or
ograph s
ĠJ ab
ĠV on
ag g
ĠMur d
Ġstrong hold
Ġe ccentric
Ġop pose
ĠP ueb
ĠMic key
Ġassum ing
ĠC rew
Ġint r
ĠM O
ĠGu am
ĠBur mese
op us
ĠMoz art
ĠT uls
d ate
ĠBeh ind
rol ogy
ĠQu int
Ġes p
Ġconclud ing
T s
ĠP oss
clus ions
Ġsomew here
f est
ĠMon aco
et ically
um ont
at an
n is
ĠNob le
Ġg able
ĠBar r
n ell
ĠN one
Ġloc ate
Ġpatri arch
Ġ180 2
azz o
B B
Ġmer it
ĠKar achi
Ġmin iseries
ĠRef uge
ĠRes olution
ĠV ista
p pen
ĠF ris
ĠG ior
P o
Ġr am
l ig
Ġpass ive
ĠD ifferent
Ġtrans gender
Ġtechn ically
Ġbank er
unk er
Ġse ct
ĠGlor ia
in ians
ĠMcK in
b ral
Ġsp ider
Ġdev ised
Ġvac ation
me aning
Ġ179 2
Ġol ive
ĠV C
ĠExpress way
Ġsil ence
ĠGo a
n ear
Ġpractition ers
Ġuncertain ty
Ġinadequ ate
Ġsher iff
ĠBav arian
Ġconfront ation
ĠCh it
ĠP up
ĠNam ibia
Ġdiscuss es
ĠG enesis
H en
ĠB res
Ġchanc el
ĠM oy
Ġgl uc
ĠVen etian
Ġorder ing
Ġblack s
Ġturb ine
ĠN iss
ĠSeym our
Ġrend ering
ro gen
br ight
ĠPer kins
er ting
ĠArch ive
disc iplinary
ĠPre vious
gl omer
ĠRap id
ĠT orn
ĠR ak
Ñ ĥ
ĠWest on
ĠLiber als
Ġdef enses
Ġf eder
ĠAs ide
Ġgrand children
ah on
Ġbreak fast
ĠM ys
ĠRe ad
Ġdisappear ance
Ġoffer ings
ĠT act
Ġpromot er
Ġt ear
ĠK op
h ara
ĠF ritz
Ġsp ells
ĠT ao
Ġaddition ally
Ġfin ed
Ġsol ved
ĠGener ally
Ġsubstr ate
Ġp sy
Ġunus ually
Ġbenefic ial
ĠM ole
ĠAd j
Ġex ec
Ġqu art
Ġvac ated
ĠG S
y am
d ivision
Ġdismiss al
Ġepit het
ĠEven ing
Ġinf ring
Å ĳ
up on
Ġsubsc ription
ĠCand id
Ġqual ifications
Ġteen agers
ĠG ert
h ang
ct ing
Ġrecip ients
ĠV ul
ĠForm at
ĠCatholic ism
ĠSuper intendent
Ġsens itivity
connect ed
1 10
Ġim plied
Ġvac ancy
Ġph ylogen
qu ality
Ġinvent ory
ã Ģ
Ġcharacter ised
Ġcirc a
g ant
l ot
Ã¢te au
Ġhe red
ĠFro st
bern atorial
ĠK ara
ĠTra v
ĠL on
Ġconstruct ing
effect ive
p arents
Ġrest ra
ĠB ian
inn ers
ĠCO N
ĠTrust ees
Ġillust rator
ud er
Ġst alk
Ġcolon ists
ĠZ Ã¼
ĠRap ids
ĠAlger ian
ĠSoph ia
E mp
Ġselect ive
Ġfun ny
Ġur anium
Ġins ert
ĠDw ight
est ine
t rad
m ere
Ġm old
Ġtrust ee
Ġcoast line
19 40
ĠMagn us
Ġro lled
ĠCour ts
lo qu
ĠCom par
Ġint imate
Ġsuspic ion
Ġal pine
Ġc ry
in ition
ĠS L
l Ã©
ĠSch u
Ġten or
ĠCert ificate
ĠS la
ĠP iano
ĠTe en
ĠSim mons
ter dam
Ġide als
ĠK and
over ed
Ġbal anced
ĠTyp ically
ĠNor se
ist ries
ĠL eningrad
ĠFern and
Ġmultip l
ro let
ĠSup erv
Ġm ars
Sat urday
rel s
Ġintercept ed
Ġdrink s
Ġw is
ob ia
Ġinequ ality
ĠRiver a
op ot
Ġcryst all
ĠBe ast
ĠPh i
ĠR ath
ject ive
ĠHaw kins
Ġa wa
T U
Ġprofit able
Ġm osa
ĠReview s
Ġstruct ured
ert ile
Ġ178 9
Ġpass ages
Ġref use
ĠLag os
Ch inese
k ir
ator ium
ĠG uru
ĠBibli ography
ĠMart ine
pur pose
ar ab
ect ors
ĠApost olic
ĠCor inth
ĠH ip
ĠF ischer
Ġsens ors
ĠRodrig uez
Ġepid emic
Ġfix tures
te ch
Ġgross ed
ĠOl ive
ĠRah man
Ġup held
Jew ish
ĠBeir ut
Ġd in
Y oung
ĠSt ad
Ġemploy ing
ĠPres idency
ar cer
Ġarm oured
ĠR ita
up ta
Ġwould n
ĠA ve
Ġiss uing
v re
Ġun changed
unn ers
Ġdram as
ĠSt ras
ĠD odge
v iol
Ġf Ã¼r
H ome
Ġorigin ates
ĠW ah
ĠMy ers
gl ass
urg y
ĠBy ron
Ġex ams
ĠDam ascus
Sm ith
Ġh iring
Ġimm igrated
Ġcollect ors
Ġpione ered
Ġfac ial
Ġt ide
Ġd ose
Ġshow case
ĠDev ils
ĠPay ne
Ġcontribut es
Ġexchang ed
Ġse w
Ġal pha
ĠB ills
ship s
Ġcomment ators
Ġneur ons
ĠL ill
son ian
ĠLenn on
Ġf ox
Ġd ive
ĠP emb
Ġover d
ĠSy m
ĠDon na
Ġ179 6
Ġbed room
H istory
l ining
Ġpossess es
Ġfinal ists
ĠW ine
Ġinf inite
ĠHer r
i ov
Ġbr ide
ĠVander bilt
n ica
ĠLaf ayette
w at
ĠD ash
Ġconv inc
X X
Ġcollabor ations
op ath
Ġreign ing
ip edia
int age
S pe
T imes
le af
ĠS uf
ĠG erm
oun ge
ĠF arn
) )
Ġint ake
Ġbur st
V I
ĠC ull
ĠS ug
Ġprosper ity
ĠC oss
Ġa ven
Ġe cho
orn o
" /
Ġlog ical
ĠRecogn ition
ĠA ragon
ol ades
b ass
ĠE arn
Ġw arrior
Ġgrant ing
ess es
19 20
Ġpass port
ĠT ran
Ġmod ules
ĠF ear
ĠR ama
ac ia
Ġelim inating
Ġconstitu ent
ĠRub y
Ġ ions
19 39
Ġvis a
Ġpres umed
Ġout lined
serv ice
Ġadj usted
ĠHuman ities
Ġpatrol s
Sp ace
Ġbomb ardment
ĠB R
Ġle isure
Ġlik ewise
ĠMart ÃŃ
ĠK ilk
ir ming
G et
Ġfeather s
ĠDe pot
ĠPÃ© rez
ĠÎ ±
ĠCatal onia
ĠDirector ate
Ġkeyboard s
á ĥ
Ġl odge
ĠN ina
Ġdem ographic
ĠCer tain
ĠC W
ĠB irds
Ġtra vers
ĠEarl ier
anc ock
ĠR F
ke f
ple ments
Ġrep ublican
F ar
ĠR Ã©
Ġrep lay
Ġretros pective
y ang
ĠB old
Ġpray ers
Ġw avelength
ĠMed ieval
f rey
Ġri p
Ġdist ribute
ĠLim erick
ĠCast ile
ĠAn k
ĠLe inster
ĠJud icial
Ġc ure
ĠP urd
Ġrel ate
ĠAl pine
Ġmart yr
an za
ĠP ike
Ġche er
Ġrenew able
ĠTh ous
n h
or io
Ġfor get
V ol
ĠG el
Ġarrest s
ĠJub ilee
Ġab normal
Ġfail ures
D in
Ġrever ted
j ing
ĠAl ess
ran ged
Ġhom age
ĠL amp
es i
ay ana
ĠSup erman
Ġblock ade
c asters
Ġd ried
Ġfa Ã§
so lete
Ġser ge
Ġtake over
ĠH imal
ĠReg ina
roscop y
ĠB ax
Ġenz ymes
im acy
Ġtre asure
ric anes
Ġattract ing
Ġexpl orer
ĠSh o
ĠRick y
h m
Ġple aded
ĠTon ight
ar h
ig m
ĠSh ut
Ġsh ores
H ouse
Ġt on
Ġcons ul
ĠRen Ã©
Ġm ol
Ġcont ests
Ġnational s
ĠDh aka
od or
et i
ĠY ong
Ġn oun
ÃŃ k
Ġequ ilibrium
ĠRecent ly
r atch
ĠF oss
ob il
ĠX II
ĠPublic ation
Ġfeud al
R ec
ire ment
ĠS my
Ġcare ful
Ġthe rap
ĠFl ood
ĠH of
och ond
roph ic
) -
p id
og ie
Ġperfect ly
Ġcount ing
Ġim ped
ĠAntio ch
Ġorche str
c ie
ĠH ess
. -
Ġwell s
ĠAtl Ã©tico
Ġadv ers
Ġtw ins
Ġdisapp oint
ĠNicarag ua
ud h
ĠMal i
Ġpre historic
Ġemb arr
Ġas cend
Ġsuppress ed
Ġme g
ĠAm ar
Ġspir al
Ġsp rin
ĠR anger
Ġhel met
ĠS utherland
ĠParalymp ic
ĠVol ks
Ġredes ignated
ĠElect rical
ĠColl ier
Ġastron omy
ĠProv ision
Ġdisp ersed
Ġspecific ations
P at
ĠO ss
Ġpip es
ic ating
Ġ11 6
ĠDe port
s sel
Ġfr aternity
ĠDist ricts
Ġdisapp ointing
d ar
en b
ĠT itan
Ġnob les
ĠG ap
Ġmeant ime
Ġun covered
the med
ĠKer r
Ġun released
Ġwest ward
Ġne ural
Ġdet on
ĠEis enh
ĠBahÃ¡ Ê¼
Ġsurround ings
T w
ĠOw ens
Ġtroubl es
uc us
Ġve in
ograph ically
ĠSt irling
k ie
ĠL ives
por ters
Ġshif ts
Ġem igr
Ġda wn
ig l
Ġmotif s
ar ie
ĠBelarus ian
Ġl iability
B y
ĠA CC
Ġqu artet
à ²
Ġair s
G e
Ġcens orship
ĠC ouncill
Ġla und
ĠVol leyball
ĠJo a
ĠG ore
Ù ħ
Ġp ear
Ġmus cles
Ġdepth s
ol ation
Ġbrew ery
f light
Ġconven ient
R oyal
amb oo
op posed
Ġcomm uter
ĠCont ent
Ġsp ray
Ġg rip
Ġpat rons
Ġ13 5
ias m
ĠT S
ĠClif ford
ot illa
ĠSumm ary
Ġphot ographed
Ġsl ip
Ġa fore
Ġmaneu ver
v ideo
ĠN W
u ably
Ġtalk ed
Ġexcav ation
rapeut ic
Ġall ocation
Ġst rand
Ġchar tered
ĠBerk shire
Ġre issued
ĠR onnie
F e
s w
or se
ĠComb ined
Ġappe nd
Ġpsych iatric
th am
Ġs ne
la k
ĠOtt omans
ĠC oc
ĠD mit
ĠG at
]] .
x y
Ġhum orous
ĠN ile
Ġforg otten
ĠIm mediately
Ġmot ivation
Ġun precedented
ĠS ok
Ġde le
ĠSwan sea
ĠS ke
ĠSt ream
og enesis
ĠAf ro
ĠId ol
Ġrecruit ment
Ġ179 9
M at
ivid ing
Ġtuber culosis
ĠRot terdam
Ġfres co
Ġs acks
Th ree
ĠPract ice
Ġca ution
ĠVal le
s u
L O
Ġv ib
Ġdiss em
ek ing
ĠHav ana
ĠGe ological
ĠAd ri
Ġrel iability
y ar
ĠSh ri
ĠRes ident
Ġst ressed
ult on
Ġreal ised
Ġrecru its
b ig
H op
agon ists
ĠCla us
Can adian
Ä ĳ
ĠRes cue
Ġdevast ated
Is lam
ĠScholars hip
ĠSund ays
Ġru ined
Ġinform s
Ġorgan ism
ĠT A
Ġende av
ĠVer de
K h
x ford
government al
lin ear
st ation
ĠDaniel s
Ġst ays
Ġh ood
ĠPe g
Ġre jection
Ġfrig ate
y i
Ġwe ighed
Ġcomb inations
Ġw rapped
ar ina
Ġ17 76
b ins
urg ery
ĠB am
ĠL ough
ank a
Ġcas ino
Ġc el
ĠC M
Ġpop e
Ġsymmet ry
ĠGab ri
ĠMoroc can
Ġd irt
Ġw olf
un ts
iss on
mber g
ĠMans field
Ġk g
M ont
ĠI RA
lif ting
Ġgymn asium
ĠG ros
Ġtrad es
Ġcharg ing
Ġsent iment
q a
ĠZamb ia
Ġobject ed
Ġmarg ins
Ġposs ibilities
ĠB ury
Ġsl ide
ĠT otten
Ġnecess ity
pect ives
uk h
A fter
Ġwing er
ĠE vel
Ġr ud
Ġpione ers
Ġpilgrim age
ĠJ iang
ĠQu artet
G I
ic ol
Ġstret ches
ĠB ant
Ġle ak
196 3
Ġapprec iation
ĠBritt any
ishn u
ĠB oul
v ich
Ġde ported
ĠCh ow
Ġstat utory
ĠChev rolet
Ġdict ators
ou st
D O
ific ant
ĠSi oux
a it
ĠH P
ĠG n
12 5
Ġarch bishop
Ġd rift
Ġshort s
ĠRes istance
Ġ11 3
Ġsteal ing
Ġaltern ating
Ġgra pe
Ġanch ored
ĠH ipp
ĠK ut
Ġfarm land
aren cy
Ġra ys
ĠQu Ã©
ĠAr row
ak is
ĠEns emble
Ġfunction ality
art ney
ou g
ĠB ing
ĠT ill
att ack
ĠD iane
Ġyield s
ident ified
Ġ u
ans on
Ġ 00
ĠLight ning
ĠThe ss
ts hire
ĠBuch anan
ĠCaucas us
ĠSte ele
Ġmemoir s
W estern
Ġindic ation
number ed
us z
Ġem pir
ĠG iant
qu a
ul er
Ġpled ged
ĠC T
Ġpro stitution
Ind ian
ĠPl ans
Ġprolong ed
Ġ ul
Ġportray ing
ĠBro oke
Ġcomput ational
ĠP ors
ĠHer tford
Ã¡ z
Ġexc iting
ĠK yr
ar ro
c roft
pro v
I rish
ĠColomb o
as so
Ġcommun al
ĠEv olution
m u
Ã µ
Ġfor ts
Ġreason ing
ĠJenn ings
d c
H ot
Ġf art
Ġtreas urer
196 2
Ġautom otive
Ġgu bernatorial
Ġculmin ating
og i
Ġsatisf y
ĠIv y
Ġweeke nds
L o
Ġsl ate
ĠSat ellite
Ġaud itorium
iag ara
Ġhard ly
ĠL anding
c ost
p rop
ĠTw elve
Ġdegrad ation
Ġsanction ed
Ġalumin ium
Ġl uc
ĠConc ern
ire n
Ġhon oured
ux e
Ġpersu ade
op ed
fess ional
Ġh airs
ĠLex ington
en ov
Ġapplic able
ĠGer ard
CA F
Ġcha os
Ġra y
ĠBuild ings
P art
her ical
ĠTud or
ĠJohannes burg
Ġ179 7
Ġsign atures
Ġpol ym
p ets
ill ary
h ome
Ġjum ped
ĠPione er
am orph
ĠGu itar
Ġarbit rary
Ġcontempor aries
ĠH appy
ĠAg ent
ĠD ial
rad a
ron es
Ġident ities
) (
ĠG la
ĠSt ones
ĠSer bs
ĠLa os
ĠR im
ĠY un
Ġ12 00
Ġfilm makers
Ġdemonstr ates
Ġpromot ions
flow er
Ġatt achment
Ġfav oured
Ã¼r tt
ĠGlou cestershire
Ġinnov ations
Ġens ured
at ivity
Ġprot oc
ĠHold en
Ġintercept ions
ĠGood man
ĠInit ial
Ġp a
ĠTw ins
ĠWhe el
Ġsubscrib ers
Ġsal mon
ĠMorm on
Ã¢ n
Ġbotan ist
ĠApp alach
Ġlist ings
ĠNag ar
Ġden ounced
ĠF uk
ĠW R
Ġlicens es
Ġg lac
Ġem blem
D ef
Ġpop ularly
ĠQual ification
Ġadop ting
ĠManufact uring
âĢ ²
ĠDev i
ĠCy pri
Ġg ases
he res
Ġwars hips
Ġescort ed
ow ell
ĠMozamb ique
Ġpr one
ool s
roll er
F i
ĠW ey
Ġw ors
Ġwear s
ĠT et
Ġde af
thor pe
ĠElect ronics
Ġeval uated
Ġf ertile
Ġgener ator
Ġsyl lab
Ġcompan ions
ĠGu est
ul ator
ĠN R
Ġreg ret
ĠCros by
Ġst all
ij k
Ġmeth yl
Ġafore mentioned
ĠP ip
ĠW arn
Ġdi abetes
ĠMult iple
Ġsymp athetic
Ġrespir atory
ĠK iel
road s
Ġd os
Ġconver ting
s ing
Ġcub ic
Ġfreel ance
Ġ11 4
ĠR ous
U nder
ĠP ok
ĠEl i
Ġp ac
st aff
ĠCarm el
ĠBur lington
Ġhun ter
âĢĻ ,
Ġcard iac
Ġprocess ion
ul am
ĠStar r
ĠTh ing
Ġexam inations
x ton
ĠNorth ampton
def ined
Ġsign aling
Ġtransl ates
Ġer up
" ("
Ġ17 00
He art
und y
Ġpack aging
te xts
ĠMich a
u ce
ĠRes ort
Ġimpact ed
Ġanalys es
Ġhalf way
Ġcart ridge
Ġcl ashes
ath olic
Ġr im
Ġtoler ance
Ġhard er
Ġpres erving
Ġe ars
Ġgas oline
Ġc her
os i
met re
ĠKrak Ã³w
Ġinc arcer
ĠSter ling
ur ian
educ ational
c ultural
ĠZ hao
Ġfram ed
ĠLiving ston
h aven
Ġdecre asing
Ġmasc uline
ĠD R
Ġb atch
ĠJul iet
Ù Ĩ
Ġf ond
ĠGar rett
sp ons
Ġspecial ised
ĠBeaut y
com m
B P
ĠAnto ine
ĠH ave
Ġnetwork ing
necess ary
Ġflee ing
N I
ĠM E
ĠW emb
Ġem ission
Ġlit igation
Ġqu arry
Ġdead line
Ġheavy weight
Ġpun ct
Ġlat itude
ĠM au
Ġsuspic ious
ĠC oul
ur red
aj o
ĠH R
ĠChrist ina
st ring
Ġumb rella
Ġsen ators
Ġro wing
ĠN ue
R ev
Ġanaly zed
ĠA K
ac ious
Ġdom est
Ġh ollow
Ġpet roleum
Ġl uck
Ġhapp ening
Ġwag ons
Ġcl ip
Ġphilanthrop ist
Ġcont empl
Ġobsc ure
t ank
Ġconting ent
An g
ah r
Ġpropos es
Ø ±
Ġtel escope
ĠCann on
ĠEisenh ower
Ġ7 50
m g
Ġshar ply
Ġmed ication
Ġd Ã©
Ã¼rtt emberg
ĠGl ory
Ġtemper ate
ĠP az
clud ing
Ġfore ver
ar b
Ġastron omer
Ġpick ing
gon al
Ġassass inated
Ġhind wings
ib o
ĠSe y
ĠWe iss
ĠBet a
ĠE la
Ġpre jud
ĠS W
Ġjurisd ictions
gn osis
ĠPr as
ÅĦ sk
ĠWat ts
Ġprem ature
ĠNic ole
Ġhost age
ur rection
Ġst iff
ĠNo el
Ġdon or
ĠV ocal
ĠItal ians
Sund ay
ĠH ancock
Ġunder m
j ana
oth ic
Ġprop eller
Ġver bal
Ġenfor ced
Sax on
ter min
ĠT us
Ġwh ites
ĠDan ube
c am
Ġdisapp ointed
clud ed
Ġw eld
Ġdup l
l ich
Ġdef ences
Ġloc ks
Ġess ence
Ġvolunte ered
Ġl att
ĠSuz uki
ĠPerman ent
R adio
Ġv ag
Ġsoft ball
ĠF urn
ĠChamber lain
Ġalleg iance
ĠD il
ĠV ari
Ġrece ivers
co ach
ren cy
Ġline backer
ĠStep hens
ĠIsab el
ĠFe ature
v ik
ĠD ictionary
ĠImm igration
c ards
ĠH ogan
Ġsup pression
ĠJ aw
ia ison
Ġhtt ps
ĠCorpor ate
ĠChand ler
Ġc oh
ĠJul es
ĠA val
Ġelect rom
Ġparam eter
Ġin active
Ġbl ame
Ġat he
ĠE MI
ĠBus ch
Ġp its
ĠT ram
ĠMugh al
Ġclear ance
ie ve
Ġcros sover
Ġnomine es
ang i
id y
Ġto ys
qu i
ns ic
ĠCongreg ation
ĠS U
ull s
ĠS ens
Ġredes igned
Ġhomosexual ity
ĠPre vention
d rum
Ġsw amp
x ter
Ġun opposed
ĠAll ison
Ġcomb ust
st ud
c ane
bl ock
Ġinaug uration
Ġdenomin ations
Ġoff ence
oper ation
Ġlabor atories
ons on
ĠN othing
Ġadmin ister
ĠCarm en
ĠSh iv
Ġox ide
Ġske leton
Ĩ Ĵ
us ement
196 1
ĠC yn
op a
Ġfair y
c ars
ĠEv il
ĠLow e
Ġrang ed
Ġme als
Ġmand ated
ĠK ost
Ġswe ep
Ġcan oe
Ġshif ting
Ġs aints
Ġinterse cts
Ġch ips
Ġencoura ges
omorph ic
ĠArist ot
ĠRe formation
ĠAnim ation
ĠOff ensive
ĠPass enger
ĠCooper ation
Ġt ran
est a
Ġob solete
off ic
Ġpla gue
Ġsc al
Ġdiscover ing
ĠM illion
Ġentr ants
ĠS v
ĠE S
ĠWild cats
op hor
ta pe
W ash
ck i
ĠRic ardo
ĠProper ties
L M
ure l
Ġadm ired
K e
hen y
Ġadd iction
Ġrat ified
Ġin k
ĠPal at
ĠQual ity
ick er
Ġcatal yst
Ġrem atch
yn a
Ġequ ival
ĠD olphins
il and
ĠG ob
Ġkingdom s
Ġan kle
Ġte legraph
Ġtre ason
ĠSh ot
Ġout c
ib us
O H
ĠZÃ¼ rich
ĠF S
ĠTow ards
ĠCh ung
Ġhe ll
ans en
Ġsub stituted
ĠCons ort
ĠSe pt
ĠTreas urer
rific ation
ick ed
Ġdist ress
ĠSp ot
Ġinv alid
ys c
Ġad miral
ĠJ h
ĠGr im
ĠWell es
ĠRajas than
ĠWh y
Ġexpress es
Ġwheel chair
ĠSene gal
Ġconfron ts
Ġsegreg ation
w ife
Ġde ities
Ġrenew al
Ġimpr int
Ġarchae ology
Ġthir teenth
ĠE ly
Ġrel ies
Ġcapt ive
D el
Ġ ~
its u
Ġlog ging
S ome
ĠC ron
G R
ĠQu ad
ĠR I
10 1
ĠT ales
yn es
Ġvow els
Ġcompar ative
Ġcon cession
ĠKe ys
an ese
Ġkill ings
Ġhy mn
ĠOl ivia
Ġmut ation
Ġsh out
ĠWrit ten
ĠK es
iz za
Ġv arsity
ĠAfric ans
ĠKn ock
p ublished
ou k
Ġworld s
Ġdeb ated
ĠNick el
Ġrep r
In ter
ĠCl ose
ĠSlov enian
ĠCap t
ĠThe ology
Ġdefend ants
Ġun stable
Ġmarch ing
ĠRe venue
Ġch ocolate
ĠW et
ay as
Ġopt imal
Ġcommun es
ĠIs mail
Ġfirm ly
ĠN HS
Ġkind ergarten
ĠP oor
Ġcompos ing
ĠB aku
Ġn ic
ĠN T
orig inally
s ided
Ġele phant
worth y
Ġhe s
R ich
Ġwh or
is odes
Ġsevent y
Ġal arm
Ġhtt p
Ġtransp arent
Ġapprent ices
ĠZur ich
Ġgu ilt
Ġland ings
ĠC ic
ĠEl m
ĠKy oto
S oviet
v ous
oh a
ĠSch w
ĠBrown e
ÈĻ ti
s ar
s ol
Ġmon asteries
Ġbi ographer
Ġhel m
Ġsur plus
Ġmon astic
Ġcr ushed
Ġe man
Ġstr at
Ġinvestig ators
ĠRest aur
ĠL iang
U T
ĠH udd
ĠR ide
Ġrailroad s
Ġannounc er
ĠMet eor
Ġ11 7
Ġastron aut
iy ah
ĠOr t
Ġdis rupt
law ed
S im
Ġchief ly
ĠAl umni
ĠE uc
ĠB ia
sk ins
ĠCam pe
B road
Ġf ingers
al er
ĠCommission ers
ĠSc ulpt
n ame
Ġsub set
ĠBe e
Ġw ines
ĠBra in
Ġhered itary
ĠDe er
Ġrest ing
at ore
p ole
ĠHer oes
ĠEl vis
Ġelev ations
Ġemp ower
ĠI B
ĠHor ace
Ġlyr ical
ĠW ak
ĠTrib unal
ĠWemb ley
ĠAud io
Ġgu ides
ĠL ump
Ġcast e
orne ys
ĠVaugh an
ĠDocument ary
Ġurg ing
p as
ĠB rick
Ġf el
Ġamend ments
Ġfam ed
Ġadminist rators
ad u
Ġk ern
ony ms
American s
D ark
Y P
Ġbo iler
Ġturb ines
Ġint rig
b ably
Ġgrad ual
au ce
Ġop ener
qu el
light en
Ġ24 0
Ġres ervation
Ġdomin ate
Ġapprec iated
Ġal ert
Ġninet een
ĠBh ag
h ua
Ġnumer ical
Ġc itation
ĠBy rd
Ġutil ize
ĠJama ican
Ġf ooth
ent in
ĠH itch
ĠE sk
D em
Ġcer amic
ĠMir anda
Ġforeign ers
ĠR ear
os aur
Ġcapt ivity
ĠC aval
Ġtur ret
Ġrum ors
ĠB udget
ĠZ el
ĠMer cy
Ġp ose
ol son
angu ages
Ġdiscover ies
Ġprev ents
Ġsix teenth
L ong
Ġl ent
Ġvoc ational
Ġrepl ica
ĠCon ne
Ġcontin ually
t rick
Ġatt ested
ach a
ĠJud y
Ġalter ations
Ġundis closed
Ġst airs
ĠL ance
ĠAd vert
ĠDe part
Ġass umes
ĠTuls a
D ead
ĠHol iday
Ġarm ament
Ġc ob
ĠDar ren
ĠF ors
ys s
uff s
ĠSe ga
ĠTo o
Ġwor ried
Ġdep uties
p ike
Ġgal axy
ĠVers ion
ĠTer esa
ĠMir ror
Ġprincip ally
ĠZ ak
Ġd welling
ĠAx is
195 8
ĠN RL
V S
Ġnames ake
Ġpat ented
Ġhyd raulic
/ .
Ġmask s
Ġhe d
ĠAl lah
ĠX i
Ġconsult ation
Ġstandard ized
V B
Ġtax ation
ig raph
Ġat om
on te
ĠSchol ar
Ġsatir ical
Ġre pt
ol ini
au k
ĠX III
ĠV era
o os
ĠArt istic
É Ļ
Ġcy ber
p ical
Ġmini ature
kef eller
Ġnorth ward
Ġpost graduate
Ġcon e
ĠK uala
Is rael
ĠLig ue
Ġ179 1
Ġmort ar
ful l
Ġpharm aceutical
ĠL inn
ra ged
ĠPle asant
ra j
Ġaf raid
ĠTr uman
Î ²
ĠPro ducer
Ġex otic
od ian
Ġmark ers
Ġpost ers
Ġtele communications
ĠHe ar
Ġtu ition
Ġen velop
Ġmethod ology
b led
Ġproduct ivity
N et
un tar
e ven
Ġpol o
Ġins ult
Ġpill ars
ĠHarri et
U r
ries thood
Ar ch
Ġtro ut
Ġf ont
am inated
ĠTer race
Ġdev otion
Ġadvert ised
Ġpull ing
ĠAl s
l v
ad ors
ĠJud ith
Ġharm on
Ġdisplay ing
friend ly
g il
us ions
Ġscholars hips
ass ing
Ġspecial izes
Ġstri pes
cept ions
Ġmar rying
Ġdiss ip
ĠN ice
Ġver bs
Ġundert ake
ĠConstitu ency
Ġexc ited
Ġmonop oly
ĠLe ading
Ġmerg ing
Ġvent ures
Ġstair case
ight y
g em
Ġoverth row
ĠR aven
eth oven
Ġestablish ments
ĠGill es
Ġdiffer ing
W omen
ou m
ĠM ist
ce ans
ĠL ich
ĠHere ford
ace y
ĠWe ap
ĠNass au
ĠE ighth
Ġbrut al
ĠSte f
à ¯
V ict
zz o
il ated
ĠLo op
vol ume
Ġpack ages
1 000
ĠWik ipedia
Ġsol itary
ĠCanad ians
Ġbehavior al
ĠV ine
Ġship yard
ĠB iden
ies el
Ġel igibility
Ġatt ach
Ġjewel ry
Ù Ĭ
ra ch
Ġchem ist
ĠMon mouth
Ġexchang es
pro of
Ġdisc ourse
ĠBl ind
ĠHas an
Ġpav ilion
Ġresemb lance
à¥ į
Ġexclud ing
Ġconfisc ated
ĠBrem en
ft w
Ġ( #
st ore
Ġchap lain
Ġcoinc ided
Ġdenomin ation
und erb
Ġrac ist
B ack
Ġsepar ating
Ġfung us
ĠN Z
Ġdevast ating
Ġhapp iness
ĠT ip
ĠKilk enny
y th
Ġheir s
Ġsymp ath
Mar ie
Ġstrengthen ing
Ġcru isers
Ġcol loqu
com mit
ud ge
Ġ17 75
Ġclass ics
ĠMold ova
Ġincorpor ation
ĠCas ino
te acher
Ġsuperv isor
d eb
ĠN K
ĠCon way
ĠBru ins
Ġl ava
ĠBar row
omot ive
Ġroof s
ig u
og ne
U M
Ġover c
ĠGran ada
Ġlow land
man ship
Ġaim ing
ocr at
sy stem
Ġt unes
Ġs ink
L aw
N ow
Ġhab its
ĠM Ã¼n
ĠA in
ĠD E
ĠBorn eo
s ign
la ved
est o
ĠPav ilion
L iber
Ġin stitutes
ĠNe ither
Ġenthus iasm
Ġconsider ations
oc ence
Ġreinst ated
ĠI rene
Ã¡n chez
ific ent
plic ation
ĠBalk an
Ġneg lect
Ġdam s
ochem istry
ĠB io
Ġtreat ies
ĠS N
Ġar ter
Ġmonument al
Ġcurren ts
ĠClif ton
Ġpres cribed
Ġdram at
Ġst raw
Ġapprox imate
Ġwild erness
Ġprivile ge
um ption
Ġdeterm ines
ĠMarx ist
? ",
put er
Ġfit ting
ĠH ick
ĠLincoln shire
Ġconfirm ation
ĠS outheastern
pon se
Ġint imid
ĠJ ill
ĠWake field
ĠN ab
Ġabsor ption
til es
gest ion
Ġfoc al
E r
Ġin ch
Ġaer od
Ġment ally
L I
Ġprol ifer
Ġsc rew
Ch ar
idel berg
Ġsc rut
Ġmill ennium
ĠRoy als
ĠN ur
ay ev
p iring
Ġserv ers
ĠC ars
ĠGib bs
Ġnon etheless
Ġbra ke
ĠRoc kefeller
hold ing
Ġo ch
Ġdiss ent
195 7
ĠL lan
Ġpol ling
ĠF lint
ĠTob ago
Ġdismant led
ae a
195 9
ĠMag gie
ant as
Ġc os
ĠMon k
Ġinspe ctor
ĠEm erson
W ild
ĠBol iv
ĠHard ing
Ġport able
ĠSmith sonian
ĠRow ing
Ġvarious ly
ĠSom ali
v ic
il in
ĠAre as
or an
ĠSecret ariat
ĠHoff man
Ġunder gone
ĠSp y
Ġmid st
ĠK ram
ĠUr du
Ġorn ament
H T
ĠH oy
ĠD iss
ĠFow ler
Ġh ist
ĠM ai
Ġbal con
Ġcl o
b ath
ĠEll iot
g ars
ĠHaw th
ĠStafford shire
M ur
ox ide
ĠTal bot
n ation
ĠT omb
Ġmort gage
ĠKa iser
ĠB iblical
Ġwat ches
Ġtim eline
ĠT ina
Ġdark ness
ol er
ĠMack enzie
an us
ĠIm age
omet ry
Ġreprin ted
Ġvalid ity
Ġt rolley
Ġrest oring
Ġin duction
Ġd ip
Ġy acht
p ard
ĠP P
Ġstrike outs
Ġoff set
ĠSal am
inos aur
es ch
Ġle x
ĠW erner
tar ian
Ġprob able
Ġwhere in
Ġimag ination
ĠOp ening
ĠStat us
ĠDart mouth
Ġh ailed
D en
ĠH K
ouri er
ĠNig el
ĠE A
Ġref ined
ĠW itt
Ġex agger
ĠN guy
Ġprop he
Ġplay ground
Ġz ool
ĠIr vine
Ġretail ers
ĠSp ani
ĠE up
ĠSal on
play er
ĠObs erver
ĠS Ã¡nchez
Ġprompt ly
ĠAc ad
ĠGo als
Ġnot ices
g uitar
Ġdwell ings
ĠP D
ac ies
m ajor
ol ulu
ol la
ĠN ah
Ġreview ers
Ġobst acles
ĠGovern ance
ĠC ounter
Ġjust ified
Ġafford able
Ġreass igned
X T
ĠW ille
Ġreorgan ization
Ġbas ically
Ġdetail ing
g ia
Ġs idel
ĠAb ove
Ġcent red
EE E
ĠAz te
ftw affe
ĠWolf gang
Ġav ant
Ġearn ings
Ġbacter ial
Ġmet aphor
Ġreward ed
Lou is
UC N
ĠCrom well
ĠfaÃ§ ade
in ted
Ġim pe
Ġrad ial
Ġconclud e
Ġdr ill
cell ular
Ġconcurrent ly
es y
Ġbe ef
Ġd uck
m atch
Ġacceler ated
Ġf lesh
F R
Ġpers istent
Ġinst antly
ĠE ff
low er
ĠG ent
as im
est own
w atch
Ġtrack ed
ĠThorn ton
ĠLaure nce
Ġpress ing
Ġcr ude
ĠCl ar
Ġash ore
Ġcongreg ations
ĠBohem ia
Ġprohib ition
Ġsh oe
ĠY us
ĠTotten ham
Ġb ilingual
Ġreal ism
Ġbrand ing
ĠUA E
Ġf oul
Ġb rid
otechn ology
ĠCongress man
chen ko
ĠD Ã¡
ĠInter mediate
appropri ate
Ġintellectual s
Ġres istant
Ã« l
Ġexp ans
Ġf og
ĠChart s
W here
Ġt ense
ĠS Ã¼
B ob
ĠUr s
E v
ĠC oy
ith m
ĠAleks and
ĠO aks
ĠBlack pool
ĠCret aceous
Ġs ells
it ius
Un iversity
Ġpe asant
Ġlog istics
ĠCirc us
Ġstret ched
ĠSav oy
Ġcorrel ation
im et
ind e
ĠAn ch
Ġtouc hed
ĠM ixed
het ics
ĠA yr
ĠNor ris
Ġtrem end
Ġobserv ing
Ġwork place
Ġillust ration
Ġl av
om ac
195 6
ib les
Ġcirc ulated
hig hest
ĠS oc
ĠN iagara
Ġsu its
ĠNurs ing
Ġinc oming
ĠDoming o
ĠG iles
Ġback s
ĠL us
ĠL um
Ġwhit ish
id as
ĠSher idan
ĠP oin
H el
Ġv ass
Ġsail or
Ġs ap
od us
ĠK hor
t elling
st ick
19 18
Ġpat ches
ĠAtt ack
Ġeast ward
do ctoral
Ġpit chers
ĠBul let
M M
ĠHunting ton
D a
Ġas c
af ts
ra il
Ġp unt
ĠGr ig
Ġal k
in ates
not es
str Ã¶m
Ġrecip roc
Ġnorm s
ĠHig gins
Ġg ym
ruct ive
Ġj oke
ĠB aj
Ġpneum onia
Ġball oon
Ġextra cted
Ġresemb ling
Ġfin ances
ĠBord eaux
ĠEd mond
Ġparticip ates
Ġaccomplish ments
ĠE rd
ĠW TA
Ġske pt
ĠDipl oma
Ġspecial ists
air n
Ġliber ty
3 50
ĠL oy
edd y
ĠWild erness
ĠDiv ine
Ġtroubl ed
o za
inc ome
Ġp irates
ĠQual ifying
it imate
Ġun av
ĠN amed
ĠL atter
ĠNorth umberland
Ġte ens
De ath
Ġcoron avirus
ĠBirth day
ley s
Ġcontribut ors
f alls
ĠBeaut iful
Ġv oid
ĠRed skins
b ey
Ġsevent eenth
Ġsimpl ified
Ġsuc c
ĠT ad
Ġeval uate
ĠMer cer
Ġd uel
Ġshe ar
ĠG entle
ĠG ret
ĠRain bow
ien ne
ĠCust oms
ĠR ale
ĠSe ah
ĠTra ffic
Ġtext ure
Ġdefin itely
r ude
od ont
ĠAR IA
Ġquestion ing
ĠDeput ies
ogene ous
ĠTerrit ories
Ġd ictionary
Ġde ple
nd ra
Ġon ward
Ġske let
ĠHor izon
Ġincarn ation
Äģ r
ĠT up
ĠLaure l
ĠQu ant
ĠHind us
Ġenthusi astic
Ġpsych ologist
Ġmamm al
n or
te f
ĠHob art
im p
Ġcon ception
Ġse ize
O ver
d ependent
ĠEver ett
ĠMaj esty
dist rict
ĠRand all
Ġbag s
Ġm ound
ĠEv idence
Ã¶ l
Ġopen ings
ĠAr b
Ġderiv atives
ĠR out
ĠProvision al
Ġrestrict ion
s ens
ist ice
ĠZ ap
Ġstock s
Ġsol ving
Ġden otes
ĠM ental
p ace
Ġhe ights
Ġj ockey
Wash ington
Ġmot iv
he art
ĠBet ter
Ġl overs
Ġmed itation
ĠLes ter
ĠBerg er
as ures
Ġst ro
arian t
dire cted
Ġinflu x
ĠThe r
Ġchar ities
ĠFern Ã¡ndez
B ay
c ke
ĠAnti qu
Ġimmun ity
roscop ic
Ġwh ale
ow ay
ĠF eng
Ġbirth s
ĠCop per
ĠLif etime
ĠMartÃŃ nez
ĠAnth rop
Ġbrig ades
Ġaccess ion
ĠDom estic
ĠTor ah
Ġphr ases
ĠZ immer
Ġun used
ĠM ae
Ġsocial ism
P O
ĠInd y
ĠP ie
press ed
Ġcheck s
Ġden y
ĠSchne ider
ĠKim ber
ĠÂ «
op en
ĠT ipper
Ġrec alls
Ġboy cott
Ġbrick s
stand ard
ĠPre c
Ġcon texts
ĠMar quis
Ġintegr ate
Ġrestruct uring
ĠD ir
ĠN aj
Ġtra gic
ĠCons umer
Ġche aper
m inded
Ġmean while
wart z
Ġunf air
ĠBarb ados
C r
M ir
b ah
ĠT aking
ĠEver ton
G irl
Ġsqu ares
Ġpe pt
f o
ĠL anguages
Ã³ r
ĠHi ros
ĠSh ab
untar ily
rid ae
Ġse am
Ġ17 5
Ġair lines
ĠT ou
ĠNetwork s
ĠDream s
ĠBol lywood
Ġdesper ate
R oy
Ġshel ters
Ġoblig ed
Ġdiss atisf
Ġt ire
Ġr ats
Ġdyn am
ĠInf lu
ĠSig ma
ĠG ru
Ġdis lik
ĠCol t
ĠRace course
Ġwet lands
ĠN I
ĠRock s
Ġcann abis
ĠLauren t
ĠR iga
ĠUzbek istan
ĠX IV
Ġportra ys
Ġbra kes
Ġide ological
oul os
O ff
Ġhistor ies
Ġcass ette
ĠV ie
ĠPer haps
opot am
Ġc ables
ĠZ a
Ġi OS
Ġacqu itted
ĠCharg ers
ĠBe ethoven
Ġexam ining
Ġgl oss
ĠGovern ors
ĠAur ora
ĠT ale
ĠSiber ia
Ġb red
asc ist
het to
iv ist
Ġmilit ants
Ġbesie ged
ĠAct ive
Ġcollabor ator
ĠVolunte ers
Ġdra ins
Ġst unt
Ġsc ream
pat rick
Ġsp un
alf ord
ĠOliv ier
in ement
Ġte x
ĠAzerbai jani
ĠDe velop
Ġpay load
Ġmetall ic
Ġj ungle
ev il
ew orthy
ĠTim ber
Ġrail s
L ast
Ġfig ur
Ġpath ways
al on
ĠS we
An gel
ĠRook ie
port ion
Ġunw illing
Ġprin ces
ĠCh atham
Ġworth y
Ġs oprano
Ġw and
L uc
Ġcyl ind
ĠHus sein
N Z
ĠLaw son
Ġconst ellation
F ore
ĠHe ather
ĠLik ewise
j or
ul lah
Ġpre fect
lighten ment
ĠR M
Ġcost ly
ĠSav annah
ĠRe yes
are a
ul o
itud inal
Ġcop ied
G al
Ġn ice
eb u
ĠC ry
ul se
ĠMill ennium
Ġaccording ly
ĠLev i
Ġnut rition
ĠR iding
Ġsh ark
Ġviolin ist
Ġenter taining
Ġle aked
Ġseed ed
j as
r ights
Ġb la
Ġchromos ome
Ġgra zing
ĠLot us
bet ween
Var iety
ĠAssess ment
ĠR ise
Ġres isted
Ġinf amous
Ġimport s
ĠCommun ities
Ġunexpected ly
Ġunh appy
Ġwis dom
Ġdim inished
n om
Ġdis g
Ġfav ourable
195 5
ĠM ash
ĠN er
Ġfib ers
A ut
Ġcamp ing
Ġn ests
ĠByr ne
Ġindirect ly
Ġter rible
ĠLen in
Ġsup rem
z ier
Ġwas hed
ĠMon ster
ĠAm Ã©
ast rous
ul g
Ġobl igation
Ġpy ramid
ĠH ilton
Ġsulf ur
ĠWilm ington
Ġo mitted
ĠTre k
ĠThere after
A v
Ġmerchand ise
Ġdigit ally
ĠV ince
ĠTem per
cl ose
old t
ĠT art
ĠV ishnu
leg iate
ĠDyn amo
Ġserge ant
ject s
ĠF ate
Ġlight ning
Ġdecre ases
ĠBl o
Ġsn out
Ġwh is
F ree
Ġsac rific
ĠO val
Ġcampaign ing
umb a
Ġm ush
Ġtempor al
ib u
Ġpre view
Ġexceed ing
ĠGroup s
ĠEsp a
me ga
gra ve
Ġguerr illa
Ġlab elled
Ï ĥ
Ġanthrop ology
ĠT ouch
ĠLev y
Ġdis appro
ĠCh att
ĠRus so
Ġcon ject
19 49
ĠM BA
ĠD ing
Ġow ed
Ġhom estead
ĠPur ple
Ġru in
ĠPl atinum
oty pic
ĠKem p
ĠSar aj
A h
ĠMarse ille
Ġyellow ish
le ep
ĠS ew
Ġilleg ally
de acon
Ġacqu aint
Ġdefin itive
ĠEp ic
ĠAl to
ĠSt ring
Ġbeg innings
Ġcomment ing
ĠÅģ Ã³d
ĠW itch
ĠAl v
Ġsl ated
Ġtort ured
iqu ely
Ġentr usted
Ã¡ k
Ġp our
d ed
Ġconve x
ĠAm ph
Ġexplos ives
if iable
oon er
F our
ĠH ub
Ġprin ter
Ġsupport ive
ju ana
ĠPil ot
D ream
ĠTh Ã©
Ġcoc aine
ĠHes se
w agen
ĠEst her
ĠRw anda
Ġm ari
Ġmoder ately
ĠSign al
ĠM aw
Ġnew com
Ġ12 2
Ġpres eason
Ġsplit ting
ĠD one
onom ic
Ġhung er
ĠÃī cole
Ġtro upe
Ġgr at
ĠP ah
ĠEx position
B ul
Ġbra ce
ĠK ass
ĠSe p
vent ional
Ġun com
eg u
re viewed
Ġst ir
f ur
ild e
Ġgrand parents
Ġrid ic
gard e
ĠMilit ia
Ġab stra
ĠCom ing
ĠSt ur
Ġannex ation
Ġad s
Ġcreat ivity
ĠCob b
ĠD M
Ġtor que
ign ment
ĠHu bert
Ġdisappoint ment
ell an
ĠB ishops
st airs
V s
ĠFlow ers
b rough
Ġhost ilities
Ġcon stra
ĠDem on
p ill
ĠMcG ill
ĠBe er
ĠHe idelberg
Ġpron unciation
Ġ12 3
f air
Ġc ites
ĠJu vent
Ġoverturn ed
Ġped est
Ġerupt ion
Ġcock pit
f if
ĠH are
ĠKir by
ĠWil tshire
Ġdead ly
Ġple ased
Ġv eto
Ġdepart ing
Ġpet als
Ġsolo ist
Ġcat ast
Ġaffili ates
ĠD ome
Ġang ular
Ġconqu er
ĠT ier
Ġtom bs
D D
an j
Ġsupply ing
ĠD ut
Ġmorph ology
dire ctor
Ġsw ift
tt es
rad or
organ ized
Ġesc aping
ink a
ĠFre ud
ĠR iz
ĠL ibr
oh an
ĠSh ock
riz z
h ound
ge ois
board ing
Ġ178 3
ĠH app
Ġb ilateral
ast ing
ĠBrand enburg
ĠSt am
Ġcre m
Ġmay oral
ĠMathemat ical
Ġperiod ic
ĠPenn y
s ley
Ð ´
F rank
to o
Ġorgan ist
ĠLeon ardo
ad ar
in ely
star red
Ġrep ly
Ġmist akes
ĠP une
ĠNich ols
c ool
art ing
ĠHon olulu
ĠM ines
Ġcl ans
Ġout line
on ut
p ublic
ĠTurk men
Ġber th
ith a
ĠW ent
Ġplant ing
re ating
am el
Ġr er
ĠSc ore
ins pired
ĠEnter prises
ĠDiv isions
Ġbreath ing
Ġtut or
ight on
Ġcl ash
Ġfl ute
Ġpoison ing
ĠMed ina
Ġcon stitutes
ĠC un
ĠB is
Ġvis ibility
ĠChe t
ĠRod ney
Ġethnic ity
Ġsyn onym
in ational
ĠM olly
Ġread ings
ĠP to
Ġconvers ations
Ġdens ely
ĠÅģÃ³d Åº
uel a
Ġlik elihood
ĠWork shop
Austral ian
Ġst yled
ĠAir borne
Ġcommemor ated
Æ °
Ġf usc
ĠS ail
Ġconvinc ing
at hed
qu isition
ĠA e
ĠEmploy ment
Ġbr ush
ĠG us
ĠWolf e
ĠÎ ²
ĠMy r
Ġsuccess ors
ĠUS L
Ġelev ator
Ġp ays
Ġbre eds
ĠArch ibald
ag us
Ġc eded
eng ers
pt ions
Ð¸ Ñ
Ġdisc s
ĠG ale
ĠMcM ahon
ĠH enn
Ġrel ocation
gy z
inn y
ĠEmer itus
ik os
ĠE ck
st ars
pe c
ru ce
hyth ms
ĠLion el
ĠH T
tend er
ĠP ang
Ġeff ic
Ġmean ings
ĠSa unders
ĠCook e
Ġexerc ised
ĠP ing
ĠS SR
ĠL iam
Ġcl iffs
Ġinvestig ative
Ġvir uses
Ġapprent ice
u ins
ific ates
ĠC umm
Ġf ol
ĠDav en
Ġdistribut or
ĠâĢ ¦
Ġun popular
Ġspect acular
Ġstret ching
h it
ĠI gor
Ġexclus ion
haw ks
ĠTr uck
ĠMart y
Ġlad der
ĠMer chant
ass ium
ĠPers ia
Ġutil izing
E lect
Ġthreat ens
ĠTs ar
Ġbar red
ĠMcC artney
ĠLow ell
ĠN es
beat en
Ġsup ersed
ĠV ig
Ġun necessary
ĠWrit er
Ġpack ed
v ance
Ġorganiz ers
ĠSpr int
Ġadvance ment
Cl ass
ĠNe uro
ĠPet ro
ĠPors che
ten ham
Ġla wn
Ġgro cery
Ġdictators hip
Ġbott les
ĠO ro
and e
ĠB enny
rest le
Ġins pect
Ġrock ets
Ġscen ic
Ġrid ges
Ġset up
Ġlast s
a illes
ĠBr une
Ġexec ute
ĠH anna
ob acter
Ġplat oon
t land
ĠSt o
ĠPe ck
Ġut ter
Ġelong ated
ĠW ide
D isc
Ġcr us
Ġb og
Ġ12 1
ĠMur der
Ãº s
em outh
ast a
ind s
Ġsyn th
Ġmon t
ĠTipper ary
is ors
Ġfore most
ĠPe oples
d og
ract s
ĠChall enger
Ġb ureau
ĠPep per
ĠG ad
oven ant
nd e
Ġl one
ob o
Ġrout ing
Ġt atto
ĠFu ji
Ġfisher men
ĠSh rews
Ġto ss
å ¤
ĠW ich
ĠP hel
ĠL oth
ĠAb el
ĠFact or
Ġgymn astics
ĠSch wartz
Ġcon clusions
c ode
Ġth y
Ġpract ically
Ġprotoc ols
ĠMar i
ĠAp ache
w ere
Ġpres ently
ĠMÃ¼ ller
Ġa irst
l oe
Ġre intro
ĠSch les
ĠO ra
ĠFam ous
Ġcl ad
Ġconven ed
ĠEvel yn
ĠReg ent
ĠNapole onic
ĠComm anding
M id
Ġeduc ate
ĠPau la
j ak
ĠH umb
Ġt idal
D avid
ĠMembers hip
J e
ir al
ĠFar mer
Ġp onds
Ġout reach
ĠV og
ĠBur k
pol itical
Ġmat urity
ĠTrib e
g ets
ipp on
Ġrib bon
Ġa ft
ed in
ĠPiet ro
Ġre appe
ĠE ur
lin er
Ġvoc abulary
Ġt apes
ĠJon as
u ire
ĠBrother hood
Ġpol es
Ġval ves
ĠComple te
ĠR aff
ĠProject s
ĠAm bro
ĠUs ually
Ġw ax
ut z
Ġder ive
c up
Ġk ar
Ġmind s
Ġsem ester
ĠÃ ĺ
Ġcomp are
Ġcommit ting
ĠSunn i
und i
ĠGre co
g os
man y
Ġpolynom ial
u w
Ġk its
k W
Ġens laved
ĠLak sh
ĠRecon struction
Ġflex ibility
ĠT ot
Ġmit ochond
ĠResp ons
Ġdisc rete
ĠHy d
ĠR FC
Ġch airs
ĠHumph rey
Ġver n
ĠTradition ally
re lease
it ating
ity a
ĠWol ves
ĠC ris
ĠR ider
ure ate
de veloped
Ġper imeter
Ġz inc
R aw
Ġcloud s
Ġhorn s
ĠGu er
ĠS ina
ĠH ubb
ĠPart s
Ġcommit ments
ay o
Ġflank ed
Ġsn akes
ag raph
Ġn ost
ĠGu ill
Ġdet er
ha el
Ġmari juana
ĠPeter borough
Ġdis astrous
Ġarch ipelago
ĠGe ology
um atic
Ġp ix
ut ant
Ġconsult ed
Ġde posed
urn al
Ġst ack
as u
Ġp ound
Ġal gae
gr ims
ru z
ĠG rowth
Ġen vision
195 4
Ġtrans plant
Ġl enses
ĠP iper
Ġcustom ary
Ġrun off
y ou
ult ies
Ġpr isons
Ġar row
Ġ12 6
Ġinsign ia
ĠMar vin
Ġovers ight
Ġp H
oph yll
ĠMark s
Ġcho oses
Ġrequest ing
ĠVik tor
ĠEdu ardo
c zy
ĠCre ation
Ġflour ished
Ġ178 8
form ula
Ġsustain ability
l op
Ġrel inqu
ow ice
Ġdisturb ed
ĠAut umn
S ports
Ġred und
le ment
ph ants
Ġsk irm
Ġcreat ors
Ġintention ally
ĠClass ics
ĠScandin avian
uch a
Ġgu ild
19 48
ĠBe y
Ġborn e
ĠBr at
U A
Ġharm ful
ver e
ĠK appa
Ġwarm ing
ĠPriv y
ob iles
Ġaltern atives
Ġamount ed
Ġspawn ed
ĠK ush
Ġe ager
Ġsp iders
Ġinst ability
ĠProt ocol
B ur
Ġbe ams
ĠOs wald
ĠQ uran
ĠEug en
ie le
ĠInter active
ob s
ĠE F
ĠJ ong
Ġse af
Ġretrie ve
Ġf iling
ĠLe gends
raw l
Ġsid ew
Ġac re
ĠB P
gor od
ĠSind h
ĠRel ated
ĠDomin ion
ĠWhe at
Ġw ond
f ork
t oday
Ġar th
Ġmel odies
ans om
Ġ23 0
ched elic
ism atic
col legiate
Ġmur als
ĠZh ong
ig ue
19 14
ĠCD s
Ġd ull
ĠRh in
G en
er ion
Ġst ole
Ġair borne
Ġappro ve
Ġca us
ĠI ch
ĠNe ville
Can ada
Ġam mon
ĠRoman esque
Ġdign ity
ĠMay er
Ġdon ors
an ol
ĠL ore
ost a
Ġcl ips
Ġ17 70
Ġqualif ier
ĠY es
ĠT ick
ĠL ights
Ġbapt ism
ĠToul ouse
Ġyield ed
ĠTe a
Ġneg atively
Ġg lacier
Ġnar rated
ĠCh iang
Ġsed iments
Ġmagist rate
et or
ts ky
Ġunf inished
ĠR in
Ġris en
ĠPro secut
ĠAll music
Ġun lock
Ġmed ley
ĠAnd es
i Å¡
ĠShrews bury
ĠNeigh bor
min ent
Ġbusiness men
ĠDayton a
ĠH ouses
Ġabsol utely
Ġrel ics
ĠPa olo
Ġair play
Ġshare holder
Ġm ould
Ġbl own
ign on
V R
Ġbuild s
Ġhur ling
C ast
ĠN ish
ĠC rafts
Ġbas eman
Ġpul mon
Ġinc ap
ĠP f
ĠNic ola
Ġmilit ant
ĠNathan iel
ond iss
ĠLor raine
Ġrefurb ished
Ġass ured
Ġp riesthood
Ġreview ing
ĠFund ing
ĠInc umbent
Ġkidn apping
ĠB ridges
ine e
Ġinv asive
Ġinte ger
ĠDal ton
ĠU TC
Ġevery where
Ġsamp ling
Ġpropri etary
Ġsurviv or
ĠDim it
ok s
ĠTy pes
Ġalcoh olic
ĠLu igi
ĠCharl ton
Ġclin ics
195 3
Ġhero ic
j et
ĠN J
be h
ide a
w ang
Ġun se
lu x
ĠN om
Ġim pl
ĠG E
p ack
Ġrevol ves
chay at
Ġbi om
19 46
M ah
Ġpro be
f its
im us
). "
ĠFI A
ĠO la
sp oken
load ing
Ġa ide
it ious
ĠHistor ian
ĠT usc
Ġsur ge
Ġneg lected
ĠGi ul
Ġintens ified
Ġ50 1
Ind ia
or iginal
Ġsele ctions
Ġsuff ers
ĠMand arin
ĠS ik
á Ģ
Ù Ī
Ġmed all
Ġgrad ient
ĠStrateg y
Ġrem ed
Ġsurf aced
ĠBre nd
est ro
Ġpet rol
c en
ip ment
Ġf umble
ĠM itch
ou lt
c il
aw ar
Ġt ones
Ġair plane
ric o
Ġd amp
ĠSeg unda
ĠR uther
ĠBel mont
ĠBudd y
Ġpreval ence
ĠC reat
ign y
ĠOld ham
ĠKyr gyz
Ġshut tle
ĠW ords
ores cence
ĠW ise
emet eries
we i
iv orous
as co
id ium
Ġas ymmet
ore g
che on
ĠJ ourney
Ġtorped oes
Ġbotan ical
ĠPied mont
ĠSal zburg
Ġmoist ure
ĠO y
ĠRut gers
Ġn ull
ĠD ed
ĠE instein
Ġengra ved
r iver
C ons
uc es
ĠMcL aren
Ġcirc us
ĠSt rip
Ital ian
St ars
Ġhard core
ĠBab a
Ġcomp ress
Ġbro ker
m or
ĠC ir
19 41
Ġcombust ion
ĠC age
ĠOs borne
. ".
ĠI on
act ers
qu ito
Ġcrit ique
Ġproc ure
ĠPurd ue
ec a
Ġar ising
Ġbest owed
ĠP K
Ġsh ade
ign e
ĠWy att
ĠS ino
ĠMechan ical
Ġd ividing
Ġsp anned
Ġmist ress
ĠB acon
ĠMartine z
ron ym
ĠMal ik
Ġn in
ĠPh antom
ĠWater ford
Ġwarn ings
Ġexpl oded
Ġri ff
Ġsc rub
ie c
ĠSaraj evo
an ey
Ġl umin
Ġ2 10
Ġfl ats
ĠGuerr ero
Ġengine ered
ĠFort une
ĠD ug
ĠFor ward
ĠHol l
Ġimp ose
ĠMcC l
Ġbarrel s
Ġd oses
Ġsteam er
oc ating
ĠSchwar z
ĠDou bles
Ġcapital ism
Ġaggress ion
el man
ĠP ig
Ġup right
ĠSh arma
ĠSp it
ĠPas o
a q
ĠP ush
rad es
ĠCh ick
V E
Ġprem ise
ie ft
ĠB B
á» ĩ
ĠK ip
ĠWil kinson
Ġle ver
Ġpul se
Ġfacilit ated
un ner
hy d
che v
ĠKh al
Î º
Ġlif ting
ĠEm ir
Ġm i
ĠCur ling
Ġconsolid ation
ĠJ ude
Ġqualif iers
Ġt ally
all o
ach im
Ġrecogn izing
Ġse ab
ĠAt ari
Ġg rie
ĠK S
on er
Ġsuppl ier
ĠL up
Ġorn amental
Ġten ant
ĠA ry
ĠH ole
Ġenj oys
ĠR E
m ia
ye ong
ĠC Ã³
Enter tainment
Ġs am
ĠExper ience
ĠArchae ology
Ġl oot
ce nds
ĠK iev
ĠK av
ĠV est
ĠBra ck
ie ves
Ġle an
ang s
ĠLiber ia
aret te
est inal
Ġmet aph
Ġimm ense
Ġlandmark s
Ġd ot
; "|
ĠUlt ra
Ġweight ed
ĠHealth care
Ġmelod ic
ĠP ug
ĠBre ton
Ġcat cher
ĠNatal ie
ret to
Ġn Ã©e
oll s
Ġm asonry
B at
Ġthorough ly
Ġcommission ers
land er
ĠBax ter
Ġ12 7
ĠMac c
Ġerup ted
Ch ina
Ġprest ige
are th
ĠCo aches
Ġhydro electric
ĠG ow
G reek
ĠSi em
n m
Ġgener ous
Ġexha usted
Emp ire
ier a
ĠIv ory
Ġfrust rated
Ġo mn
op ened
Ġload s
Ġdis pro
Ġexp ulsion
Ġdr illing
un ate
Ġaff inity
Ġcompar isons
ann ers
Ġdeterm in
ĠW o
Ġcryst als
Ġad orn
B us
ĠY az
ĠSh arks
m ount
z hen
fund ed
ĠAk h
ĠBar c
Un ivers
Ġcontract ors
Ġb od
[...]
