{"!": 0, "\"": 1, "#": 2, "$": 3, "%": 4, "&": 5, "'": 6, "(": 7, ")": 8, "*": 9, "+": 10, ",": 11, "-": 12, ".": 13, "/": 14, "0": 15, "1": 16, "2": 17, "3": 18, "4": 19, "5": 20, "6": 21, "7": 22, "8": 23, "9": 24, ":": 25, ";": 26, "<": 27, "=": 28, ">": 29, "?": 30, "@": 31, "A": 32, "B": 33, "C": 34, "D": 35, "E": 36, "F": 37, "G": 38, "H": 39, "I": 40, "J": 41, "K": 42, "L": 43, "M": 44, "N": 45, "O": 46, "P": 47, "Q": 48, "R": 49, "S": 50, "T": 51, "U": 52, "V": 53, "W": 54, "X": 55, "Y": 56, "Z": 57, "[": 58, "\\": 59, "]": 60, "^": 61, "_": 62, "`": 63, "a": 64, "b": 65, "c": 66, "d": 67, "e": 68, "f": 69, "g": 70, "h": 71, "i": 72, "j": 73, "k": 74, "l": 75, "m": 76, "n": 77, "o": 78, "p": 79, "q": 80, "r": 81, "s": 82, "t": 83, "u": 84, "v": 85, "w": 86, "x": 87, "y": 88, "z": 89, "{": 90, "|": 91, "}": 92, "~": 93, "\u00a1": 94, "\u00a2": 95, "\u00a3": 96, "\u00a4": 97, "\u00a5": 98, "\u00a6": 99, "\u00a7": 100, "\u00a8": 101, "\u00a9": 102, "\u00aa": 103, "\u00ab": 104, "\u00ac": 105, "\u00ae": 106, "\u00af": 107, "\u00b0": 108, "\u00b1": 109, "\u00b2": 110, "\u00b3": 111, "\u00b4": 112, "\u00b5": 113, "\u00b6": 114, "\u00b7": 115, "\u00b8": 116, "\u00b9": 117, "\u00ba": 118, "\u00bb": 119, "\u00bc": 120, "\u00bd": 121, "\u00be": 122, "\u00bf": 123, "\u00c0": 124, "\u00c1": 125, "\u00c2": 126, "\u00c3": 127, "\u00c4": 128, "\u00c5": 129, "\u00c6": 130, "\u00c7": 131, "\u00c8": 132, "\u00c9": 133, "\u00ca": 134, "\u00cb": 135, "\u00cc": 136, "\u00cd": 137, "\u00ce": 138, "\u00cf": 139, "\u00d0": 140, "\u00d1": 141, "\u00d2": 142, "\u00d3": 143, "\u00d4": 144, "\u00d5": 145, "\u00d6": 146, "\u00d7": 147, "\u00d8": 148, "\u00d9": 149, "\u00da": 150, "\u00db": 151, "\u00dc": 152, "\u00dd": 153, "\u00de": 154, "\u00df": 155, "\u00e0": 156, "\u00e1": 157, "\u00e2": 158, "\u00e3": 159, "\u00e4": 160, "\u00e5": 161, "\u00e6": 162, "\u00e7": 163, "\u00e8": 164, "\u00e9": 165, "\u00ea": 166, "\u00eb": 167, "\u00ec": 168, "\u00ed": 169, "\u00ee": 170, "\u00ef": 171, "\u00f0": 172, "\u00f1": 173, "\u00f2": 174, "\u00f3": 175, "\u00f4": 176, "\u00f5": 177, "\u00f6": 178, "\u00f7": 179, "\u00f8": 180, "\u00f9": 181, "\u00fa": 182, "\u00fb": 183, "\u00fc": 184, "\u00fd": 185, "\u00fe": 186, "\u00ff": 187, "\u0100": 188, "\u0101": 189, "\u0102": 190, "\u0103": 191, "\u0104": 192, "\u0105": 193, "\u0106": 194, "\u0107": 195, "\u0108": 196, "\u0109": 197, "\u010a": 198, "\u010b": 199, "\u010c": 200, "\u010d": 201, "\u010e": 202, "\u010f": 203, "\u0110": 204, "\u0111": 205, "\u0112": 206, "\u0113": 207, "\u0114": 208, "\u0115": 209, "\u0116": 210, "\u0117": 211, "\u0118": 212, "\u0119": 213, "\u011a": 214, "\u011b": 215, "\u011c": 216, "\u011d": 217, "\u011e": 218, "\u011f": 219, "\u0120": 220, "\u0121": 221, "\u0122": 222, "\u0123": 223, "\u0124": 224, "\u0125": 225, "\u0126": 226, "\u0127": 227, "\u0128": 228, "\u0129": 229, "\u012a": 230, "\u012b": 231, "\u012c": 232, "\u012d": 233, "\u012e": 234, "\u012f": 235, "\u0130": 236, "\u0131": 237, "\u0132": 238, "\u0133": 239, "\u0134": 240, "\u0135": 241, "\u0136": 242, "\u0137": 243, "\u0138": 244, "\u0139": 245, "\u013a": 246, "\u013b": 247, "\u013c": 248, "\u013d": 249, "\u013e": 250, "\u013f": 251, "\u0140": 252, "\u0141": 253, "\u0142": 254, "\u0143": 255, "\u0120t": 256, "he": 257, "\u0120a": 258, "in": 259, "er": 260, "\u0120the": 261, "on": 262, "re": 263, "\u0120o": 264, "ed": 265, "nd": 266, "\u0120s": 267, "\u0120w": 268, "at": 269, "or": 270, "is": 271, "en": 272, "it": 273, "an": 274, "ar": 275, "al": 276, "\u0120in": 277, "\u0120of": 278, "es": 279, "\u0120c": 280, "\u0120f": 281, "\u0120b": 282, "as": 283, "\u0120p": 284, "\u0120and": 285, "ing": 286, "ic": 287, "ro": 288, "ion": 289, "\u0120to": 290, "\u0120m": 291, "le": 292, "\u0120d": 293, "\u0120h": 294, "\u0120T": 295, "ou": 296, "\u0120S": 297, "\u0120A": 298, "il": 299, "ent": 300, "\u0120C": 301, "\u01201": 302, "\u0120re": 303, "am": 304, "st": 305, "om": 306, "el": 307, "\u0120\u010a": 308, "ol": 309, "\u0120M": 310, "\u0120l": 311, "ct": 312, "\u0120was": 313, "ad": 314, "\u0120I": 315, "\u0120e": 316, "\u0120n": 317, "\u0120th": 318, "\u0120B": 319, "ur": 320, "\u0120The": 321, "\u0120\"": 322, "\u0120H": 323, "iv": 324, "ch": 325, "et": 326, "\u0120on": 327, "\u0120for": 328, "ation": 329, "\u0120P": 330, "\u01202": 331, "ly": 332, "\u0120is": 333, "id": 334, "ce": 335, "ir": 336, "ig": 337, "im": 338, "ot": 339, "us": 340, "\u0120g": 341, "ut": 342, "\u0120as": 343, "la": 344, "ter": 345, "ra": 346, "ith": 347, "ow": 348, "\u0120be": 349, "\u0120R": 350, "\u0120D": 351, "\u012019": 352, "ers": 353, "\u0120st": 354, "\u0120he": 355, "\u0120(": 356, "\u0120F": 357, "\u0120with": 358, "un": 359, "em": 360, "\u0120L": 361, "\u012020": 362, "ist": 363, "\u0120G": 364, "\u0120N": 365, "\u0120by": 366, "\u0120W": 367, "ul": 368, "th": 369, "ver": 370, "\u0120at": 371, "\u0120al": 372, "\u0120wh": 373, "'s": 374, "\u0120E": 375, "rom": 376, "\u0120an": 377, "os": 378, "\u0120J": 379, "ay": 380, "\u0120con": 381, "her": 382, "um": 383, "ge": 384, "\u0120that": 385, "\u0120In": 386, "ri": 387, "est": 388, "\u0120O": 389, "\u0120from": 390, "\u0120de": 391, "op": 392, "\u0120se": 393, "oc": 394, "\u0120pro": 395, "\u0120v": 396, "\u0120com": 397, "ain": 398, "\u0120it": 399, "pe": 400, "ity": 401, "if": 402, "od": 403, "ac": 404, "and": 405, "ber": 406, "art": 407, "res": 408, "ate": 409, "av": 410, "ies": 411, "up": 412, "\u0120his": 413, "ud": 414, "\u0120K": 415, "\u0120U": 416, "ort": 417, "ab": 418, "ew": 419, "all": 420, "ian": 421, "ard": 422, "\u0120or": 423, "se": 424, "ich": 425, "ore": 426, "ated": 427, "ld": 428, "ub": 429, "ia": 430, "igh": 431, "ak": 432, "qu": 433, "ill": 434, "\u0120are": 435, "ere": 436, "ip": 437, "ess": 438, "\u0120r": 439, "ag": 440, "ant": 441, "\u0120201": 442, "ment": 443, "\u0120St": 444, "ive": 445, "\u00e2\u0122": 446, "\u0120ch": 447, "\u0120ex": 448, "ov": 449, "ary": 450, "\u0120were": 451, "ap": 452, "ug": 453, "ong": 454, "ial": 455, "\u0120He": 456, "und": 457, "oun": 458, "our": 459, "ear": 460, "ame": 461, "\u0120Ch": 462, "ast": 463, "\u0120which": 464, "ction": 465, "\u0120le": 466, "red": 467, "ell": 468, "ine": 469, "ust": 470, "og": 471, "ost": 472, "so": 473, "uc": 474, "00": 475, "ish": 476, "\u0120V": 477, "ord": 478, "\u0120y": 479, "ical": 480, "te": 481, "\u0120sh": 482, "ther": 483, "\u0120comp": 484, "ork": 485, "\u0120pla": 486, "ts": 487, "mer": 488, "cl": 489, "ran": 490, "\u0120had": 491, "\u0120200": 492, "ue": 493, "irst": 494, "\u0120also": 495, "pt": 496, "\u0120un": 497, "ie": 498, "ition": 499, "\u0120has": 500, "ure": 501, "\u0120k": 502, "ous": 503, "\u0120It": 504, "ff": 505, "\u0120not": 506, "\u0120first": 507, "ign": 508, "fter": 509, "amp": 510, "\u0120whe": 511, "\u00e2\u0122\u0135": 512, "\u012018": 513, "erv": 514, "ric": 515, "ry": 516, "ok": 517, "ave": 518, "per": 519, "port": 520, "iz": 521, "\u0120te": 522, "ome": 523, "\u0120Un": 524, "\u0120ar": 525, "ire": 526, "rit": 527, "ass": 528, "ight": 529, "ide": 530, "own": 531, "\u0120cont": 532, "\u0120us": 533, "hed": 534, "are": 535, "ond": 536, "\",": 537, "\u0120ro": 538, "ater": 539, "wo": 540, "\u0120their": 541, "\u0120ad": 542, "\u0120its": 543, "\u0120part": 544, "\u0120Th": 545, "ice": 546, "man": 547, "\u0120ap": 548, "ory": 549, "\u0120who": 550, "\u0120res": 551, "ree": 552, "ect": 553, "ations": 554, "\u0120her": 555, "\u0120cl": 556, "ount": 557, "ational": 558, "age": 559, "clud": 560, "),": 561, "\u0120but": 562, "\u0120year": 563, "ack": 564, "\u0120Re": 565, "\u01203": 566, "ime": 567, "to": 568, "\u0120play": 569, "ang": 570, "low": 571, "\u0120j": 572, "ach": 573, "ence": 574, "ens": 575, "\u0120one": 576, "ound": 577, "cc": 578, "land": 579, "\".": 580, "ult": 581, "\u0120ab": 582, "ould": 583, "ib": 584, "out": 585, "orn": 586, "ugh": 587, "ions": 588, "ren": 589, "fer": 590, "ally": 591, "\u0120Al": 592, "over": 593, "ru": 594, "\u0120ag": 595, ").": 596, "\u0120have": 597, "\u0120per": 598, "\u0120includ": 599, "\u0120bec": 600, "\u0120two": 601, "wn": 602, "tern": 603, "\u0120rec": 604, "ember": 605, "uring": 606, "\u0120Y": 607, "ph": 608, "\u0120this": 609, "ool": 610, "ark": 611, "\u0120man": 612, "ade": 613, "ates": 614, "\u0120been": 615, "ke": 616, "oin": 617, "ile": 618, "ubl": 619, "ild": 620, "\u0120work": 621, "\u0120Se": 622, "ces": 623, "\u0120De": 624, "\u0120On": 625, "for": 626, "\u0120199": 627, "\u0120other": 628, "ck": 629, "ased": 630, "old": 631, "\u0120sc": 632, "ied": 633, "vel": 634, "\u0120after": 635, "\u0120en": 636, "ited": 637, "\u0120comm": 638, "act": 639, "ents": 640, "we": 641, "\u0120dis": 642, "ely": 643, "uch": 644, "ors": 645, "gh": 646, "\u0120Ar": 647, "urn": 648, "\u0120im": 649, "les": 650, "ted": 651, "ite": 652, "\u0120As": 653, "aw": 654, "hip": 655, "\u0120sp": 656, "chool": 657, "\u0120up": 658, "\u0120out": 659, "\u0120des": 660, "\u0120over": 661, "\u0120Mar": 662, "one": 663, "\u0120she": 664, "ons": 665, "ivers": 666, "ced": 667, "able": 668, "ress": 669, "\u0120ne": 670, "ward": 671, "\u0120spe": 672, "iss": 673, "ail": 674, "\u0120Le": 675, "\u0120they": 676, "oy": 677, "ind": 678, "\u0120off": 679, "ase": 680, "\u0120serv": 681, "gan": 682, "\u0120ra": 683, "\u01204": 684, "ath": 685, "\u0120new": 686, "ose": 687, "\u0120loc": 688, "\u0120An": 689, "\u0120into": 690, "ance": 691, "\u0120ev": 692, "\u0120und": 693, "inal": 694, "\u0120all": 695, "ings": 696, "ough": 697, "\u0120pre": 698, "\u0120Com": 699, "pl": 700, "\u0120New": 701, "cted": 702, "ob": 703, "\u0120tra": 704, "\u0120form": 705, "outh": 706, "\u0120time": 707, "ood": 708, "\u0120gro": 709, "\u0120ele": 710, "ican": 711, "rough": 712, "\u0120198": 713, "\u0120can": 714, "ilm": 715, "\u0120under": 716, "ason": 717, "\u0120sec": 718, "\u0120col": 719, "rib": 720, "io": 721, "\u0120kn": 722, "ished": 723, "du": 724, "ily": 725, "\u01205": 726, "way": 727, "\u0120him": 728, "\u0120bu": 729, "\u0120bet": 730, "ious": 731, "\u0120reg": 732, "ne": 733, "\u0120pl": 734, "ft": 735, "orld": 736, "oth": 737, "ram": 738, "ollow": 739, "19": 740, "\u0120would": 741, "\u0120when": 742, "ton": 743, "\u0120years": 744, "\u0120more": 745, "ics": 746, "ral": 747, "\u0120Amer": 748, "\u0120where": 749, "ans": 750, "ake": 751, "\u0120publ": 752, "orth": 753, "ife": 754, "\u0120team": 755, "\u0120again": 756, "ual": 757, "\u0120cons": 758, "ween": 759, "\u0120197": 760, "ince": 761, "\u0120stud": 762, "cess": 763, "arly": 764, "rad": 765, "\u0120En": 766, "\u0120ret": 767, "\u0120during": 768, "\u0120rep": 769, "ick": 770, "form": 771, "\u0120ind": 772, "ener": 773, "olog": 774, "ident": 775, "ve": 776, "\u0120cent": 777, "\u0120op": 778, "\u0120This": 779, "ook": 780, "\u0120pr": 781, "\u0120She": 782, "duc": 783, "ating": 784, "\u0120sub": 785, "\u0120me": 786, "\u0120sup": 787, "ision": 788, "The": 789, "\u0120we": 790, "\u0120act": 791, "rans": 792, "\u0120only": 793, "\u0120found": 794, "ative": 795, "\u0120pol": 796, "iversity": 797, "\u0120pe": 798, "oh": 799, "\u01206": 800, "\u0120film": 801, "\u0120most": 802, "\u0120ass": 803, "\u0120between": 804, "\u0120inter": 805, "\u0120fam": 806, "ix": 807, "use": 808, "\u0120rele": 809, "ron": 810, "ered": 811, "\u0120qu": 812, "che": 813, "\u0120att": 814, "20": 815, "\u0120Sh": 816, "\u00c2\u0142": 817, "\u0120three": 818, "\u0120acc": 819, "overn": 820, "cial": 821, "\u0120app": 822, "ities": 823, "ouse": 824, "ins": 825, "ict": 826, "\u0120made": 827, "fore": 828, "ah": 829, "\u0120follow": 830, "\u0120through": 831, "\u0120196": 832, "\u0120fe": 833, "\u0120co": 834, "any": 835, "\u0120there": 836, "end": 837, "\u0120rem": 838, "\u0120later": 839, "iel": 840, "\u0120season": 841, ".\"": 842, "\u0120pres": 843, "\u0120sy": 844, "als": 845, "pr": 846, "\u0120then": 847, "\u0120Ind": 848, "\u0120them": 849, "aj": 850, "ank": 851, "ock": 852, "\u0120Col": 853, "\u0120rel": 854, "\u0120used": 855, "\u0120num": 856, "\u0120Pro": 857, "ars": 858, "ived": 859, "\u0120mov": 860, "ific": 861, "\u0120dist": 862, "\u0120pop": 863, "\u0120end": 864, "round": 865, "\u0120about": 866, "\u0120second": 867, "\u0120such": 868, "\u0120became": 869, "oot": 870, "\u0120United": 871, "ace": 872, "ik": 873, "reat": 874, "oci": 875, "ames": 876, "\u0120so": 877, "ball": 878, "ann": 879, "\u0120known": 880, "ten": 881, "emb": 882, "\u0120University": 883, "\u0120school": 884, "\u0120Z": 885, "\u0120American": 886, "\u0120ac": 887, "air": 888, "velop": 889, "az": 890, "\u0120inv": 891, "inn": 892, "\u0120some": 893, "\u0120than": 894, "ular": 895, "\u0120def": 896, "\u0120prov": 897, "arg": 898, "\u0120inc": 899, "ier": 900, "\u0120ent": 901, "ury": 902, "ale": 903, "\u0120Con": 904, "\u0120194": 905, "ober": 906, "\u0120At": 907, "ever": 908, "ject": 909, "\u0120am": 910, "\u0120dec": 911, "att": 912, "led": 913, "ople": 914, "\u01207": 915, "\u0120being": 916, "hen": 917, "\u0120four": 918, "\u0120well": 919, "erm": 920, "ines": 921, "pos": 922, "\u0120trans": 923, "\u0120record": 924, "usic": 925, "\u0120call": 926, "\u0120ed": 927, "til": 928, "eries": 929, "\u0120including": 930, "ement": 931, "\u0120pos": 932, "arl": 933, "ional": 934, "ather": 935, "\u0120After": 936, "\u0120set": 937, "bum": 938, "son": 939, "\u00c3\u00a9": 940, "\u0120art": 941, "une": 942, "\u012017": 943, "istory": 944, "rict": 945, "\u0120against": 946, "ros": 947, "ield": 948, "\u0120appe": 949, "\u0120195": 950, "iver": 951, "\u0120dire": 952, "ley": 953, "\u0120Eng": 954, "\u0120Sc": 955, "\u0120do": 956, "ctor": 957, "ash": 958, "\u0120lead": 959, "arri": 960, "very": 961, "areer": 962, "ep": 963, "iew": 964, "other": 965, "\u0120before": 966, "\u0120rece": 967, "owever": 968, "iam": 969, "\u0120sing": 970, "ures": 971, "tain": 972, "its": 973, "\u01208": 974, "\u0120For": 975, "ys": 976, "ists": 977, "\u0120many": 978, "\u0120while": 979, "\u0120add": 980, "\u0120cre": 981, "\u0120count": 982, "ina": 983, "eb": 984, "ters": 985, "ired": 986, "ism": 987, "\u0120May": 988, "\u0120album": 989, "\u0120sign": 990, "\u0120Joh": 991, "000": 992, "ty": 993, "ern": 994, "\u0120ph": 995, "\u0120may": 996, "\u0120est": 997, "\u0120sur": 998, "\u0120med": 999, "\u0120until": 1000, "\u0120group": 1001, "urch": 1002, "ike": 1003, "der": 1004, "\u0120develop": 1005, "ague": 1006, "stit": 1007, "\u0120own": 1008, "overnment": 1009, "stem": 1010, "raph": 1011, "ural": 1012, "\u0120Comm": 1013, "arn": 1014, "\u0120main": 1015, "cy": 1016, "ise": 1017, "\u0120bro": 1018, "\u0120Jan": 1019, "erman": 1020, "\u0120family": 1021, "\u0120both": 1022, "\u0120writ": 1023, "\u0120Is": 1024, "enn": 1025, "\u0120high": 1026, "erson": 1027, "ute": 1028, "illa": 1029, "ower": 1030, "\u0120people": 1031, "\u0120oper": 1032, "\u0120played": 1033, "ized": 1034, "\u012010": 1035, "\u0120cap": 1036, "\u0120show": 1037, "\u01209": 1038, "\u0120number": 1039, "\u0120spec": 1040, "\u0120Cl": 1041, "\u0120Be": 1042, "amed": 1043, "\u0120Te": 1044, "\u0120fin": 1045, "\u0120Fran": 1046, "\u0120em": 1047, "\u0120World": 1048, "ll": 1049, "ven": 1050, "\u0120mod": 1051, "ution": 1052, "ting": 1053, "aid": 1054, "\u0120States": 1055, "\u0120name": 1056, "\u0120sever": 1057, "elf": 1058, "\u0120go": 1059, "ved": 1060, "\u0120Q": 1061, "\u0120no": 1062, "\u0120John": 1063, "\u0120orig": 1064, "\u0120National": 1065, "\u0120Ju": 1066, "\u012015": 1067, "\u0120met": 1068, "\u0120released": 1069, "\u0120mon": 1070, "\u012016": 1071, "\u0120day": 1072, "tend": 1073, "\u0120build": 1074, "ek": 1075, "ulation": 1076, "uss": 1077, "uro": 1078, "\u0120song": 1079, "ctions": 1080, "\u0120area": 1081, "\u0120193": 1082, "sh": 1083, "\u0120start": 1084, "\u0120\u00e2\u0122\u0135": 1085, "\u0120dif": 1086, "\u0120Aust": 1087, "\u0120min": 1088, "\u0120won": 1089, "\u0120exp": 1090, "\u0120life": 1091, "uary": 1092, "ugust": 1093, "ird": 1094, "\u0120mat": 1095, "\u0120fl": 1096, "\u0120series": 1097, "\u0120gener": 1098, "\u0120char": 1099, "ually": 1100, "\u0120offic": 1101, "\u0120Nov": 1102, "\u0120Ad": 1103, "\u0120sm": 1104, "ister": 1105, "\u0120design": 1106, "\u0120back": 1107, "ternational": 1108, "\u0120ann": 1109, "ives": 1110, "gram": 1111, "\u0120Ph": 1112, "con": 1113, "ract": 1114, "ptember": 1115, "\u0120Brit": 1116, "\u0120August": 1117, "\u0120comple": 1118, "\u0120called": 1119, "\u0120Sp": 1120, "\u0120var": 1121, "fess": 1122, "ful": 1123, "\u0120German": 1124, "ctober": 1125, "the": 1126, "\u0120September": 1127, "\u0120War": 1128, "\u0120several": 1129, "\u0120long": 1130, "\u0120Count": 1131, "\u0120March": 1132, "\u0120system": 1133, "ause": 1134, "\u0120career": 1135, "\u0120open": 1136, "\u0120run": 1137, "ple": 1138, "\u0120same": 1139, "\u0120School": 1140, "\u0120return": 1141, "\u0120following": 1142, "ues": 1143, "\u0120His": 1144, "cept": 1145, "\u0120suc": 1146, "\u0120public": 1147, "ey": 1148, "\u0120Wh": 1149, "ograph": 1150, "\u0120South": 1151, "\u0120feat": 1152, "\u0120ob": 1153, "\u0120June": 1154, "imes": 1155, "\u0120early": 1156, "\u0120will": 1157, "\u0120contin": 1158, "ajor": 1159, "\u0120January": 1160, "\u0120state": 1161, "\u0120Can": 1162, "\u0120October": 1163, "ax": 1164, "my": 1165, "ission": 1166, "eng": 1167, "\u0120city": 1168, "\u0120Ge": 1169, "xt": 1170, "ai": 1171, "\u0120July": 1172, "\u0120music": 1173, "rid": 1174, "\u0120produ": 1175, "por": 1176, "\u0120aut": 1177, "\u0120organ": 1178, "\u0120int": 1179, "ital": 1180, "\u0120colle": 1181, "pril": 1182, "ior": 1183, "els": 1184, "aking": 1185, "rop": 1186, "mber": 1187, "ull": 1188, "abl": 1189, "\u0120began": 1190, "\u0120They": 1191, "icip": 1192, "\u0120these": 1193, "ampions": 1194, "ets": 1195, "duced": 1196, "\u012012": 1197, "ootball": 1198, "ants": 1199, "stru": 1200, "ised": 1201, "\u0120former": 1202, "ology": 1203, "omen": 1204, "arm": 1205, "\u0120use": 1206, "ilt": 1207, "ross": 1208, "iving": 1209, "\u0120April": 1210, "ided": 1211, "ured": 1212, "ued": 1213, "rand": 1214, "by": 1215, "\u0120game": 1216, "\u0120bel": 1217, "vent": 1218, "\u0120since": 1219, "ped": 1220, "\u0120child": 1221, "ene": 1222, "ments": 1223, "cember": 1224, "iet": 1225, "ium": 1226, "\u0120near": 1227, "\u0120November": 1228, "\u0120town": 1229, "\u0120government": 1230, "ible": 1231, "\u0120cur": 1232, "\u0120join": 1233, "\u0120York": 1234, "ient": 1235, "ility": 1236, "\u0120any": 1237, "ared": 1238, "\u0120Euro": 1239, "resent": 1240, "\u0120remain": 1241, "rist": 1242, "ined": 1243, "\u0120Cent": 1244, "ange": 1245, "\u0120December": 1246, "\u0120Or": 1247, "\u0120There": 1248, "\u0120head": 1249, "\u0120prom": 1250, "\u0120Me": 1251, "rent": 1252, "\u0120inf": 1253, "\u0120support": 1254, "part": 1255, "\u0120eff": 1256, "\u0120located": 1257, "\u0120commun": 1258, "18": 1259, "\u0120compet": 1260, "\u0120land": 1261, "\u0120air": 1262, "\u0120along": 1263, "\u0120held": 1264, "ink": 1265, "ically": 1266, "oard": 1267, "\u0120bl": 1268, "embers": 1269, "\u0120place": 1270, "\u0120did": 1271, "wards": 1272, "\u0120'": 1273, "\u0120program": 1274, "au": 1275, "arch": 1276, "\u0120book": 1277, "ales": 1278, "oman": 1279, "\u0120pass": 1280, "\u0120villa": 1281, "ris": 1282, "\u0120North": 1283, "min": 1284, "\u0120occ": 1285, "ret": 1286, "\u0120took": 1287, "\u0120club": 1288, "\u0120each": 1289, "lay": 1290, "\u0120Pol": 1291, "\u0120small": 1292, "pend": 1293, "\u0120All": 1294, "\u0120local": 1295, "\u0120Ass": 1296, "\u0120tit": 1297, "\u0120poin": 1298, "\u0120population": 1299, "\u0120named": 1300, "\u0120desc": 1301, "\u0120dr": 1302, "ebru": 1303, "\u0120polit": 1304, "ebruary": 1305, "\u0120disc": 1306, "\u0120Austral": 1307, "\u0120&": 1308, "\u00e2\u0122\u013b": 1309, "\u0120differ": 1310, "ec": 1311, "ox": 1312, "\u0120sim": 1313, "\u0120member": 1314, "\u0120gu": 1315, "\u0120band": 1316, "ica": 1317, "\u0120served": 1318, "ices": 1319, "\u0120County": 1320, "rol": 1321, "\u0120house": 1322, "aving": 1323, "\u0120str": 1324, "\u012011": 1325, "\u0120February": 1326, "\u0120major": 1327, "\u0120Europe": 1328, "ampionship": 1329, "\u0120British": 1330, "\u012014": 1331, "ove": 1332, "\u0120rev": 1333, "mp": 1334, "\u0120home": 1335, "chn": 1336, "ae": 1337, "\u0120company": 1338, "\u0120establ": 1339, "\u0120However": 1340, "\u0120192": 1341, "\u0120success": 1342, "\u0120received": 1343, "\u0120could": 1344, "\u0120final": 1345, "\u0120City": 1346, "illion": 1347, "\u012013": 1348, "yl": 1349, "ival": 1350, "\u0120Man": 1351, "\u01202010": 1352, "\u0120inst": 1353, "\u0120station": 1354, "\u0120$": 1355, "\u0120members": 1356, "ery": 1357, "\u0120class": 1358, "istor": 1359, "\u0120event": 1360, "\u0120born": 1361, "\u0120ins": 1362, "\u0120age": 1363, "ilit": 1364, "ored": 1365, "arge": 1366, "\u0120Pr": 1367, "\u0120world": 1368, "\u0120around": 1369, "\u0120League": 1370, "augh": 1371, "tle": 1372, "born": 1373, "af": 1374, "ring": 1375, "yn": 1376, "ats": 1377, "hes": 1378, "ately": 1379, "ording": 1380, "orm": 1381, "\u0120national": 1382, "ience": 1383, "ula": 1384, "\u0120tr": 1385, "\u0120list": 1386, "let": 1387, "ator": 1388, "\u0120State": 1389, "\u0120US": 1390, "\u0120term": 1391, "\u0120Am": 1392, "\u0120old": 1393, "\u0120built": 1394, "\u0120report": 1395, "erg": 1396, "\u0120line": 1397, "\u0120single": 1398, "\u0120Will": 1399, "\u0120ref": 1400, "\u0120ext": 1401, "ble": 1402, "ians": 1403, "\u0120Colle": 1404, "lack": 1405, "med": 1406, "\u0120bus": 1407, "cent": 1408, "\u0120due": 1409, "itions": 1410, "\u0120down": 1411, "\u0120eng": 1412, "\u0120Gu": 1413, "\u0120refer": 1414, "\u0120last": 1415, "ounc": 1416, "\u0120During": 1417, "\u0120based": 1418, "\u0120hel": 1419, "iness": 1420, "though": 1421, "hor": 1422, "\u01202011": 1423, "\u0120charact": 1424, "\u0120left": 1425, "pro": 1426, "ences": 1427, "ivision": 1428, "ane": 1429, "ony": 1430, "alif": 1431, "\u0120now": 1432, "\u0120Bro": 1433, "\u0120Af": 1434, "\u0120include": 1435, "\u0120century": 1436, "arried": 1437, "\u0120profess": 1438, "\u0120six": 1439, "\u0120deb": 1440, "\u0120law": 1441, "\u0120Co": 1442, "\u0120Min": 1443, "\u0120Car": 1444, "\u0120cour": 1445, "..": 1446, "oss": 1447, "\u0120II": 1448, "\u0120appro": 1449, "ently": 1450, "\u0120north": 1451, "ling": 1452, "me": 1453, "\u0120Canad": 1454, "\u0120(\"": 1455, "\u0120species": 1456, "\u0120said": 1457, "ches": 1458, "\u0120within": 1459, "\u0120-": 1460, "ality": 1461, "iod": 1462, "cer": 1463, "\u0120Ed": 1464, "ham": 1465, "\u0120King": 1466, "ott": 1467, "\u0120191": 1468, "\u0120det": 1469, "\u0120published": 1470, "pect": 1471, "\u0120camp": 1472, "\u0120death": 1473, "reen": 1474, "oung": 1475, "\u0120Dist": 1476, "ages": 1477, "\u01202012": 1478, "\u0120rest": 1479, "\u0120mark": 1480, "\u0120top": 1481, "\u0120West": 1482, "\u0120five": 1483, "\u0120\u00e2\u0122": 1484, "alth": 1485, "ung": 1486, "\u0120History": 1487, "\u0120represent": 1488, "\u0120because": 1489, "get": 1490, "co": 1491, "\u0120Mon": 1492, "ights": 1493, "\u0120Ex": 1494, "\u0120died": 1495, "\u0120football": 1496, "\u0120adv": 1497, "\u0120Her": 1498, "\u0120describ": 1499, "\u0120vers": 1500, "atic": 1501, "\u0120ty": 1502, "\u0120included": 1503, "\u0120large": 1504, "apan": 1505, "\u01202014": 1506, "\u0120present": 1507, "uck": 1508, "lev": 1509, "ides": 1510, "\u0120car": 1511, "\u0120consid": 1512, "\u0120building": 1513, "\u0120requ": 1514, "bor": 1515, "row": 1516, "tal": 1517, "inc": 1518, "ille": 1519, "rew": 1520, "\u0120village": 1521, "rench": 1522, "ature": 1523, "\u01202013": 1524, "aster": 1525, "ively": 1526, "\u0120Christ": 1527, "que": 1528, "ze": 1529, "\u0120conf": 1530, "ask": 1531, "com": 1532, "ode": 1533, "\u0120south": 1534, "21": 1535, "\u01202015": 1536, "\u01202016": 1537, "\u0120tri": 1538, "\u0120third": 1539, "day": 1540, "\u0120result": 1541, "iven": 1542, "\u0120educ": 1543, "omin": 1544, "omet": 1545, "\u0120fac": 1546, "\u0120larg": 1547, "ese": 1548, "ization": 1549, "\u0120allow": 1550, "estern": 1551, "urg": 1552, "\u0120Bar": 1553, "\u0120leg": 1554, "\u01202009": 1555, "ration": 1556, "\u0120post": 1557, "\u01202008": 1558, "ially": 1559, "ief": 1560, "ster": 1561, "\u0120Geor": 1562, "\u0120Har": 1563, "\u0120manag": 1564, "uff": 1565, "\u0120Sw": 1566, "ety": 1567, "lish": 1568, "used": 1569, "\u0120person": 1570, "\u0120Japan": 1571, "ency": 1572, "\u0120Mc": 1573, "\u0120incre": 1574, "ps": 1575, "\u0120Reg": 1576, "vious": 1577, "ouncil": 1578, "eder": 1579, "\u0120period": 1580, "\u0120dem": 1581, "\u0120short": 1582, "laim": 1583, "\u0120moved": 1584, "ner": 1585, "\u0120children": 1586, "reet": 1587, "\u0120French": 1588, "\u0120Part": 1589, "\u01202018": 1590, "\u0120different": 1591, "\u01202017": 1592, "\u0120current": 1593, "\u0120vis": 1594, "\u0120And": 1595, "\u0120just": 1596, "\u0120College": 1597, "\u0120dra": 1598, "tended": 1599, "\u0120those": 1600, "\u0120Ab": 1601, "\u0120190": 1602, "\u0120.": 1603, "\u0120stand": 1604, "\u0120still": 1605, "\u012025": 1606, "\u0120lit": 1607, "ocial": 1608, "angu": 1609, "inning": 1610, "\u0120like": 1611, "\u0120announ": 1612, "\u0120resp": 1613, "alk": 1614, "ves": 1615, "\u0120po": 1616, "\u0120addition": 1617, "\u0120led": 1618, "\u0120trad": 1619, "\u0120Rep": 1620, "work": 1621, "ged": 1622, "\u0120El": 1623, "\u0120son": 1624, "\u0120crit": 1625, "\u0120appear": 1626, "\u0120av": 1627, "\u0120perform": 1628, "\u00c3\u00a1": 1629, "\u0120Par": 1630, "\u0120English": 1631, "ining": 1632, "\u01202019": 1633, "\u0120history": 1634, "\u0120water": 1635, "\u0120par": 1636, "lu": 1637, "\u0120High": 1638, "\u0120iss": 1639, "ified": 1640, "\u01202007": 1641, "\u0120cor": 1642, "ering": 1643, "\u0120another": 1644, "\u01202006": 1645, "par": 1646, "ays": 1647, "\u0120ep": 1648, "oad": 1649, "\u0120Acc": 1650, "ography": 1651, "\u0120William": 1652, "alf": 1653, "side": 1654, "\u0120if": 1655, "\u0120very": 1656, "ards": 1657, "akes": 1658, "\u0120By": 1659, "vers": 1660, "\u0120service": 1661, "\u0120exper": 1662, "adem": 1663, "\u0120power": 1664, "\u0120women": 1665, "\u012030": 1666, "\u0120Afric": 1667, "\u0120Russ": 1668, "\u0120Park": 1669, "urs": 1670, "idd": 1671, "\u0120war": 1672, "ize": 1673, "\u0120men": 1674, "amb": 1675, "ondon": 1676, "\u0120constru": 1677, "\u0120district": 1678, "\u0120equ": 1679, "\u0120Sec": 1680, "conom": 1681, "\u0120best": 1682, "\u0120often": 1683, "\u0120project": 1684, "riend": 1685, "\u0120Pres": 1686, "\u0120level": 1687, "\u0120side": 1688, "\u0120Air": 1689, "ilitary": 1690, "\u0120among": 1691, "ata": 1692, "ribut": 1693, "ody": 1694, "lor": 1695, "\u0120month": 1696, "\u0120win": 1697, "eter": 1698, "\u0120make": 1699, "\u0120country": 1700, "\u0120original": 1701, "\u0120father": 1702, "\u0120hand": 1703, "ison": 1704, "ness": 1705, "\u0120though": 1706, "ases": 1707, "\u0120import": 1708, "ford": 1709, "\u0120Sy": 1710, "\u0120Res": 1711, "\")": 1712, "\u0120Med": 1713, "\u0120District": 1714, "\u0120non": 1715, "ched": 1716, "\u0120London": 1717, "\u0120189": 1718, "attle": 1719, "\u0120X": 1720, "\u0120late": 1721, "ana": 1722, "\u0120International": 1723, "uk": 1724, "ges": 1725, "\u0120River": 1726, "\u0120port": 1727, "\u0120pat": 1728, "\u0120games": 1729, "read": 1730, "\u01202020": 1731, "yle": 1732, "\u0120sold": 1733, "\u0120Comp": 1734, "\u0120beg": 1735, "\u0120even": 1736, "\u0120announced": 1737, "ald": 1738, "\u0120When": 1739, "\u0120la": 1740, "\u0120started": 1741, "\u0120hum": 1742, "\u0120came": 1743, "\u0120grad": 1744, "osp": 1745, "ument": 1746, "\u0120previous": 1747, "\u0120Championship": 1748, "ploy": 1749, "\u0120order": 1750, "\u0120established": 1751, "\u0120role": 1752, "\u0120Bl": 1753, "ugg": 1754, "ino": 1755, "ourn": 1756, "\u0120vot": 1757, "10": 1758, "ruct": 1759, "\u0120went": 1760, "\u0120Des": 1761, "\u0120title": 1762, "\u0120attack": 1763, "ries": 1764, "\u0120el": 1765, "\u0120poss": 1766, "\u0120million": 1767, "\u0120stat": 1768, "\u0120business": 1769, "\u0120Ital": 1770, "ney": 1771, "ti": 1772, "\u0120Cor": 1773, "\u0120Pl": 1774, "\u0120aff": 1775, "\u0120every": 1776, "ington": 1777, "ele": 1778, "\u0120award": 1779, "\u0120ship": 1780, "\u0120invol": 1781, "\u0120turn": 1782, "aul": 1783, "\u0120activ": 1784, "ummer": 1785, "ublic": 1786, "levision": 1787, "rest": 1788, "ption": 1789, "\u0120appoin": 1790, "\u0120fore": 1791, "rick": 1792, "\u012024": 1793, "\u0120much": 1794, "urther": 1795, "\u0120character": 1796, "rote": 1797, "\u0120repla": 1798, "\u0120total": 1799, "\u0120Cup": 1800, "\u0120init": 1801, "\u0120what": 1802, "\u0120cult": 1803, "\u0120rese": 1804, "\u0120Ne": 1805, "\u0120kill": 1806, "ament": 1807, "\u0120field": 1808, "ones": 1809, "epend": 1810, "\u0120,": 1811, "\u0120worked": 1812, "\u0120es": 1813, "\u0120effect": 1814, "\u0120track": 1815, "\u0120Dav": 1816, "\u0120contain": 1817, "sp": 1818, "\u0120joined": 1819, "ociation": 1820, "sc": 1821, "ray": 1822, "\u0120debut": 1823, "\u0120origin": 1824, "\u0120chang": 1825, "\u0120common": 1826, "\u0120clos": 1827, "\u0120val": 1828, "\u0120techn": 1829, "\u0120Ang": 1830, "\u0120week": 1831, "\u0120House": 1832, "\u0120young": 1833, "\u0120rad": 1834, "\u0120author": 1835, "\u0120round": 1836, "eneral": 1837, "umb": 1838, "ridge": 1839, "\u0120del": 1840, "\u0120cr": 1841, "anc": 1842, "ense": 1843, "\u0120promot": 1844, "\u0120fact": 1845, "minist": 1846, "\u0120sol": 1847, "\u0120histor": 1848, "\u0120Phil": 1849, "partment": 1850, "\u0120various": 1851, "hem": 1852, "\u0120sk": 1853, "\u0120become": 1854, "\u0120arch": 1855, "aren": 1856, "reg": 1857, "ara": 1858, "\u0120sit": 1859, "\u0120One": 1860, "of": 1861, "\u0120development": 1862, "ords": 1863, "\u0120Sup": 1864, "ler": 1865, "\u0120cover": 1866, "\u0120San": 1867, "\u0120England": 1868, "\u0120special": 1869, "\u0120married": 1870, "\u0120gen": 1871, "\u0120control": 1872, "\u0120given": 1873, "sk": 1874, "forman": 1875, "\u0120process": 1876, "\u0120community": 1877, "\u0120next": 1878, "na": 1879, "\u0120having": 1880, "de": 1881, "ached": 1882, "posed": 1883, "\u0120These": 1884, "hern": 1885, "\u0120described": 1886, "\u0120fre": 1887, "\u0120returned": 1888, "\u0120few": 1889, "\u0120tw": 1890, "\u0120cer": 1891, "\u0120defe": 1892, "\u0120claim": 1893, "mit": 1894, "\u012021": 1895, "\u0120188": 1896, "self": 1897, "isc": 1898, "ms": 1899, "raft": 1900, "\u0120East": 1901, "eth": 1902, "\u0120Tr": 1903, "ivid": 1904, "\u0120general": 1905, "\u0120Br": 1906, "\u0120produced": 1907, "\u0120pain": 1908, "cast": 1909, "\u0120election": 1910, "\u0120With": 1911, "\u0120mag": 1912, "aff": 1913, "\u0120fem": 1914, "iber": 1915, "\u0120Indian": 1916, "avy": 1917, "\u0120using": 1918, "\u0120gr": 1919, "\u0120students": 1920, "\u0120wrote": 1921, "\u0120prote": 1922, "\u0120created": 1923, "ociety": 1924, "astern": 1925, "oph": 1926, "\u0120langu": 1927, "br": 1928, "\u0120player": 1929, "off": 1930, "app": 1931, "\u0120We": 1932, "\u0120international": 1933, "ops": 1934, "lin": 1935, "\u0120take": 1936, "\u0120ca": 1937, "\u0120From": 1938, "orthern": 1939, "ront": 1940, "\u0120tem": 1941, "\u01202000": 1942, "\u0120bre": 1943, "\u0120sent": 1944, "sequ": 1945, "omb": 1946, "lands": 1947, "\u0120political": 1948, "\u01202005": 1949, "\u0120According": 1950, "\u0120position": 1951, "\u0120beh": 1952, "\u0120way": 1953, "ories": 1954, "\u0120prim": 1955, "\u0120however": 1956, "line": 1957, "ta": 1958, "ilar": 1959, "ivil": 1960, "ead": 1961, "\u0120compos": 1962, "hold": 1963, "\u0120hig": 1964, "irc": 1965, "oon": 1966, "\u0120ren": 1967, "\u0120popular": 1968, "oyal": 1969, "ention": 1970, "\u0120fun": 1971, "\u00e2\u0122\u0136": 1972, "\u0120elect": 1973, "\u0120Church": 1974, "\u0120continued": 1975, "urb": 1976, "outher": 1977, "\u00c3\u00b3": 1978, "lt": 1979, "\u0120Pe": 1980, "field": 1981, "ogn": 1982, "ested": 1983, "\u0120examp": 1984, "ush": 1985, "\u0120production": 1986, "aken": 1987, "50": 1988, "\u0120host": 1989, "\u0120rail": 1990, "\u0120written": 1991, "\u0120great": 1992, "outhern": 1993, "\u0120La": 1994, "\u0120Art": 1995, "\u0120Dem": 1996, "\u0120works": 1997, "\u0120match": 1998, "ests": 1999, "\u0120need": 2000, "\u0120186": 2001, "\u0120Ac": 2002, "\u0120partic": 2003, "\u012022": 2004, "\u0120European": 2005, "ape": 2006, "\u0120vide": 2007, "\u0120India": 2008, "\u0120particip": 2009, "\u0120Gro": 2010, "\u0120site": 2011, "\u0120church": 2012, "iron": 2013, "\u0120times": 2014, "\u0120performan": 2015, "ole": 2016, "unicip": 2017, "\u0120sl": 2018, "\u0120Australia": 2019, "be": 2020, "17": 2021, "200": 2022, "\u0120aver": 2023, "\u0120region": 2024, "\u0120formula": 2025, "gt": 2026, "ividual": 2027, "\u0120President": 2028, "\u012023": 2029, "\u0120Per": 2030, "\u0120Council": 2031, "\u0120pract": 2032, "\u0120Army": 2033, "\u0120No": 2034, "\u0120100": 2035, "\u0120Party": 2036, "\u0120Mich": 2037, "ander": 2038, "ha": 2039, "ances": 2040, "\u0120Port": 2041, "\u0120military": 2042, "\u0120direct": 2043, "\u0120road": 2044, "\u0120pri": 2045, "ots": 2046, "\u0120intro": 2047, "\u0120lab": 2048, "\u0120official": 2049, "\u0120France": 2050, "\u0120[": 2051, "itor": 2052, "\u0120without": 2053, "lect": 2054, "formation": 2055, "\u0120Ste": 2056, "\u0120Street": 2057, "\u0120squ": 2058, "\u0120Char": 2059, "iment": 2060, "\u0120full": 2061, "\u01202004": 2062, "ateg": 2063, "\u01200": 2064, "hib": 2065, "\u0120attem": 2066, "\u0120Cour": 2067, "stitute": 2068, "\u0120Roman": 2069, "\u0120considered": 2070, "\u0120Bel": 2071, "ports": 2072, "useum": 2073, "\u0120days": 2074, "\u0120television": 2075, "\u0120lost": 2076, "\u0120brother": 2077, "\u0120indust": 2078, "\u0120187": 2079, "\u0120version": 2080, "\u0120opened": 2081, "\u0120president": 2082, "\u0120epis": 2083, "ountain": 2084, "etwork": 2085, "\u0120ter": 2086, "ellow": 2087, "\u0120founded": 2088, "ination": 2089, "itte": 2090, "\u0120education": 2091, "\u0120Tra": 2092, "\u0120General": 2093, "year": 2094, "\u0120Act": 2095, "less": 2096, "view": 2097, "\u0120research": 2098, "\u0120comb": 2099, "ville": 2100, "\u0120Division": 2101, "\u0120Mal": 2102, "\u0120professional": 2103, "\u0120ident": 2104, "reek": 2105, "\u0120friend": 2106, "\u0120Em": 2107, "\u0120Sch": 2108, "rem": 2109, "\u0120sw": 2110, "\u0120Gl": 2111, "\u0120lim": 2112, "ours": 2113, "atter": 2114, "ying": 2115, "aliforn": 2116, "\u0120broad": 2117, "\u0120Ag": 2118, "\u0120half": 2119, "\u0120social": 2120, "\u0120appointed": 2121, "\u0120disp": 2122, "\u0120proper": 2123, "\u0120further": 2124, "\u0120signed": 2125, "\u0120elected": 2126, "\u0120party": 2127, "ological": 2128, "\u0120recorded": 2129, "\u0120influ": 2130, "int": 2131, "olution": 2132, "\u0120engine": 2133, "'t": 2134, "\u0120daugh": 2135, "uel": 2136, "ama": 2137, "ership": 2138, "alifornia": 2139, "\u0120Hol": 2140, "\u0120dep": 2141, "\u0120mult": 2142, "ico": 2143, "ream": 2144, "12": 2145, "\u0120important": 2146, "gether": 2147, "\u0120together": 2148, "\u0120real": 2149, "\u0120vol": 2150, "\u0120invest": 2151, "\u0120bas": 2152, "\u0120view": 2153, "\u0120deg": 2154, "\u0120appeared": 2155, "aign": 2156, "\u00c3\u0143": 2157, "\u0120similar": 2158, "\u0120right": 2159, "oor": 2160, "\u012026": 2161, "\u0120individual": 2162, "\u0120find": 2163, "\u0120econom": 2164, "era": 2165, "\u0120Rec": 2166, "\u0120gradu": 2167, "\u0120California": 2168, "\u0120story": 2169, "\u0120Nor": 2170, "ising": 2171, "ee": 2172, "\u012028": 2173, "\u0120priv": 2174, "lymp": 2175, "\u0120struct": 2176, "pecial": 2177, "\u0120east": 2178, "key": 2179, "\u0120Que": 2180, "\u0120Thom": 2181, "\u0120James": 2182, "\u012027": 2183, "\u0120Canada": 2184, "\u0120formed": 2185, "ably": 2186, "\u0120Bra": 2187, "\u0120areas": 2188, "ping": 2189, "bs": 2190, "16": 2191, "\u0120hold": 2192, "\u0120America": 2193, "\u0120point": 2194, "uit": 2195, "\u0120fund": 2196, "\u0120mid": 2197, "\u0120George": 2198, "\u0120Sm": 2199, "ishing": 2200, "\u0120wife": 2201, "\u0120Val": 2202, "\u0120Olymp": 2203, "\u0120grow": 2204, "\u0120working": 2205, "ensus": 2206, "imately": 2207, "\u0120Early": 2208, "lex": 2209, "ference": 2210, "\u0120imp": 2211, "van": 2212, "15": 2213, "\u0120offer": 2214, "dom": 2215, "\u0120tradition": 2216, "\u0120less": 2217, "\u0120teams": 2218, "\u0120Ap": 2219, "\u0120While": 2220, "ari": 2221, "ship": 2222, "\u0120meet": 2223, "\u0120reported": 2224, "\u0120Rober": 2225, "\u00e2\u0122\u013f": 2226, "\u0120ke": 2227, "\u0120west": 2228, "\u0120Association": 2229, "\u01201990": 2230, "ope": 2231, "\u0120making": 2232, "\u0120Mor": 2233, "\u01202021": 2234, "acy": 2235, "\u0120Union": 2236, "\u0120dest": 2237, "ule": 2238, "\u0120Pal": 2239, "\u0120read": 2240, "\u0120vict": 2241, "BC": 2242, "\u0120developed": 2243, "\u0120release": 2244, "idence": 2245, "\u0120low": 2246, "ither": 2247, "anish": 2248, "plic": 2249, "\u0120div": 2250, "\u0120office": 2251, ",\"": 2252, "\u0120Ber": 2253, "ex": 2254, "\u0120review": 2255, "\u0120director": 2256, "\u0120hon": 2257, "ained": 2258, "utes": 2259, "ning": 2260, "\u0120average": 2261, "\u0120good": 2262, "\u0120video": 2263, "\u0120coach": 2264, "rap": 2265, "\u00c3\u00bc": 2266, "nect": 2267, "wh": 2268, "aper": 2269, "\u0120cond": 2270, "\u0120nov": 2271, "\u0120arr": 2272, "\u0120employ": 2273, "itect": 2274, "iol": 2275, "\u0120ten": 2276, "irl": 2277, "\u0120example": 2278, "\u0120hous": 2279, "oll": 2280, "\u0120points": 2281, "oe": 2282, "\u0120Club": 2283, "\u0120case": 2284, "\u0120Royal": 2285, "\u0120administ": 2286, "\u0120signific": 2287, "\u0120fail": 2288, "ills": 2289, "alt": 2290, "ground": 2291, "\u01202003": 2292, "ittee": 2293, "\u0120gl": 2294, "most": 2295, "\u0120should": 2296, "\u0120\u00e2\u0122\u013e": 2297, "iles": 2298, "iddle": 2299, "\u0120typ": 2300, "\u0120others": 2301, "\u0120conc": 2302, "arliam": 2303, "\u0120Rich": 2304, "\u0120ground": 2305, "\u0120exist": 2306, "\u0120rank": 2307, "ells": 2308, "\u0120star": 2309, "tar": 2310, "\u0120himself": 2311, "\u0120race": 2312, "\u0120avail": 2313, "cing": 2314, "ocr": 2315, "itive": 2316, "\u0120across": 2317, "ournal": 2318, "\u0120recogn": 2319, "\u0120playing": 2320, "\u0120relations": 2321, "\u0120services": 2322, "\u0120Germany": 2323, "\u0120Lou": 2324, "pite": 2325, "arliament": 2326, "\u0120Award": 2327, "\u0120mater": 2328, "\u0120produc": 2329, "\u0120Qu": 2330, "ification": 2331, "\u0120laun": 2332, "ways": 2333, "\u0120independ": 2334, "\u0120events": 2335, "uf": 2336, "atch": 2337, "\u0120rock": 2338, "ators": 2339, "\u0120does": 2340, "\u0120modern": 2341, "\u0120get": 2342, "\u0120mother": 2343, "\u0120Sen": 2344, "ger": 2345, "\u0120Road": 2346, "\u0120never": 2347, "ma": 2348, "\u0120()": 2349, "ius": 2350, "\u01201980": 2351, "rie": 2352, "\u0120successful": 2353, "\u0120Other": 2354, "olic": 2355, "\u0120Dr": 2356, "\u0120although": 2357, "now": 2358, "anted": 2359, "\u0120style": 2360, "iding": 2361, "\u0120Hall": 2362, "\u0120Australian": 2363, "\u0120hy": 2364, "ks": 2365, "\u0120belie": 2366, "iting": 2367, "\u01202002": 2368, "val": 2369, "\u0120body": 2370, "\u0120living": 2371, "ya": 2372, "\u0120mot": 2373, "rated": 2374, "\u0120strong": 2375, "estival": 2376, "\u0120cle": 2377, "\u0120campaign": 2378, "ecut": 2379, "\u012029": 2380, "\u0120human": 2381, "\u0120suff": 2382, "\u0120Court": 2383, "\u0120tro": 2384, "\u0120live": 2385, "go": 2386, "ceed": 2387, "\u0120foc": 2388, "\u0120league": 2389, "craft": 2390, "ensive": 2391, "\u0120cast": 2392, "\u0120Some": 2393, "igned": 2394, "\u0120separ": 2395, "\u01202001": 2396, "\u0120finished": 2397, "ults": 2398, "30": 2399, "nder": 2400, "\u0120Paul": 2401, "\u0120ide": 2402, "\u0120how": 2403, "14": 2404, "ij": 2405, "\u0120Red": 2406, "\u0120assist": 2407, "\u0120ord": 2408, "\u0120months": 2409, "ming": 2410, "ont": 2411, "\u0120somet": 2412, "\u0120Kh": 2413, "\u0120followed": 2414, "\u0120Academ": 2415, "\u0120First": 2416, "istic": 2417, "ael": 2418, "ili": 2419, "\u0120my": 2420, "\u0120Company": 2421, "\u0120gave": 2422, "wood": 2423, "\u0120daughter": 2424, "\u0120cost": 2425, "\u0120David": 2426, "\u0120rul": 2427, "\u0120black": 2428, "\u0120free": 2429, "\u0120away": 2430, "ought": 2431, "\u0120China": 2432, "\u0120Group": 2433, "\u0120Hen": 2434, "chie": 2435, "\u0120fire": 2436, "west": 2437, "\u0120performed": 2438, "hers": 2439, "\u0120Pri": 2440, "\u0120available": 2441, "ipp": 2442, "\u0120base": 2443, "\u0120Stud": 2444, "\u0120construction": 2445, "\u0120language": 2446, "\u0120municip": 2447, "\u0120completed": 2448, "ederal": 2449, "\u0120becom": 2450, "\u0120light": 2451, "oney": 2452, "\u0120remained": 2453, "\u0120Mary": 2454, "\u0120cross": 2455, "\u0120Off": 2456, "hel": 2457, "\u0120contract": 2458, "ibr": 2459, "\u0120Music": 2460, "CA": 2461, "\u0120taken": 2462, "ened": 2463, "icle": 2464, "ential": 2465, "\u0120let": 2466, "aut": 2467, "\u0120agre": 2468, "\u0120Central": 2469, "\u00c3\u00b6": 2470, "\u01201970": 2471, "\u0120Rail": 2472, "\u0120acqu": 2473, "men": 2474, "13": 2475, "\u0120tour": 2476, "band": 2477, "\u0120Not": 2478, "cle": 2479, "arth": 2480, "ilities": 2481, "\u0120Mex": 2482, "\u0120dev": 2483, "\u0120designed": 2484, "\u0120impro": 2485, "eh": 2486, "\u0120Pat": 2487, "\u0120once": 2488, "\u0120songs": 2489, "\u0120Department": 2490, "ospital": 2491, "\u0120sour": 2492, "\u0120attempt": 2493, "\u0120market": 2494, "\u0120associ": 2495, "\u0120put": 2496, "anding": 2497, "enced": 2498, "\u0120players": 2499, "\u0120product": 2500, "aur": 2501, "\u0120help": 2502, "gress": 2503, "...": 2504, "\u0120includes": 2505, "alls": 2506, "ston": 2507, "\u0120features": 2508, "\u0120significant": 2509, "time": 2510, "stitut": 2511, "\u0120largest": 2512, "\u0120Wash": 2513, "\u0120seven": 2514, "atural": 2515, "\u0120Black": 2516, "\u0120Although": 2517, "\u0120phys": 2518, "\u0120expl": 2519, "\u0120Since": 2520, "\u0120throughout": 2521, "\u0120material": 2522, "rag": 2523, "burg": 2524, "\u0120study": 2525, "\u0120doc": 2526, "viron": 2527, "\u0120Mart": 2528, "ique": 2529, "\u0120Island": 2530, "hod": 2531, "ert": 2532, "\u0120Japanese": 2533, "\u0120circ": 2534, "eal": 2535, "\u012050": 2536, "ago": 2537, "\u0120performance": 2538, "\u0120originally": 2539, "\u0120household": 2540, "rain": 2541, "elling": 2542, "\u0120enc": 2543, "ude": 2544, "\u0120eight": 2545, ".,": 2546, "\u0120red": 2547, "leg": 2548, "ularly": 2549, "\u0120press": 2550, "inese": 2551, "\u0120sele": 2552, "\u0120goal": 2553, "hest": 2554, "\u0120UK": 2555, "\u0120flow": 2556, "\u0120earn": 2557, "\u0120leading": 2558, "\u0120featured": 2559, "\u0120Mac": 2560, "ability": 2561, "itz": 2562, "\u0120sugg": 2563, "\u0120dam": 2564, "\u0120schools": 2565, "\u0120Serv": 2566, "cis": 2567, "\u0120training": 2568, "atory": 2569, "\u0120groups": 2570, "ilies": 2571, "\u0120condu": 2572, "\u0120Center": 2573, "\u0120awarded": 2574, "\u0120inj": 2575, "\u0120board": 2576, "\u0120To": 2577, "\u0120must": 2578, "ades": 2579, "\u0120consist": 2580, "azine": 2581, "rian": 2582, "ett": 2583, "\u0120tre": 2584, "km": 2585, "aries": 2586, "\u0120earl": 2587, "isl": 2588, "\u0120involved": 2589, "\u0120directed": 2590, "ores": 2591, "\u0120access": 2592, "aged": 2593, "\u0120seen": 2594, "ements": 2595, "\u0120Town": 2596, "\u0120currently": 2597, "\u0120Bay": 2598, "\u0120Sam": 2599, "back": 2600, "\u0120forces": 2601, "\u0120relig": 2602, "\u0120Cong": 2603, "\u0120Western": 2604, "\u01201999": 2605, "\u0120health": 2606, "\u0120subsequ": 2607, "fic": 2608, "\u0120front": 2609, "cri": 2610, "roy": 2611, "\u0120bank": 2612, "\u0120prot": 2613, "duction": 2614, "\u0120eventually": 2615, "\u0120Tur": 2616, "\u0120liter": 2617, "11": 2618, "\u0120Washington": 2619, "\u0120proble": 2620, "rab": 2621, "\u0120stage": 2622, "\u0120Institute": 2623, "arter": 2624, "\u0120Law": 2625, "iers": 2626, "here": 2627, "\u0120Educ": 2628, "\u0120Its": 2629, "\u0120plan": 2630, "aching": 2631, "asons": 2632, "\u0120Prov": 2633, "\u0120Vir": 2634, "\u0120entire": 2635, "\u0120phot": 2636, "\u0120tourn": 2637, "\u0120Bi": 2638, "\u0120bo": 2639, "mercial": 2640, "\u0120able": 2641, "\u0120Cap": 2642, "\u0120Jew": 2643, "atives": 2644, "\u0120Jack": 2645, "imate": 2646, "gin": 2647, "erous": 2648, "\u0120information": 2649, "\u0120Thomas": 2650, "\u0120mar": 2651, "aint": 2652, "\u0120test": 2653, "\u0120Mag": 2654, "\u0120Minister": 2655, "\u0120Je": 2656, "\u0120stated": 2657, "\u0120Ser": 2658, "arian": 2659, "\u0120cand": 2660, "aker": 2661, "\u0120Society": 2662, "ani": 2663, "asing": 2664, "\u0120Gr": 2665, "\u0120network": 2666, "\u0120wid": 2667, "ym": 2668, "\u0120added": 2669, "\u0120countries": 2670, "\u0120reb": 2671, "\u0120sound": 2672, "overnor": 2673, "omm": 2674, "\u0120cou": 2675, "\u0120respons": 2676, "\u0120radio": 2677, "\u0120Cath": 2678, "\u0120private": 2679, "airs": 2680, "ala": 2681, "ength": 2682, "\u0120z": 2683, "\u0120replaced": 2684, "\u0120transfer": 2685, "\u0120Robert": 2686, "\u0120Commun": 2687, "\u0120white": 2688, "\u0120Mad": 2689, "berg": 2690, "\u0120anim": 2691, "oms": 2692, "\u0120Sing": 2693, "\u0120Christian": 2694, "Ch": 2695, "\u01201960": 2696, "\u0120court": 2697, "\u0120African": 2698, "iction": 2699, "\u0120Chinese": 2700, "ware": 2701, "\u0120range": 2702, "ranch": 2703, "\u0120provided": 2704, "\u0120architect": 2705, "\u0120competition": 2706, "\u0120colla": 2707, "\u0120episode": 2708, "sec": 2709, "\u0120Charles": 2710, "\u0120Fl": 2711, "\u0120Angel": 2712, "\u0120park": 2713, "incip": 2714, "\u0120degree": 2715, "icated": 2716, "\u0120know": 2717, "head": 2718, "\u0120close": 2719, "\u0120Canadian": 2720, "\u0120Sim": 2721, "\u0120novel": 2722, "\u0120model": 2723, "\u0120Film": 2724, "\u0120Alex": 2725, "\u0120polic": 2726, "199": 2727, "\u01201998": 2728, "bert": 2729, "\u0120you": 2730, "\u0120saw": 2731, "hood": 2732, "\u0120past": 2733, "\u0120185": 2734, "\u0120Russian": 2735, "\u0120stri": 2736, "\u0120reached": 2737, "ida": 2738, "\u0120Academy": 2739, "\u0120Trans": 2740, "\u0120states": 2741, "\u0120either": 2742, "\u0120capt": 2743, "\u0120killed": 2744, "\u0120fight": 2745, "\u0120central": 2746, "\u0120fourth": 2747, "ergy": 2748, "emor": 2749, "\u0120command": 2750, "\u0120police": 2751, "\u0120college": 2752, "rought": 2753, "vironment": 2754, "ev": 2755, "\u0120sem": 2756, "\u0120surv": 2757, "\u0120bi": 2758, "\u0120But": 2759, "\u0120civil": 2760, "\u0120anal": 2761, "\u0120wind": 2762, "\u0120184": 2763, "\u0120dou": 2764, "\u0120least": 2765, "atre": 2766, "\u0120loss": 2767, "\u0120fav": 2768, "\u0120respect": 2769, "\u0120achie": 2770, "\u0120above": 2771, "\u0120Sal": 2772, "\u0120Cont": 2773, "\u0120Grand": 2774, "sy": 2775, "udd": 2776, "sel": 2777, "\u0120Italian": 2778, "bour": 2779, "oice": 2780, "\u0120subject": 2781, "\u0120critic": 2782, "\u0120mus": 2783, "\u0120Ir": 2784, "medi": 2785, "\u0120Lat": 2786, "\u0120TV": 2787, "right": 2788, "\u0120pur": 2789, "\u0120sen": 2790, "\u0120ste": 2791, "\u0120\u00c3": 2792, "\u0120approx": 2793, "\u0120aud": 2794, "\u0120situ": 2795, "\u0120usually": 2796, "\u0120bar": 2797, "ids": 2798, "istry": 2799, "\u0120Scott": 2800, "\u0120occur": 2801, "\u012031": 2802, "\u0120discover": 2803, "\u01201996": 2804, "rey": 2805, "\u0120space": 2806, "\u0120scored": 2807, "\u0120Met": 2808, "\u0120Rad": 2809, "\u0120decided": 2810, "\u0120Louis": 2811, "rel": 2812, "\u0120ill": 2813, "\u0120hit": 2814, "\u0120Miss": 2815, "\u0120Great": 2816, "\u0120interest": 2817, "\u0120Africa": 2818, "\u0120see": 2819, "\u0120change": 2820, "\u0120learn": 2821, "\u0120placed": 2822, "\u0120express": 2823, "\u0120attended": 2824, "\u0120candid": 2825, "\u0120treat": 2826, "board": 2827, "\u0120Cons": 2828, "\u0120Mark": 2829, "\u0120rights": 2830, "pon": 2831, "\u0120Democr": 2832, "St": 2833, "uture": 2834, "\u0120upon": 2835, "\u0120arg": 2836, "\u0120Education": 2837, "odes": 2838, "\u0120White": 2839, "apt": 2840, "\u012040": 2841, "\u01201997": 2842, "\u0120Vict": 2843, "\u0120capital": 2844, "\u0120viol": 2845, "\u0120shows": 2846, "\u0120travel": 2847, "ply": 2848, "\u0120Spanish": 2849, "\u0120contribut": 2850, "uses": 2851, "aval": 2852, "ving": 2853, "ky": 2854, "\u0120media": 2855, "\u0120introduced": 2856, "\u0120Career": 2857, "\u0120lo": 2858, "ception": 2859, "\u0120pot": 2860, "\u0120mean": 2861, "itch": 2862, "serv": 2863, "\u0120plant": 2864, "\u0120cop": 2865, "ishop": 2866, "\u0120Tex": 2867, "\u0120effort": 2868, "\u0120Don": 2869, "\u0120fif": 2870, "ems": 2871, "\u0120center": 2872, "\u0120Arch": 2873, "iation": 2874, "rup": 2875, "\u0120meas": 2876, "\u0120night": 2877, "rd": 2878, "aled": 2879, "\u0120connect": 2880, "tt": 2881, "\u0120Follow": 2882, "\u0120census": 2883, "abit": 2884, "iff": 2885, "ician": 2886, "ka": 2887, "ribution": 2888, "annel": 2889, "\u0120fig": 2890, "urity": 2891, "\u0120provide": 2892, "embly": 2893, "\u0120Mus": 2894, "\u0120prem": 2895, "\u0120Green": 2896, "\u0120aircraft": 2897, "\u0120say": 2898, "\u0120Second": 2899, "za": 2900, "\u0120river": 2901, "\u0120Ham": 2902, "vert": 2903, "hi": 2904, "arily": 2905, "\u0120female": 2906, "\u00c4\u0123": 2907, "\u0120miss": 2908, "\u0120pay": 2909, "\u0120Play": 2910, "idae": 2911, "\u0120look": 2912, "\u0120size": 2913, "\u0120Gold": 2914, "\u0120Del": 2915, "rative": 2916, "\u0120Wil": 2917, "face": 2918, "\u0120farm": 2919, "\u0120sil": 2920, "shire": 2921, "\u0120occup": 2922, "\u0120Following": 2923, "\u0120cy": 2924, "unn": 2925, "\u0120studio": 2926, "reland": 2927, "\u0120method": 2928, "\u0120accept": 2929, "\u0120paren": 2930, "\u0120Lake": 2931, "\u0120films": 2932, "order": 2933, "\u0120rather": 2934, "\u0120instead": 2935, "\u0120ser": 2936, "\u0120Op": 2937, "ump": 2938, "\u0120via": 2939, "stant": 2940, "icles": 2941, "\u0120Leg": 2942, "\u0120exhib": 2943, "\u0120der": 2944, "\u0120brought": 2945, "\u0120broadcast": 2946, "\u01201995": 2947, "\u0120far": 2948, "\u0120championship": 2949, "\u0120tournament": 2950, "\u0120Mer": 2951, "mar": 2952, "\u0120Republic": 2953, "\u0120jud": 2954, "ena": 2955, "\u0120parts": 2956, "\u0120Awards": 2957, "aves": 2958, "och": 2959, "\u0120families": 2960, "\u0120hom": 2961, "\u0120division": 2962, "idents": 2963, "\u0120represented": 2964, "\u0120Museum": 2965, "\u0120commercial": 2966, "\u01201992": 2967, "\u0120purch": 2968, "road": 2969, "\u0120active": 2970, "\u0120Football": 2971, "\u0120northern": 2972, "\u0120pred": 2973, "\u0120sex": 2974, "\u0120gold": 2975, "\u0120Dan": 2976, "\u0120Im": 2977, "\"),": 2978, "\u0120behind": 2979, "put": 2980, "oul": 2981, "stitution": 2982, "\u0120neigh": 2983, "\u0120listed": 2984, "\u01201994": 2985, "\u0120Jose": 2986, "\u0120previously": 2987, "pecially": 2988, "\u0120compan": 2989, "\u0120books": 2990, "\u0120Kingdom": 2991, "rael": 2992, "\u0120deal": 2993, "\u0120whose": 2994, "\u0120Francis": 2995, "\u0120Government": 2996, "\u0120Paris": 2997, "\u0120mix": 2998, "\u0120Michael": 2999, "\u0120Commission": 3000, "\u0120winning": 3001, "\u0120Later": 3002, "lam": 3003, "oring": 3004, "\u0120section": 3005, "\u0120Henry": 3006, "\u0120plann": 3007, "\u0120southern": 3008, "\u0120draw": 3009, "\u0120Dire": 3010, "ufact": 3011, "\u0120buildings": 3012, "ona": 3013, "\u0120almost": 3014, "\u0120mass": 3015, "oviet": 3016, "\u0120nomin": 3017, "\u0120Kore": 3018, "ria": 3019, "\u0120neg": 3020, "gy": 3021, "\u0120Inter": 3022, "\u0120Virgin": 3023, "\u0120relationship": 3024, "\u0120defeated": 3025, "rown": 3026, "tained": 3027, "\u0120data": 3028, "lav": 3029, "\u0120Pet": 3030, "irth": 3031, "\u0120Camp": 3032, "\u0120Tor": 3033, "\u0120possible": 3034, "ume": 3035, "\u0120lik": 3036, "\u0120reve": 3037, "\u0120tax": 3038, "\u0120movement": 3039, "\u0120Lab": 3040, "\u0120frequ": 3041, "\u0120Che": 3042, "\u0120force": 3043, "\u0120ended": 3044, "\u0120sym": 3045, "\u0120Penn": 3046, "\u0120outside": 3047, "mon": 3048, "olf": 3049, "\u0120Bu": 3050, "\u0120Catholic": 3051, "\u0120changed": 3052, "elled": 3053, "retary": 3054, "\u0120Pla": 3055, "\u0120writing": 3056, "\u0120approximately": 3057, "\u0120Ter": 3058, "25": 3059, "\u0120qualif": 3060, "\u0120chart": 3061, "\u0120gun": 3062, "\u0120regard": 3063, "gen": 3064, "lim": 3065, "\u0120Frank": 3066, "\u0120allowed": 3067, "\u0120units": 3068, "\u0120execut": 3069, "asc": 3070, "\u0120organization": 3071, "\u0120sch": 3072, "\u0120industry": 3073, "alled": 3074, "edy": 3075, "\u0120type": 3076, "olk": 3077, "\u0120coast": 3078, "\u0120runs": 3079, "\u0120action": 3080, "rial": 3081, "\u0120Committee": 3082, "\u0120Victor": 3083, "\u0120cut": 3084, "\u0120investig": 3085, "\u0120Hill": 3086, "II": 3087, "\u0120fall": 3088, "ancial": 3089, "ibrary": 3090, "erve": 3091, "\u0120Two": 3092, "\u0120primary": 3093, "unk": 3094, "\u0120regular": 3095, "asket": 3096, "\u0120island": 3097, "\u0120Tom": 3098, "inent": 3099, "based": 3100, "oint": 3101, "pan": 3102, "\u0120Smith": 3103, "oo": 3104, "ites": 3105, "\u0120ran": 3106, "\u0120Texas": 3107, "\u0120Zeal": 3108, "\u0120Most": 3109, "\u0120Peter": 3110, "\u0120lower": 3111, "oper": 3112, "\u0120pers": 3113, "pts": 3114, "str": 3115, "\u0120Swed": 3116, "rig": 3117, "iqu": 3118, "clus": 3119, "\u0120beginning": 3120, "heast": 3121, "\u0120journal": 3122, "\u0120soon": 3123, "\u0120Richard": 3124, "\u0120spent": 3125, "\u0120block": 3126, "\u0120structure": 3127, "\u0120link": 3128, "\u0120railway": 3129, "\u0120plays": 3130, "\u0120grand": 3131, "\u0120care": 3132, "\u01201993": 3133, "\u0120length": 3134, "\u0120itself": 3135, "elt": 3136, "\u0120Zealand": 3137, "\u0120Mont": 3138, "\u0120ask": 3139, "rack": 3140, "\u01201991": 3141, "\u0120Cal": 3142, "porary": 3143, "thlet": 3144, "\u0120owned": 3145, "In": 3146, "\u0120artist": 3147, "irm": 3148, "\u0120taking": 3149, "aring": 3150, "kn": 3151, "\u0120Sant": 3152, "\u0120Cast": 3153, "ension": 3154, "\u0120determ": 3155, "iences": 3156, "\u0120object": 3157, "\u0120Year": 3158, "\u0120Best": 3159, "like": 3160, "gr": 3161, "cies": 3162, "\u0120sus": 3163, "\u0120Rev": 3164, "ror": 3165, "\u0120My": 3166, "\u0120bur": 3167, "\u0120hard": 3168, "\u0120summer": 3169, "\u0120Israel": 3170, "\u0120studies": 3171, "\u0120Fin": 3172, "\u0120imm": 3173, "\u0120Ma": 3174, "\u0120document": 3175, "press": 3176, "istan": 3177, "ini": 3178, "\u0120towards": 3179, "\u0120Lu": 3180, "\u0120according": 3181, "position": 3182, "\u0120Mel": 3183, "\u0120ever": 3184, "\u0120esc": 3185, "\u0120systems": 3186, "\u0120whom": 3187, "\u0120Ireland": 3188, "\u0120Fore": 3189, "\u0120anc": 3190, "\u01201950": 3191, "\u0120Carol": 3192, "SA": 3193, "\u0120especially": 3194, "\u0120function": 3195, "\u0120stop": 3196, "\u0120princip": 3197, "\u0120defend": 3198, "\u0120wood": 3199, "\u0120higher": 3200, "not": 3201, "\u0120transl": 3202, "\u0120natural": 3203, "\u0120Los": 3204, "icago": 3205, "\u0120Profess": 3206, "\u0120Day": 3207, "ocal": 3208, "\u0120operations": 3209, "\u0120Soviet": 3210, "\u0120plat": 3211, "umn": 3212, "\u0120traditional": 3213, "\u0120multip": 3214, "\u0120little": 3215, "ounter": 3216, "\u0120observ": 3217, "\u0120closed": 3218, "\u0120cred": 3219, "\u0120required": 3220, "\u0120Cur": 3221, "\u0120Congress": 3222, "\u0120king": 3223, "ows": 3224, "iety": 3225, "\u0120food": 3226, "\u0120break": 3227, "\u0120too": 3228, "oid": 3229, "\u0120prison": 3230, "\u0120concern": 3231, "\u0120leader": 3232, "\u0120Just": 3233, "ires": 3234, "\u0120studied": 3235, "\u0120remov": 3236, "\u0120complex": 3237, "ready": 3238, "\u0120highest": 3239, "\u0120Bur": 3240, "\u0120Ben": 3241, "oz": 3242, "ota": 3243, "lant": 3244, "\u0120Records": 3245, "\u0120Flor": 3246, "\u0120noted": 3247, "uter": 3248, "iter": 3249, "\u0120Women": 3250, "\u0120army": 3251, "\u0120independent": 3252, "\u0120commission": 3253, "\u0120Person": 3254, "pected": 3255, "\u0120Festival": 3256, "\u0120ge": 3257, "adium": 3258, "atal": 3259, "chan": 3260, "ibility": 3261, "\u0120below": 3262, "ises": 3263, "\u0120Arts": 3264, "\u0120collection": 3265, "\u0120cele": 3266, "\u0120route": 3267, "\u0120manufact": 3268, "\u0120Pre": 3269, "\u0120Public": 3270, "\u0120Histor": 3271, "\u0120conv": 3272, "ios": 3273, "\u0120anti": 3274, "fit": 3275, "\u0120property": 3276, "NA": 3277, "\u0120teac": 3278, "ternal": 3279, "\u0120launched": 3280, "\u0120money": 3281, "\u0120Board": 3282, "\u0120magazine": 3283, "\u0120future": 3284, "\u0120lived": 3285, "\u0120enter": 3286, "\u0120county": 3287, "ita": 3288, "\u0120Work": 3289, "\u0120self": 3290, "\u0120Parliament": 3291, "\u0120\u00c2": 3292, "asion": 3293, "\u0120Many": 3294, "\u0120Super": 3295, "\u0120personal": 3296, "\u0120generally": 3297, "orpor": 3298, "\u0120means": 3299, "\u0120Rock": 3300, "\u0120Saint": 3301, "\u0120sett": 3302, "aps": 3303, "60": 3304, "40": 3305, "\u0120entered": 3306, "\u0120girl": 3307, "hing": 3308, "\u0120nar": 3309, "\u0120territ": 3310, "\u0120quest": 3311, "ada": 3312, "\u0120Found": 3313, "\u0120key": 3314, "\u0120issues": 3315, "wer": 3316, "va": 3317, "\u0120surround": 3318, "\u0120centre": 3319, "\u0120matches": 3320, "\u0120earlier": 3321, "22": 3322, "\u0120standard": 3323, "\u0120senior": 3324, "\u0120settle": 3325, "\u0120practice": 3326, "aught": 3327, "\u01201989": 3328, "\u0120adop": 3329, "\u0120dram": 3330, "\u0120don": 3331, "\u0120Pac": 3332, "cher": 3333, "oys": 3334, "\u0120God": 3335, "\u0120thus": 3336, "\u0120related": 3337, "\u0120Force": 3338, "\u0120winn": 3339, "\u0120Italy": 3340, "\u0120ball": 3341, "\u0120Navy": 3342, "ils": 3343, "\").": 3344, "\u0120opening": 3345, "sych": 3346, "\u0120increased": 3347, "198": 3348, "\u0120staff": 3349, "\u0120newsp": 3350, "\u0120come": 3351, "\u0120battle": 3352, "ams": 3353, "inals": 3354, "\u0120mer": 3355, "mark": 3356, "usband": 3357, "\u0120sometimes": 3358, "\u0120Greek": 3359, "venue": 3360, "\u0120Sir": 3361, "\u0120student": 3362, "\u0120Olympics": 3363, "\u0120destroy": 3364, "\u0120companies": 3365, "\u0120Oper": 3366, "\u0120sat": 3367, "\u0120numerous": 3368, "\u0120lack": 3369, "ola": 3370, "\u0120prior": 3371, "\u0120sum": 3372, "ficult": 3373, "\u0120culture": 3374, "\u0120Angeles": 3375, "\u0120applic": 3376, "earch": 3377, "utch": 3378, "plied": 3379, "\u0120woman": 3380, "action": 3381, "\u0120activities": 3382, "\u0120victory": 3383, "\u0120Life": 3384, "\u0120You": 3385, "asketball": 3386, "\u0120results": 3387, "ano": 3388, "arriage": 3389, "\u0120Brown": 3390, "\u0120cal": 3391, "\u0120location": 3392, "\u0120den": 3393, "\u0120already": 3394, "overs": 3395, "oke": 3396, "\u0120becoming": 3397, "ye": 3398, "\u01201988": 3399, "\u0120Chicago": 3400, "\u0120genus": 3401, "FL": 3402, "\u0120contains": 3403, "\u0120selected": 3404, "\u0120goals": 3405, "\u0120appearance": 3406, "i\u00c4": 3407, "\u0120certain": 3408, "\u0120competed": 3409, "vey": 3410, "unt": 3411, "known": 3412, "itiz": 3413, "\u0120course": 3414, "\u0120older": 3415, "itar": 3416, "\u0120Mexico": 3417, "\u0120Mil": 3418, "\u0120Scot": 3419, "\u0120mur": 3420, "\u0120difficult": 3421, "\u0120emer": 3422, "iled": 3423, "\u0120academ": 3424, "\u0120manager": 3425, "\u0120date": 3426, "\u0120decision": 3427, "anded": 3428, "\u0120Over": 3429, "\u0120majority": 3430, "\u0120running": 3431, "ban": 3432, "\u0120Rob": 3433, "ether": 3434, "\u0120schol": 3435, "reme": 3436, "uments": 3437, "\u0120move": 3438, "lag": 3439, "ands": 3440, "\u0120Summer": 3441, "\u0120environment": 3442, "etic": 3443, "ricult": 3444, "\u0120Bank": 3445, "ulated": 3446, "\u0120Du": 3447, "ees": 3448, "\u0120associated": 3449, "ien": 3450, "eds": 3451, "\u0120scient": 3452, "\u0120Spe": 3453, "\u0120squad": 3454, "\u0120terms": 3455, "\u0120caused": 3456, "writ": 3457, "ylvan": 3458, "well": 3459, "\u0120western": 3460, "\u0120score": 3461, "\u0120wide": 3462, "\u0120minor": 3463, "oma": 3464, "\u0120annual": 3465, "\u0120cases": 3466, "ado": 3467, "\u0120decl": 3468, "\u0120183": 3469, "teen": 3470, "\u0120transport": 3471, "inary": 3472, "\u0120initially": 3473, "\u0120seat": 3474, "\u0120husband": 3475, "\u0120Wal": 3476, "\u0120mountain": 3477, "\u0120hor": 3478, "\u0120Georg": 3479, "\u0120Gra": 3480, "\u00c3\u00a4": 3481, "rying": 3482, "lying": 3483, "\u0120additional": 3484, "ura": 3485, "\u0120better": 3486, "\u0120pen": 3487, "\u0120singer": 3488, "\u0120pie": 3489, "uth": 3490, "\u0120emb": 3491, "isions": 3492, "\u0120operated": 3493, "\u0120artists": 3494, "\u0120thought": 3495, "down": 3496, "\u0120retired": 3497, "mitted": 3498, "\u0120Mass": 3499, "\u0120Bet": 3500, "\u0120income": 3501, "zil": 3502, "\u0120unit": 3503, "\u0120super": 3504, "\u0120writer": 3505, "\u0120keep": 3506, "\u0120Squ": 3507, "\u0120Sl": 3508, "inct": 3509, "\u0120ens": 3510, "\u0120Bo": 3511, "\u0120big": 3512, "\u0120Emp": 3513, "TV": 3514, "\u0120che": 3515, "\u0120prob": 3516, "\u0120percent": 3517, "\u0120legal": 3518, "\u0120Northern": 3519, "\u0120changes": 3520, "airman": 3521, "\u0120attend": 3522, "\u0120trade": 3523, "ublican": 3524, "\u0120passed": 3525, "\u0120collabor": 3526, "\u0120Fort": 3527, "\u0120dom": 3528, "plement": 3529, "\u0120Kn": 3530, "izing": 3531, "\u0120sea": 3532, "ingu": 3533, "\u0120musical": 3534, "uz": 3535, "den": 3536, "\u0120Liber": 3537, "\u0120Mr": 3538, "\u0120Old": 3539, "igan": 3540, "gn": 3541, "\u0120Virginia": 3542, "ylvania": 3543, "\u01201987": 3544, "\u0120forced": 3545, "\u0120supported": 3546, "\u0120financial": 3547, "\u0120abs": 3548, "\u0120Championships": 3549, "\u0120economic": 3550, "\u0120mission": 3551, "\u0120veh": 3552, "\u0120Russia": 3553, "\u0120dig": 3554, "\u0120immedi": 3555, "\u0120chief": 3556, "\u0120threat": 3557, "\u0120Battle": 3558, "\u0120gra": 3559, "\u0120drop": 3560, "\u0120cust": 3561, "\u0120serving": 3562, "\u0120equip": 3563, "\u0120programs": 3564, "\u0120characters": 3565, "\u0120exc": 3566, "enth": 3567, "hy": 3568, "\u0120feature": 3569, "\u0120municipality": 3570, "\u0120bene": 3571, "\u0120forest": 3572, "\u0120interview": 3573, "\u0120di": 3574, "\u0120mostly": 3575, "\u0120Carl": 3576, "\u01201986": 3577, "eg": 3578, "\u0120Techn": 3579, "\u0120limited": 3580, "vention": 3581, "\u0120remains": 3582, "\u0120edition": 3583, "\u0120quarter": 3584, "raw": 3585, "\u0120job": 3586, "\u0120create": 3587, "ift": 3588, "\u0120university": 3589, "\u0120Service": 3590, "\u0120trib": 3591, "23": 3592, "\u0120subsequently": 3593, "\u0120claimed": 3594, "\u0120love": 3595, "\u0120medal": 3596, "ampion": 3597, "bers": 3598, "\u0120Wales": 3599, "\u01201984": 3600, "\u0120evidence": 3601, "\u0120indic": 3602, "yr": 3603, "\u0120syn": 3604, "\u0120nine": 3605, "unior": 3606, "ste": 3607, "\u0120Mod": 3608, "FA": 3609, "anced": 3610, "\u0120famous": 3611, "\u0120arrest": 3612, "\u0120establish": 3613, "\u0120Ele": 3614, "\u0120complete": 3615, "\u0120status": 3616, "\u0120particularly": 3617, "\u0120officer": 3618, "\u0120Mur": 3619, "\u0120saf": 3620, "\u0120Mos": 3621, "\u0120particular": 3622, "\u0120religious": 3623, "\u0120Joseph": 3624, "Amer": 3625, "\u0120science": 3626, "\u0120accom": 3627, "\u0120Back": 3628, "\u0120Under": 3629, "isation": 3630, "\u0120names": 3631, "\u0120earned": 3632, "onse": 3633, "\u0120medical": 3634, "\u0120train": 3635, "\u0120going": 3636, "\u0120hot": 3637, "\u0120Sur": 3638, "\u0120give": 3639, "\u0120Irish": 3640, "change": 3641, "\u0120raised": 3642, "amily": 3643, "\u0120Atlant": 3644, "\u0120management": 3645, "ockey": 3646, "\u0120Brazil": 3647, "ras": 3648, "\u0120Go": 3649, "\u0120increase": 3650, "istics": 3651, "onn": 3652, "cement": 3653, "wide": 3654, "\u0120text": 3655, "\u0120Sub": 3656, "\u0120Assembly": 3657, "\u0120issue": 3658, "spe": 3659, "\u0120Pan": 3660, "ties": 3661, "ux": 3662, "\u0120discuss": 3663, "\u01201985": 3664, "\u0120belong": 3665, "\u0120shot": 3666, "\u0120Research": 3667, "\u0120Sk": 3668, "\u0120er": 3669, "rast": 3670, "cel": 3671, "rief": 3672, "\u0120Class": 3673, "\u0120ded": 3674, "\u0120helped": 3675, "\u0120Games": 3676, "\u0120Province": 3677, "24": 3678, "\u0120Valley": 3679, "\u0120meeting": 3680, "\u0120Den": 3681, "\u0120lines": 3682, "\u0120quick": 3683, "\u0120fle": 3684, "\u0120account": 3685, "\u0120Their": 3686, "standing": 3687, "\u0120Florida": 3688, "\u0120weeks": 3689, "\u0120Wood": 3690, "\u0120Mill": 3691, "\u0120editor": 3692, "\u0120lay": 3693, "\u0120birth": 3694, "\u0120federal": 3695, "\u0120larger": 3696, "\u0120stay": 3697, "\u0120hours": 3698, "\u0120Sa": 3699, "bon": 3700, "\u0120Penns": 3701, "\u0120If": 3702, "\u0120et": 3703, "\u0120news": 3704, "\u0120got": 3705, "\u0120Hon": 3706, "\u0120shown": 3707, "\u0120Aut": 3708, "\u0120presented": 3709, "\u0120council": 3710, "\u0120consider": 3711, "\u0120sports": 3712, "\u0120longer": 3713, "\u0120believed": 3714, "ients": 3715, "\u0120referred": 3716, "bur": 3717, "\u0120bound": 3718, "lo": 3719, "ua": 3720, "\u0120Chief": 3721, "\u0120CD": 3722, "\u0120rap": 3723, "using": 3724, "\u0120leaving": 3725, "tic": 3726, "\u0120failed": 3727, "\u0120vir": 3728, "197": 3729, "stra": 3730, "\u0120Arab": 3731, "\u0120Columb": 3732, "ote": 3733, "\u0120policy": 3734, "\u0120Southern": 3735, "ero": 3736, "\u0120parents": 3737, "\u0120rate": 3738, "\u00c5\u012f": 3739, "\u0120Hot": 3740, "\u0120Despite": 3741, "\u0120Pennsylvania": 3742, "house": 3743, "inet": 3744, "\u0120today": 3745, "anda": 3746, "\u0120offered": 3747, "\u0120response": 3748, "\u0120platform": 3749, "\u0120legisl": 3750, "velopment": 3751, "rim": 3752, "bre": 3753, "iring": 3754, "Th": 3755, "\u0120sister": 3756, "selves": 3757, "\u0120themselves": 3758, "\u0120carried": 3759, "\u0120Spain": 3760, "\u0120word": 3761, "\u0120insp": 3762, "\u0120Ha": 3763, "\u0120minutes": 3764, "\u0120seasons": 3765, "uan": 3766, "\u0120Pacific": 3767, "\u0120composed": 3768, "\u0120instr": 3769, "An": 3770, "aches": 3771, "BA": 3772, "\u0120foreign": 3773, "\u0120eastern": 3774, "\u0120colon": 3775, "\u0120Ol": 3776, "\u0120Win": 3777, "gl": 3778, "\u0120chall": 3779, "\u01201983": 3780, "iance": 3781, "\u0120That": 3782, "obal": 3783, "\u0120uses": 3784, "\u0120happ": 3785, "\u0120Bill": 3786, "\u0120Ann": 3787, "\u0120Ros": 3788, "\u0120step": 3789, "\u0120specific": 3790, "ider": 3791, "\u0120Er": 3792, "\u0120Republican": 3793, "\u0120complet": 3794, "\u0120Cle": 3795, "\u0120remaining": 3796, "atively": 3797, "\u0120arm": 3798, "\u0120phil": 3799, "\u0120graduated": 3800, "\u0120inn": 3801, "\u0120forms": 3802, "\u0120altern": 3803, "itation": 3804, "\u0120norm": 3805, "\u0120overall": 3806, "\u0120Iran": 3807, "\u0120Tour": 3808, "\u0120acquired": 3809, "\u0120contro": 3810, "\u0120arran": 3811, "\u0120Personal": 3812, "\u0120Democratic": 3813, "\u01201940": 3814, "\u0120mention": 3815, "\u0120Def": 3816, "pose": 3817, "\u01201930": 3818, "\u0120Bus": 3819, "\u0120stations": 3820, "\u0120inte": 3821, "\u0120screen": 3822, "\u0120multiple": 3823, "itt": 3824, "\u0120latter": 3825, "\u0120regional": 3826, "\u01201982": 3827, "arters": 3828, "\u0120estim": 3829, "\u0120troops": 3830, "\u0120energy": 3831, "\u0120Ev": 3832, "\u0120du": 3833, "urban": 3834, "see": 3835, "\u0120consists": 3836, "\u0120middle": 3837, "itan": 3838, "\u0120proposed": 3839, "ulf": 3840, "\u0120promoted": 3841, "ols": 3842, "imb": 3843, "azz": 3844, "\u0120detail": 3845, "\u0120guitar": 3846, "\u0120poet": 3847, "\u0120opt": 3848, "\u0120concer": 3849, "\u0120variety": 3850, "\u0120Rou": 3851, "\u0120Martin": 3852, "imum": 3853, "\u0120soft": 3854, "\u0120vote": 3855, "\u0120takes": 3856, "ss": 3857, "\u0120starting": 3858, "\u0120individuals": 3859, "\u0120Ke": 3860, "ato": 3861, "\u0120room": 3862, "\u0120Post": 3863, "isk": 3864, "ati": 3865, "\u0120elections": 3866, "ipl": 3867, "\u0120theory": 3868, "\u01201972": 3869, "\u01201945": 3870, "\u0120department": 3871, "\u0120box": 3872, "\u0120mainly": 3873, "80": 3874, "\u0120Jewish": 3875, "\u0120surface": 3876, "itors": 3877, "\u0120hospital": 3878, "\u01201979": 3879, "\u00c3\u00b3n": 3880, "\u0120Science": 3881, "uge": 3882, "col": 3883, "\u0120native": 3884, "\u0120separate": 3885, "\u0120Inc": 3886, "uman": 3887, "enty": 3888, "\u0120mach": 3889, "i\u00c4\u0129": 3890, "bury": 3891, "\u0120Railway": 3892, "ication": 3893, "\u0120Both": 3894, "ault": 3895, "\u0120meaning": 3896, "\u0120Sun": 3897, "ID": 3898, "27": 3899, "\u0120Out": 3900, "\u0120Pak": 3901, "\u0120ant": 3902, "\u0120lic": 3903, "\u0120Mountain": 3904, "aters": 3905, "\u0120Fred": 3906, "\u0120Times": 3907, "\u012060": 3908, "\u0120fort": 3909, "\u0120sequ": 3910, "\u0120Haw": 3911, "\u0120batt": 3912, "ache": 3913, "\u0120influence": 3914, "\u0120targ": 3915, "play": 3916, "\u00c3\u00a8": 3917, "\u0120prevent": 3918, "\u0120recording": 3919, "reater": 3920, "\u0120provides": 3921, "\u0120Do": 3922, "\u0120demon": 3923, "\u0120=": 3924, "\u0120adj": 3925, "\u0120label": 3926, "\u0120experience": 3927, "\u0120male": 3928, "iy": 3929, "\u0120Mo": 3930, "\u0120appearances": 3931, "\u0120depart": 3932, "\u0120require": 3933, "\u0120Book": 3934, "\u0120marriage": 3935, "\u0120Cla": 3936, "\u0120Mic": 3937, "\u0120society": 3938, "\u0120Inf": 3939, "\u0120continu": 3940, "ucle": 3941, "mond": 3942, "\u0120succeed": 3943, "\u0120Lord": 3944, "\u0120turned": 3945, "ervation": 3946, "\u0120Sar": 3947, "\u0120peak": 3948, "\u0120temper": 3949, "\u0120eth": 3950, "\u0120Britain": 3951, "\u0120always": 3952, "\u0120sched": 3953, "\u0120chap": 3954, "\u0120bring": 3955, "\u0120Governor": 3956, "\u0120Poland": 3957, "\u0120Biography": 3958, "\u0120poor": 3959, "\u0120houses": 3960, "ffic": 3961, "\u01201976": 3962, "\u0120politician": 3963, "\u0120Main": 3964, "\u0120Social": 3965, "American": 3966, "emporary": 3967, "\u0120charg": 3968, "ady": 3969, "\u0120done": 3970, "ysis": 3971, "\u0120Sil": 3972, "\u0120Gar": 3973, "\u0120Mat": 3974, "\u0120McC": 3975, "\u0120heavy": 3976, "\u0120citiz": 3977, "\u0120Conference": 3978, "\u0120Empire": 3979, "lit": 3980, "\u0120Up": 3981, "\u0120Jud": 3982, "\u0120More": 3983, "\u01201974": 3984, "aily": 3985, "\u0120pil": 3986, "\u0120conditions": 3987, "\u0120professor": 3988, "\u0120arrived": 3989, "\u0120source": 3990, "\u0120brief": 3991, "\u01201981": 3992, "cription": 3993, "\u01201920": 3994, "\u0120Director": 3995, "war": 3996, "\u0120organiz": 3997, "\u01201968": 3998, "ously": 3999, "\u0120bomb": 4000, "\u0120partn": 4001, "\u0120Line": 4002, "ette": 4003, "\u012065": 4004, "\u0120recent": 4005, "uty": 4006, "uries": 4007, "26": 4008, "mission": 4009, "\u0120bridge": 4010, "\u0120finally": 4011, "\u0120Queen": 4012, "\u0120categ": 4013, "\u0120historical": 4014, "irit": 4015, "\u0120Radio": 4016, "\u0120Tw": 4017, "ession": 4018, "vement": 4019, "oir": 4020, "\u0120#": 4021, "\u0120might": 4022, "struction": 4023, "ga": 4024, "\u0120diss": 4025, "\u0120serve": 4026, "\u0120Dutch": 4027, "\u0120celebr": 4028, "\u0120Fre": 4029, "\u0120despite": 4030, "\u0120operation": 4031, "\u0120crew": 4032, "\u0120nearby": 4033, "\u0120Eastern": 4034, "\u0120responsible": 4035, "\u0120Oh": 4036, "\u0120cities": 4037, "\u0120eas": 4038, "\u0120ships": 4039, "\u0120Land": 4040, "\u0120Ro": 4041, "fect": 4042, "\u0120nearly": 4043, "\u0120appears": 4044, "\u0120records": 4045, "\u0120managed": 4046, "gian": 4047, "\u0120mem": 4048, "\u0120Jim": 4049, "\u01201975": 4050, "\u0120ver": 4051, "\u0120fifth": 4052, "\u0120administrative": 4053, "\u0120problems": 4054, "\u01201978": 4055, "\u0120log": 4056, "iger": 4057, "\u0120Arg": 4058, "\u0120dise": 4059, "ares": 4060, "inated": 4061, "ging": 4062, "\u0120Edward": 4063, "\u0120Cam": 4064, "unction": 4065, "\u0120Bow": 4066, "itude": 4067, "\u0120Ill": 4068, "\u0120affect": 4069, "arden": 4070, "\u0120increasing": 4071, "ken": 4072, "\u0120plans": 4073, "\u0120los": 4074, "\u0120technology": 4075, "\u0120Vol": 4076, "\u0120Mah": 4077, "\u0120fellow": 4078, "ify": 4079, "28": 4080, "\u0120constructed": 4081, "\u0120transferred": 4082, "\u0120asked": 4083, "\u0120issued": 4084, "\u0120\u00c2\u00a3": 4085, "\u0120depend": 4086, "\u0120Health": 4087, "\u0120tracks": 4088, "\u0120Civil": 4089, "wan": 4090, "\u0120capac": 4091, "\u0120cell": 4092, "\u0120Carolina": 4093, "\u0120extended": 4094, "\u0120merg": 4095, "\u0120enough": 4096, "\u0120cultural": 4097, "\u0120Lee": 4098, "\u0120producer": 4099, "emorial": 4100, "lah": 4101, "\u0120Sol": 4102, "\u0120Team": 4103, "\u0120!": 4104, "\u0120Big": 4105, "\u0120participated": 4106, "\u0120Dou": 4107, "\u0120passeng": 4108, "ali": 4109, "antry": 4110, "\u0120decla": 4111, "\u0120Series": 4112, "\u0120shoot": 4113, "\u0120Another": 4114, "\u0120Bas": 4115, "\u0120Cro": 4116, "\u0120likely": 4117, "\u0120told": 4118, "\u0120expla": 4119, "umed": 4120, "\u0120Latin": 4121, "\u0120Prem": 4122, "wa": 4123, "\u0120mechan": 4124, "\u0120discovered": 4125, "\u01201973": 4126, "29": 4127, "\u0120residents": 4128, "nding": 4129, "\u0120webs": 4130, "\u0120Spr": 4131, "\u0120saying": 4132, "\u0120Jer": 4133, "\u0120rural": 4134, "iana": 4135, "\u01201977": 4136, "\u0120movie": 4137, "\u0120Long": 4138, "ounts": 4139, "\u0120Gal": 4140, "\u0120square": 4141, "\u0120necess": 4142, "\u0120face": 4143, "ensity": 4144, "\u0120180": 4145, "\u0120makes": 4146, "\u0120products": 4147, "\u0120border": 4148, "oura": 4149, "RA": 4150, "ugby": 4151, "\u0120Middle": 4152, "\u0120directly": 4153, "\u0120youth": 4154, "bit": 4155, "\u0120comment": 4156, "\u0120pick": 4157, "\u0120incorpor": 4158, "ental": 4159, "\u0120Development": 4160, "\u0120leave": 4161, "\u0120covered": 4162, "\u01201971": 4163, "light": 4164, "\u0120/": 4165, "\u0120pra": 4166, "\u0120wanted": 4167, "esh": 4168, "\u0120cause": 4169, "awa": 4170, "\u0120primarily": 4171, "undred": 4172, "\u0120prop": 4173, "CC": 4174, "rupt": 4175, "\u0120People": 4176, "\u0120elements": 4177, "ao": 4178, "\u0120Tri": 4179, "\u0120Major": 4180, "\u0120levels": 4181, "\u0120Scotland": 4182, "\u0120nature": 4183, "\u01201969": 4184, "\u0120i": 4185, "\u0120Broad": 4186, "\u0120Theatre": 4187, "oston": 4188, "igr": 4189, "peror": 4190, "\u0120brand": 4191, "\u0120prin": 4192, "bl": 4193, "\u0120museum": 4194, "ledge": 4195, "\u0120domin": 4196, "\u0120psych": 4197, ");": 4198, "\u0120honor": 4199, "\u0120sla": 4200, "\u0120whole": 4201, "\u0120oil": 4202, "\u0120Portug": 4203, "\u0120Hel": 4204, "\u0120III": 4205, "\u0120alongside": 4206, "itted": 4207, "\u0120Ty": 4208, "iant": 4209, "\u0120province": 4210, "\u0120Fer": 4211, "\u0120candidate": 4212, "ador": 4213, "ki": 4214, "\u0120Are": 4215, "gypt": 4216, "\u0120firm": 4217, "\u0120newspaper": 4218, "\u0120Foundation": 4219, "\u0120premi": 4220, "mm": 4221, "poration": 4222, "\u0120progress": 4223, "ims": 4224, "\u0120Young": 4225, "\u01201967": 4226, "\u0120corn": 4227, "add": 4228, "\u0120sn": 4229, "\u0120Bre": 4230, "\u0120projects": 4231, "\u0120Creek": 4232, "\u0120our": 4233, "ca": 4234, "class": 4235, "uten": 4236, "\u0120households": 4237, "\u0120except": 4238, "\u0120grew": 4239, "\u0120ult": 4240, "\u0120neighbor": 4241, "\u0120whether": 4242, "\u0120Bh": 4243, "ulations": 4244, "\u0120officially": 4245, "\u0120Coast": 4246, "\u0120Order": 4247, "\u0120lives": 4248, "\u0120numbers": 4249, "\u0120inh": 4250, "yan": 4251, "cean": 4252, "\u0120How": 4253, "\u0120double": 4254, "\u0120master": 4255, "\u0120Av": 4256, "\u0120display": 4257, "\u0120think": 4258, "rice": 4259, "\u0120here": 4260, "\u0120address": 4261, "\u012035": 4262, "\u0120chem": 4263, "ection": 4264, "\u0120initial": 4265, "cont": 4266, "\u0120basketball": 4267, "\u0120parish": 4268, "\u0120paper": 4269, "iro": 4270, "\u0120walk": 4271, "stitu": 4272, "ening": 4273, "illed": 4274, "\u0120ess": 4275, "\u0120Mot": 4276, "\u0120Tro": 4277, "\u012045": 4278, "\u0120value": 4279, "\u0120spread": 4280, "ech": 4281, "\u0120renamed": 4282, "ications": 4283, "\u0120Senate": 4284, "\u0120females": 4285, "\u0120idea": 4286, "secut": 4287, "burgh": 4288, "resp": 4289, "ersey": 4290, "\u0120concept": 4291, "portun": 4292, "\u0120Jo": 4293, "\u0120actor": 4294, "irmed": 4295, "\u0120officers": 4296, "\u01201964": 4297, "\u0120share": 4298, "AS": 4299, "\u0120headqu": 4300, "\u0120conducted": 4301, "\u0120notable": 4302, "\u0120Islam": 4303, "\u0120Philipp": 4304, "\u0120kind": 4305, "aped": 4306, "\u0120Secretary": 4307, "osoph": 4308, "emic": 4309, "\u0120br": 4310, "\u0120prominent": 4311, "\u0120pow": 4312, "kins": 4313, "ources": 4314, "osh": 4315, "\u0120continue": 4316, "\u0120univers": 4317, "\u0120speed": 4318, "ansas": 4319, "\u0120Star": 4320, "omer": 4321, "\u0120confl": 4322, "70": 4323, "\u0120impact": 4324, "\u0120positive": 4325, "\u0120conver": 4326, "\u0120Uk": 4327, "\u0120heart": 4328, "\u0120deep": 4329, "isher": 4330, "\u0120Egypt": 4331, "\u0120Men": 4332, "\u0120Francisco": 4333, "onic": 4334, "\u0120lies": 4335, "\u0120friends": 4336, "\u0120path": 4337, "ny": 4338, "\u0120divided": 4339, "\u0120Dis": 4340, "\u0120Boston": 4341, "\u0120produce": 4342, "\u0120Hy": 4343, "90": 4344, "]]": 4345, "Ar": 4346, "\u0120Rel": 4347, "\u0120reason": 4348, "ittle": 4349, "\u0120Hung": 4350, "ocated": 4351, "ully": 4352, "\u0120rule": 4353, "\u0120drug": 4354, "\u0120Also": 4355, "ias": 4356, "more": 4357, "aya": 4358, "\u0120ordered": 4359, "BS": 4360, "rich": 4361, "\u0120Sund": 4362, "\u0120Prince": 4363, "\u0120Add": 4364, "\u0120Asian": 4365, "\u0120amount": 4366, "\u0120foot": 4367, "town": 4368, "\u0120Asia": 4369, "iano": 4370, "\u0120nation": 4371, "\u0120Centre": 4372, "enes": 4373, "\u0120Jul": 4374, "\u0120laws": 4375, "\u0120growth": 4376, "\u0120workers": 4377, "\u0120Ram": 4378, "tainment": 4379, "rison": 4380, "\u0120Luc": 4381, "\u0120letter": 4382, "\u0120planned": 4383, "\u0120basis": 4384, "\u0120dark": 4385, "\u0120revealed": 4386, "\u0120removed": 4387, "\u0120Williams": 4388, "\u0120highly": 4389, "\u0120soldiers": 4390, "\u0120intended": 4391, "\u0120Jones": 4392, "isters": 4393, "\u0120So": 4394, "ih": 4395, "\u0120Station": 4396, "\u0120quickly": 4397, "pla": 4398, "akers": 4399, "ferences": 4400, "\u0120follows": 4401, "\u01201944": 4402, "\u0120smaller": 4403, "\u0120Bob": 4404, "aka": 4405, "\u0120stories": 4406, "\u0120administration": 4407, "\u01201965": 4408, "abeth": 4409, "adel": 4410, "icted": 4411, "\u0120Sat": 4412, "orship": 4413, "Le": 4414, "\u0120Bul": 4415, "mir": 4416, "\u0120BC": 4417, "met": 4418, "\u0120ancient": 4419, "ounds": 4420, "gar": 4421, "\u0120Kent": 4422, "\u0120maintain": 4423, "\u0120Top": 4424, "\u0120effects": 4425, "\u0120pan": 4426, "ributed": 4427, "\u0120initi": 4428, "\u0120dead": 4429, "AA": 4430, "nds": 4431, "phy": 4432, "\u0120potential": 4433, "\u0120Michigan": 4434, "\u0120strateg": 4435, "nel": 4436, "\u0120autom": 4437, "\u0120collect": 4438, "\u0120News": 4439, "\u0120Os": 4440, "35": 4441, "aging": 4442, "\u0120talk": 4443, "\u0120Johnson": 4444, "\u0120channel": 4445, "ellig": 4446, "ables": 4447, "\u0120Ur": 4448, "bed": 4449, "\u0120Charl": 4450, "\u0120capacity": 4451, "\u0120implement": 4452, "\u0120Polish": 4453, "\u0120security": 4454, "\u0120median": 4455, "iga": 4456, "\u0120activity": 4457, "\u0120sal": 4458, "\u0120clear": 4459, "\u0120words": 4460, "\u0120overs": 4461, "\u0120Bor": 4462, "\u0120withd": 4463, "\u0120Az": 4464, "dney": 4465, "\u0120extra": 4466, "\u01201966": 4467, "\u0120Scottish": 4468, "\u0120scene": 4469, "\u0120efforts": 4470, "\u0120CO": 4471, "\u0120reform": 4472, "\u0120purs": 4473, "\u0120Fe": 4474, "\u0120stars": 4475, "\u0120dedicated": 4476, "\u0120era": 4477, "\u0120sail": 4478, "\u0120executive": 4479, "inem": 4480, "ube": 4481, "oration": 4482, "ieuten": 4483, "\u0120moving": 4484, "\u0120races": 4485, "\u0120Four": 4486, "\u0120touch": 4487, "\u0120opportun": 4488, "\u0120facilities": 4489, "\u0120Cross": 4490, "\u0120BBC": 4491, "\u0120System": 4492, "law": 4493, "\u0120purchased": 4494, "\u0120Bal": 4495, "ript": 4496, "\u0120Stan": 4497, "\u0120Sea": 4498, "\u0120defeat": 4499, "\u0120Est": 4500, "\u0120Camb": 4501, "\u0120immediately": 4502, "ricket": 4503, "45": 4504, "\u0120commonly": 4505, "orning": 4506, "\u0120yet": 4507, "\u0120agricult": 4508, "\u0120awards": 4509, "\u0120treatment": 4510, "\u0120Jac": 4511, "\u0120assistant": 4512, "\u0120Engine": 4513, "\u0120settlement": 4514, "\u0120solo": 4515, "itled": 4516, "\u0120Avenue": 4517, "\u0120Tod": 4518, "\u0120places": 4519, "istered": 4520, "\u0120Corps": 4521, "\u0120Mu": 4522, "\u0120Sand": 4523, "\u0120Office": 4524, "\u0120historic": 4525, "\u0120assigned": 4526, "\u0120ri": 4527, "astic": 4528, "\u0120Ohio": 4529, "\u0120behav": 4530, "\u0120branch": 4531, "\u0120respectively": 4532, "sen": 4533, "\u0120Born": 4534, "\u0120upper": 4535, "\u0120recover": 4536, "ederation": 4537, "\u0120Muslim": 4538, "\u0120floor": 4539, "\u0120Ox": 4540, "\u0120forward": 4541, "\u0120\u00c5": 4542, "ko": 4543, "rance": 4544, "vis": 4545, "\u0120institut": 4546, "\u0120contact": 4547, "\u0120counter": 4548, "\u0120Ly": 4549, "stone": 4550, "\u0120repe": 4551, "\u0120Tem": 4552, "isted": 4553, "yard": 4554, "\u0120Song": 4555, "\u0120protect": 4556, "\u0120Econom": 4557, "\u0120dyn": 4558, "no": 4559, "\u0120Hospital": 4560, "\u0120Columbia": 4561, "\u0120question": 4562, "ronic": 4563, "\u0120Matt": 4564, "\u0120types": 4565, "\u0120Earth": 4566, "ima": 4567, "\u0120Of": 4568, "\u0120footballer": 4569, "\u0120Gall": 4570, "iest": 4571, "\u00c3\u00a7": 4572, "\u0120Head": 4573, "\u0120Mid": 4574, "oud": 4575, "nam": 4576, "\u0120[[": 4577, "\u0120Route": 4578, "\u0120agreed": 4579, "greg": 4580, "\u0120focus": 4581, "\u0120direction": 4582, "\u0120gas": 4583, "\u0120Gh": 4584, "\u0120Eliz": 4585, "ieutenant": 4586, "\u0120FC": 4587, "\u0120street": 4588, "\u0120inside": 4589, "erb": 4590, "chester": 4591, "\u0120bird": 4592, "\u0120Tim": 4593, "dro": 4594, "apers": 4595, "\u0120adopted": 4596, "ela": 4597, "\u0120attention": 4598, "omy": 4599, "\u0120gained": 4600, "\u0120article": 4601, "can": 4602, "\u0120ang": 4603, "\u0120estimated": 4604, "anks": 4605, "\u0120housing": 4606, "\u0120Dev": 4607, "\u0120destroyed": 4608, "\u0120conne": 4609, "rics": 4610, "\u0120physical": 4611, "\u0120declared": 4612, "\u0120Sydney": 4613, "\u0120reach": 4614, "\u0120uns": 4615, "\u0120Van": 4616, "\u0120table": 4617, "\u0120Wind": 4618, "\u0120giving": 4619, "\u0120roles": 4620, "\u0120needed": 4621, "ja": 4622, "\u0120titled": 4623, "\u0120Federal": 4624, "\u0120favor": 4625, "\u0120winner": 4626, "izes": 4627, "edd": 4628, "alle": 4629, "\u0120featuring": 4630, "\u0120organized": 4631, "\u0120widely": 4632, "thing": 4633, "obile": 4634, "\u0120stra": 4635, "\u0120format": 4636, "ulpt": 4637, "\u0120suffered": 4638, "andon": 4639, "\u0120website": 4640, "\u0120lif": 4641, "ips": 4642, "\u0120leaders": 4643, "ropical": 4644, "\u0120stren": 4645, "\u0120store": 4646, "\u0120largely": 4647, "win": 4648, "\u0120Georgia": 4649, "\u0120feel": 4650, "emet": 4651, "\u0120Pop": 4652, "Al": 4653, "ila": 4654, "ilding": 4655, "\u0120Kar": 4656, "\u0120compared": 4657, "\u0120comes": 4658, "\u0120perman": 4659, "\u0120Di": 4660, "\u0120Viet": 4661, "\u0120Step": 4662, "grad": 4663, "\u0120Kong": 4664, "\u0120Mount": 4665, "\u0120gain": 4666, "\u0120charge": 4667, "\u0120online": 4668, "\u0120cerem": 4669, "respond": 4670, "\u0120Ott": 4671, "\u0120color": 4672, "\u0120Each": 4673, "\u0120academic": 4674, "\u01201942": 4675, "\u0120Orig": 4676, "\u0120Jes": 4677, "includ": 4678, "akh": 4679, "\u0120mic": 4680, "ricts": 4681, "chen": 4682, "\u0120communities": 4683, "\u00c5\u0124": 4684, "\u0120accepted": 4685, "\u0120problem": 4686, "\u0120typically": 4687, "\u0120Tam": 4688, "\u0120Bang": 4689, "\u0120clubs": 4690, "\u0120controvers": 4691, "\u0120weap": 4692, "\u0120seek": 4693, "\u0120approach": 4694, "\u0120leaves": 4695, "\u0120green": 4696, "duce": 4697, "\u0120semi": 4698, "\u0120vac": 4699, "\u0120estate": 4700, "\u0120ability": 4701, "\u0120Jackson": 4702, "\u0120votes": 4703, "\u012080": 4704, "ira": 4705, "\u0120drama": 4706, "\u0120reviews": 4707, "\u0120territory": 4708, "\u0120agreement": 4709, "agement": 4710, "\u0120Polit": 4711, "\u0120sources": 4712, "\u0120occurred": 4713, "\u0120serves": 4714, "\u0120captured": 4715, "\u0120hundred": 4716, "\u0120Cy": 4717, "umber": 4718, "\u0120municipal": 4719, "\u0120Alexander": 4720, "\u0120rat": 4721, "\u01201963": 4722, "\u0120Hong": 4723, "ora": 4724, "\u0120\u00e2\u0122\u0136": 4725, "etts": 4726, "\u0120wing": 4727, "\u0120singles": 4728, "\u0120Berlin": 4729, "\u0120Game": 4730, "\u0120stone": 4731, "\u0120Ep": 4732, "\u0120Water": 4733, "\u01201948": 4734, "\u0120elev": 4735, "\u0120rare": 4736, "\u01201962": 4737, "\u0120probably": 4738, "ograp": 4739, "\u0120Three": 4740, "stein": 4741, "\u0120electric": 4742, "\u0120quality": 4743, "\u0120Ok": 4744, "yer": 4745, "\u0120Olympic": 4746, "\u0120slow": 4747, "\u0120symb": 4748, "\u0120Open": 4749, "\u0120resulted": 4750, "\u0120operating": 4751, "\u0120Cr": 4752, "zy": 4753, "enge": 4754, "\u0120languages": 4755, "\u00c5\u00a1": 4756, "\u0120Ministry": 4757, "\u0120ut": 4758, "nic": 4759, "ogue": 4760, "\u0120parliament": 4761, "Sh": 4762, "\u0120CE": 4763, "\u0120fa": 4764, "\u0120target": 4765, "\u0120Card": 4766, "\u0120recently": 4767, "\u0120union": 4768, "\u0120Sever": 4769, "\u0120max": 4770, "\u0120Cult": 4771, "196": 4772, "\u0120miles": 4773, "\u0120scholars": 4774, "rical": 4775, "\u0120Before": 4776, "ounded": 4777, "\u0120apart": 4778, "\u0120card": 4779, "\u0120nucle": 4780, "emy": 4781, "\u0120thr": 4782, "AC": 4783, "onto": 4784, "\u0120Show": 4785, "\u0120blood": 4786, "\u0120amb": 4787, "ancy": 4788, "\u0120confirmed": 4789, "\u0120champion": 4790, "\u0120offers": 4791, "ennis": 4792, "\u0120computer": 4793, "ried": 4794, "\u0120beat": 4795, "\u0120hosted": 4796, "\u0120retire": 4797, "\u0120Argent": 4798, "\u0120citizens": 4799, "\u0120metal": 4800, "\u0120pit": 4801, "75": 4802, "\u0120Pen": 4803, "\u0120combined": 4804, "\u0120coin": 4805, "inois": 4806, "\u0120therefore": 4807, "gu": 4808, "icine": 4809, "hat": 4810, "\u0120Far": 4811, "\u0120minister": 4812, "\u01201941": 4813, "\u0120leadership": 4814, "fort": 4815, "\u0120split": 4816, "perial": 4817, "arent": 4818, "\u0120equipment": 4819, "ropol": 4820, "\u0120Ver": 4821, "oles": 4822, "\u0120exam": 4823, "\u0120heav": 4824, "\u0120Bern": 4825, "\u0120trial": 4826, "ione": 4827, "\u0120179": 4828, "\u0120dance": 4829, "\u0120presence": 4830, "\u0120ly": 4831, "\u0120Field": 4832, "\u00c3\u00b1": 4833, "\u0120acting": 4834, "\u0120ice": 4835, "\u0120silver": 4836, "\u0120Brook": 4837, "\u0120conclud": 4838, "\u0120positions": 4839, "ski": 4840, "\u0120conference": 4841, "\u0120taught": 4842, "achus": 4843, "\u0120expanded": 4844, ".)": 4845, "\u0120Program": 4846, "\u0120Professor": 4847, "\u0120concent": 4848, "hew": 4849, "\u0120pet": 4850, "\u0120Historic": 4851, "\u0120interp": 4852, "\u0120Ak": 4853, "ivity": 4854, "\u0120Jean": 4855, "icient": 4856, "\u0120Max": 4857, "\u01201946": 4858, "\u0120habit": 4859, "\u0120Jersey": 4860, "\u0120reduced": 4861, "roll": 4862, "\u0120Background": 4863, "\u0120recognized": 4864, "mad": 4865, "\u01201943": 4866, "\u0120coming": 4867, "\u0120Rome": 4868, "\u0120identified": 4869, "\u0120albums": 4870, "\u0120cat": 4871, "lab": 4872, "with": 4873, "\u0120Ken": 4874, "\u012070": 4875, "\u0120affili": 4876, "\u0120newly": 4877, "ses": 4878, "bo": 4879, "\u01201961": 4880, "\u0120sens": 4881, "\u0120fell": 4882, "han": 4883, "\u0120constitu": 4884, "rane": 4885, "\u0120Andrew": 4886, "\u0120peace": 4887, "oral": 4888, "\u0120plants": 4889, "\u0120Justice": 4890, "\u0120Raj": 4891, "\u0120industrial": 4892, "\u0120sevent": 4893, "aces": 4894, "\u0120distance": 4895, "\u0120recon": 4896, "IS": 4897, "cul": 4898, "edom": 4899, "ella": 4900, "het": 4901, "\u0120abandon": 4902, "onia": 4903, "\u0120coal": 4904, "ishes": 4905, "\u0120content": 4906, "\u0120Victoria": 4907, "500": 4908, "\u0120murder": 4909, "\u0120Illinois": 4910, "\u0120pressure": 4911, "\u0120Prime": 4912, "\u0120Corporation": 4913, "\u0120joint": 4914, "\u0120har": 4915, "\u0120expected": 4916, "\u0120performances": 4917, "\u0120owner": 4918, "\u0120Sports": 4919, "\u0120distribution": 4920, "\u0120flight": 4921, "illy": 4922, "miss": 4923, "\u0120mixed": 4924, "hens": 4925, "\u0120teacher": 4926, "\u0120resident": 4927, "\u0120Ray": 4928, "\u0120Form": 4929, "da": 4930, "\u0120voice": 4931, "\u0120Ash": 4932, "ctors": 4933, "\u0120Mas": 4934, "istance": 4935, "olved": 4936, "\u0120Ca": 4937, "\u0120(,": 4938, "\u0120parties": 4939, "\u0120Ell": 4940, "\u0120recomm": 4941, "\u0120Among": 4942, "inity": 4943, "\u0120labor": 4944, "\u0120scoring": 4945, "\u0120captain": 4946, "mann": 4947, "cles": 4948, "\u0120couple": 4949, "\u0120fr": 4950, "pass": 4951, "\u0120buried": 4952, "\u01201939": 4953, "\u0120Elizabeth": 4954, "\u0120Supreme": 4955, "encies": 4956, "\u0120Villa": 4957, "li": 4958, "set": 4959, "\u0120Kenn": 4960, "estic": 4961, "\u00c3\u00a1n": 4962, "\u0120mentioned": 4963, "\u0120Child": 4964, "\u0120Brig": 4965, "\u0120Tre": 4966, "\u0120correspond": 4967, "cend": 4968, "\u0120urban": 4969, "\u0120titles": 4970, "\u0120mill": 4971, "\u0120critical": 4972, "\u0120cars": 4973, "\u0120yards": 4974, "\u01201956": 4975, "\u0120rules": 4976, "\u0120Geography": 4977, "aug": 4978, "\u0120Univers": 4979, "\u0120distinct": 4980, "33": 4981, "ronze": 4982, "\u0120granted": 4983, "\u0120Blue": 4984, "\u0120Base": 4985, "\u0120Queens": 4986, "\u0120campus": 4987, "\u0120pal": 4988, "ansion": 4989, "\u0120wa": 4990, "mas": 4991, "\u0120Det": 4992, "\u0120models": 4993, "\u0120committee": 4994, "\u0120nominated": 4995, "achusetts": 4996, "\u0120Corn": 4997, "\u0120Hind": 4998, "resh": 4999, "\u0120sales": 5000, "wick": 5001, "\u0120felt": 5002, "\u0120Str": 5003, "\u0120episodes": 5004, "\u0120Jr": 5005, "osen": 5006, "TA": 5007, "oted": 5008, "\u0120ranked": 5009, "\u0120organizations": 5010, "\u0120resulting": 5011, "worth": 5012, "\u0120elim": 5013, "\u0120digital": 5014, "gers": 5015, "\u0120literature": 5016, "\u0120Common": 5017, "wing": 5018, "\u0120doub": 5019, "\u0120Bishop": 5020, "\u0120strugg": 5021, "\u0120spons": 5022, "ctoral": 5023, "\u0120losing": 5024, "\u0120bad": 5025, "\u0120flag": 5026, "\u0120paid": 5027, "\u0120twice": 5028, "\u0120males": 5029, "ef": 5030, "ibly": 5031, "\u0120Turk": 5032, "\u0120damage": 5033, "=\"": 5034, "\u0120Korea": 5035, "urt": 5036, "New": 5037, "\u0120thous": 5038, "\u0120showed": 5039, "uled": 5040, "\u0120Massachusetts": 5041, "\u01201947": 5042, "\u0120surrounding": 5043, "\u0120stre": 5044, "\u0120Li": 5045, "\u0120suggested": 5046, "\u0120Wild": 5047, "yal": 5048, "hemat": 5049, "\u0120continues": 5050, "\u0120prep": 5051, "iform": 5052, "\u0120Represent": 5053, "\u0120obtained": 5054, "\u0120creation": 5055, "\u0120serious": 5056, "itness": 5057, "emetery": 5058, "range": 5059, "\u0120Special": 5060, "\u0120condition": 5061, "ologist": 5062, "\u0120Anton": 5063, "vest": 5064, "\u0120provin": 5065, "\u012090": 5066, "\u0120motor": 5067, "\u0120ir": 5068, "\u0120contemporary": 5069, "\u0120Islands": 5070, "\u0120vess": 5071, "\u0120stream": 5072, "\u0120sculpt": 5073, "\u0120Stadium": 5074, "iat": 5075, "riz": 5076, "amber": 5077, "\u0120providing": 5078, "\u0120secondary": 5079, "\u0120Pakistan": 5080, "\u0120kept": 5081, "\u0120recommend": 5082, "\u0120Revolution": 5083, "pton": 5084, "\u0120Crit": 5085, "\u01201958": 5086, "\u0120contest": 5087, "\u0120Ba": 5088, "\u0120pack": 5089, "outheast": 5090, "kee": 5091, "ager": 5092, "\u0120density": 5093, "\u0120painting": 5094, "\u0120Administ": 5095, "\u0120formation": 5096, "bourne": 5097, "\u0120paint": 5098, "\u0120Bec": 5099, "\u0120mess": 5100, "\u0120receive": 5101, "\u0120Cat": 5102, "\u0120disease": 5103, "\u0120Tay": 5104, "\u0120officials": 5105, "aly": 5106, "\u0120figure": 5107, "\u01201959": 5108, "\u0120fix": 5109, "which": 5110, "gs": 5111, "\u0120sexual": 5112, "ighter": 5113, "\u0120spring": 5114, "\u0120pattern": 5115, "uer": 5116, "unte": 5117, "\u0120nort": 5118, "\u0120analysis": 5119, "\u0120seats": 5120, "\u0120greater": 5121, "\u0120fast": 5122, "\u0120Athlet": 5123, "water": 5124, "adelph": 5125, "ented": 5126, "urer": 5127, "\u0120twenty": 5128, "\u0120actually": 5129, "\u0120Organ": 5130, "\u0120surn": 5131, "\u0120Daniel": 5132, "rence": 5133, "%)": 5134, "\u0120wild": 5135, "\u0120sites": 5136, "\u0120Library": 5137, "\u0120becomes": 5138, "\u0120inform": 5139, "\u0120Offic": 5140, "alion": 5141, "ervative": 5142, "\u0120Bridge": 5143, "\u0120govern": 5144, "nes": 5145, "\u0120Aff": 5146, "\u0120Swedish": 5147, "\u0120knowledge": 5148, "\u0120chairman": 5149, "ulty": 5150, "\u0120Nether": 5151, "\u0120Good": 5152, "\u0120blue": 5153, "\u0120hop": 5154, "\u0120slight": 5155, "\u0120Little": 5156, "\u0120Police": 5157, "odies": 5158, "\u0120growing": 5159, "\u0120Love": 5160, "\u0120su": 5161, "\u0120Home": 5162, "\u0120Cop": 5163, "\u0120Jeff": 5164, "MA": 5165, "agon": 5166, "\u0120Enter": 5167, "\u0120purpose": 5168, "\u0120situated": 5169, "\u0120finish": 5170, "\u0120injury": 5171, "FC": 5172, "\u0120Lew": 5173, "\u0120comedy": 5174, "\u01201957": 5175, "\u0120instrument": 5176, "\u0120propos": 5177, "thur": 5178, "\u0120Clark": 5179, "olid": 5180, "\u0120Media": 5181, "\u0120association": 5182, "adelphia": 5183, "\u0120Highway": 5184, "\u0120teaching": 5185, "gal": 5186, "ancing": 5187, "\u0120task": 5188, "book": 5189, "\u0120succeeded": 5190, "\u0120claims": 5191, "\u0120Independ": 5192, "\u0120Toronto": 5193, "\u0120search": 5194, "\u012036": 5195, "ez": 5196, "\u0120Lim": 5197, "\u012032": 5198, "\u0120tried": 5199, "\u0120authorities": 5200, "\u0120Hor": 5201, "\u0120marked": 5202, "western": 5203, "century": 5204, "\u0120designated": 5205, "\u0120prec": 5206, "\u0120pict": 5207, "\u0120Guard": 5208, "\u0120Fle": 5209, "36": 5210, "38": 5211, "\u0120Conf": 5212, "\u0120cells": 5213, "\u0120versions": 5214, "\u0120applied": 5215, "\u0120alone": 5216, "\u0120cab": 5217, "iced": 5218, "\u0120true": 5219, "\u00c3\u00b8": 5220, "\u0120column": 5221, "sex": 5222, "\u0120ce": 5223, "\u0120|": 5224, "\u0120Rog": 5225, "\u0120politics": 5226, "\u0120Ven": 5227, "\u0120opposition": 5228, "\u0120Chap": 5229, "\u0120wall": 5230, "ba": 5231, "\u0120Ira": 5232, "\u0120traffic": 5233, "\u0120tim": 5234, "EC": 5235, "\u0120Brad": 5236, "\u0120FI": 5237, "\u0120boy": 5238, "\u0120Serb": 5239, "\u0120500": 5240, "\u0120tells": 5241, "\u0120Duke": 5242, "\u0120Rod": 5243, "\u0120says": 5244, "\u0120integ": 5245, "iate": 5246, "\u0120Nations": 5247, "\u0120launch": 5248, "\u0120festival": 5249, "\u01201952": 5250, "\u0120Because": 5251, "bu": 5252, "\u0120pun": 5253, "ender": 5254, "\u0120Transport": 5255, "\u0120regions": 5256, "\u0120younger": 5257, "oty": 5258, "\u0120achieved": 5259, "\u0120supply": 5260, "\u0120headquarters": 5261, "\u0120cam": 5262, "\u0120Family": 5263, "\u0120actress": 5264, "\u0120villages": 5265, "\u012044": 5266, "\u0120library": 5267, "\u0120sport": 5268, "\u0120Budd": 5269, "\u0120liber": 5270, "\u0120Rh": 5271, "\u0120wear": 5272, "\u0120facility": 5273, "\";": 5274, "\u0120Oxford": 5275, "usion": 5276, "\u0120Es": 5277, "\u0120connected": 5278, "een": 5279, "uate": 5280, "\u0120unique": 5281, "\u0120compon": 5282, "\u0120arrested": 5283, "\u0120aim": 5284, "\u0120loan": 5285, "\u0120governor": 5286, "\u0120secret": 5287, "iling": 5288, "\u0120bal": 5289, "una": 5290, "ng": 5291, "\u0120experiment": 5292, "\u01201949": 5293, "\u0120spot": 5294, "ighth": 5295, "\u00e0\u00a4": 5296, "MS": 5297, "\u0120Press": 5298, "\u0120trains": 5299, "tario": 5300, "\u0120Philadelphia": 5301, "yond": 5302, "\u0120ve": 5303, "\u0120(;": 5304, "\u01201955": 5305, "\u0120Way": 5306, "\u0120Bell": 5307, "\u0120inspired": 5308, "\u0120Elect": 5309, "\u0120burn": 5310, "\u0120Arm": 5311, "\u0120Network": 5312, "\u0120Bol": 5313, "\u0120districts": 5314, "vin": 5315, "\u0120existing": 5316, "ova": 5317, "\u0120consum": 5318, "\u0120bow": 5319, "iable": 5320, "weight": 5321, "lers": 5322, "\u0120extend": 5323, "igen": 5324, "PA": 5325, "\u0120hall": 5326, "\u0120fully": 5327, "\u0120Indust": 5328, "\u0120Final": 5329, "\u0120weight": 5330, "\u0120situation": 5331, "\u0120illust": 5332, "\u0120meant": 5333, "\u0120gives": 5334, "\u0120Through": 5335, "ker": 5336, "\u0120Airport": 5337, "\u0120figures": 5338, "\u0120oppos": 5339, "\u0120challeng": 5340, "\u0120cannot": 5341, "ographic": 5342, "aling": 5343, "34": 5344, "\u0120Premier": 5345, "\u0120attacks": 5346, "\u0120Atlantic": 5347, "\u0120allowing": 5348, "\u0120Naz": 5349, "\u0120returning": 5350, "\u0120shop": 5351, "\u0120Due": 5352, "\u0120scientific": 5353, "ji": 5354, "\u0120code": 5355, "\u0120allows": 5356, "\u0120critics": 5357, "ternet": 5358, "\u0120spirit": 5359, "uts": 5360, "\u0120Boy": 5361, "\u0120conflict": 5362, "\u0120Netherlands": 5363, "\u0120Ant": 5364, "\u0120surname": 5365, "\u0120visit": 5366, "\u0120Santa": 5367, "elligence": 5368, "\u0120Korean": 5369, "erved": 5370, "\u0120feet": 5371, "\u0120athlet": 5372, "bec": 5373, "\u0120simply": 5374, "\u01201954": 5375, "\u0120stock": 5376, "\u0120concert": 5377, "\u0120Ut": 5378, "\u0120suggest": 5379, "real": 5380, "\u0120commander": 5381, "\u0120classes": 5382, "\u0120Dun": 5383, "\u0120risk": 5384, "\u0120rapid": 5385, "track": 5386, "imal": 5387, "asty": 5388, "\u0120sides": 5389, "\u0120\u00e2": 5390, "\u0120materials": 5391, "\u0120Ontario": 5392, "\u0120completely": 5393, "\u0120sixth": 5394, "\u0120enj": 5395, "37": 5396, "\u0120refused": 5397, "\u0120advanced": 5398, "\u0120bought": 5399, "\u0120Joe": 5400, "\u0120measure": 5401, "\u0120reports": 5402, "\u0120defined": 5403, "zech": 5404, "itzer": 5405, "\u0120Between": 5406, "load": 5407, "orter": 5408, "\u0120founder": 5409, "chestra": 5410, "arc": 5411, "\u0120software": 5412, "\u0120Military": 5413, "\u0120chosen": 5414, "\u0120USA": 5415, "\u0120promotion": 5416, "\u0120settled": 5417, "\u0120tower": 5418, "SC": 5419, "\u0120suit": 5420, "\u0120ec": 5421, "\u0120mom": 5422, "\u01201953": 5423, "\u0120Forest": 5424, "\u0120carri": 5425, "\u0120relatively": 5426, "\u0120thir": 5427, "bro": 5428, "eld": 5429, "\u0120Ah": 5430, "\u0120partner": 5431, "\u0120fish": 5432, "\u0120begins": 5433, "text": 5434, "47": 5435, "\u0120narrow": 5436, "\u0120Regiment": 5437, "\u0120sons": 5438, "eller": 5439, "ruit": 5440, "\u0120want": 5441, "\u0120portion": 5442, "\u0120tree": 5443, "\u0120custom": 5444, "\u0120Castle": 5445, "iser": 5446, "39": 5447, "\u0120Dam": 5448, "ouri": 5449, "ordin": 5450, "\u0120Plot": 5451, "omot": 5452, "48": 5453, "\u0120dial": 5454, "\u0120oldest": 5455, "\u0120Several": 5456, "\u0120Mov": 5457, "\u0120Dar": 5458, "room": 5459, "\u0120brothers": 5460, "cts": 5461, "\u0120UN": 5462, "\u0120Band": 5463, "inger": 5464, "\u0120climate": 5465, "sky": 5466, "\u00c3\u00a9e": 5467, "\u0120image": 5468, "ashion": 5469, "\u0120Bab": 5470, "\u0120aired": 5471, "\u0120holds": 5472, "\u0120Mir": 5473, "\u0120rain": 5474, "\u0120Wilson": 5475, "\u0120magn": 5476, "ennes": 5477, "\u0120Sweden": 5478, "\u0120theme": 5479, "\u0120Business": 5480, "HL": 5481, "\u0120theatre": 5482, "\u0120Bir": 5483, "\u0120pair": 5484, "inson": 5485, "\u0120proceed": 5486, "\u0120Colon": 5487, "\u0120Human": 5488, "\u0120lot": 5489, "\u0120Mun": 5490, "\u0120Community": 5491, "\u0120Captain": 5492, "\u0120alle": 5493, "\u0120subs": 5494, "\u0120cert": 5495, "eding": 5496, "\u0120Cub": 5497, "\u0120fighting": 5498, "\u0120Sher": 5499, "\u0120occasion": 5500, "\u0120things": 5501, "ifically": 5502, "\u0120frequently": 5503, "\u0120authority": 5504, "\u0120Week": 5505, "\u0120Legisl": 5506, "\u0120mut": 5507, "\u0120approved": 5508, "osophy": 5509, "\u0120ple": 5510, "pet": 5511, "\u0120Addition": 5512, "\u0120arts": 5513, "\u0120publication": 5514, "\u0120Sab": 5515, "\u0120visited": 5516, "\u0120defin": 5517, "\u0120hands": 5518, "\u01201918": 5519, "\u0120attra": 5520, "\u0120necessary": 5521, "ucky": 5522, "\u0120Fair": 5523, "\u0120consisted": 5524, "\u0120temple": 5525, "\u0120Tai": 5526, "\u0120Int": 5527, "\u0120creating": 5528, "\u0120goes": 5529, "\u0120ven": 5530, "\u0120fans": 5531, "orph": 5532, "\u0120Master": 5533, "\u01201951": 5534, "hedral": 5535, "CAA": 5536, "\u0120Mexican": 5537, "\u0120bill": 5538, "ava": 5539, "\u0120roof": 5540, "\u0120principal": 5541, "\u0120restaur": 5542, "\u0120von": 5543, "\u0120advert": 5544, "\u0120Kir": 5545, "\u0120Emperor": 5546, "\u0120Czech": 5547, "\u0120Ta": 5548, "\u0120Register": 5549, "\u0120Iraq": 5550, "ples": 5551, "\u0120subsequent": 5552, "\u0120Att": 5553, "illery": 5554, "195": 5555, "\u0120flood": 5556, "\u0120Technology": 5557, "\u0120crim": 5558, "\u0120audience": 5559, "ilton": 5560, "\u0120Sus": 5561, "heim": 5562, "\u0120\u00e2\u0122\u013a": 5563, "\u0120reject": 5564, "\u0120Jon": 5565, "occer": 5566, "\u0120attempted": 5567, "\u01201936": 5568, "\u0120Hay": 5569, "aks": 5570, "\u0120Die": 5571, "\u0120Rac": 5572, "gend": 5573, "\u0120Region": 5574, "\u0120towns": 5575, "\u0120Gen": 5576, "\u0120billion": 5577, "\u0120graph": 5578, "\u0120aspect": 5579, "\u0120Hun": 5580, "\u0120unable": 5581, "\u0120adapt": 5582, "\u0120portray": 5583, "\u0120lake": 5584, "\u0120voc": 5585, "\u0120tend": 5586, "100": 5587, "ropolitan": 5588, "\u0120broke": 5589, "idi": 5590, "\u0120funding": 5591, "\u0120baseball": 5592, "\u0120methods": 5593, "\u0120royal": 5594, "\u0120entitled": 5595, "\u0120commissioned": 5596, "\u0120fought": 5597, "eral": 5598, "\u01201938": 5599, "\u012064": 5600, "\u0120Pers": 5601, "\u0120Batt": 5602, "\u0120begin": 5603, "\u0120winter": 5604, "\u0120Fox": 5605, "yo": 5606, "\u0120global": 5607, "bi": 5608, "\u0120element": 5609, "kes": 5610, "\u0120receiving": 5611, "\u0120Like": 5612, "osis": 5613, "\u0120Mike": 5614, "uing": 5615, "ressed": 5616, "\u0120Further": 5617, "\u0120dipl": 5618, "\u0120Ker": 5619, "also": 5620, "\u0120dia": 5621, "\u0120safety": 5622, "\u0120respond": 5623, "LA": 5624, "\u0120neighborhood": 5625, "\u0120employed": 5626, "\u0120van": 5627, "rec": 5628, "\u0120accident": 5629, "je": 5630, "\u0120daily": 5631, "\u0120Indones": 5632, "\u0120arms": 5633, "\u0120Minn": 5634, "\u0120underst": 5635, "\u0120sets": 5636, "\u0120dropped": 5637, "31": 5638, "\u0120occupied": 5639, "\u0120Death": 5640, "\u0120founding": 5641, "\u0120animals": 5642, "udget": 5643, "\u0120background": 5644, "yes": 5645, "\u0120Han": 5646, "\u0120protection": 5647, "\u0120expansion": 5648, "\u0120opposed": 5649, "\u0120retirement": 5650, "\u0120Tal": 5651, "\u0120End": 5652, "\u0120prof": 5653, "\u00c2\u00b0": 5654, "\u0120starring": 5655, "\u0120Taylor": 5656, "\u0120seem": 5657, "\u0120something": 5658, "\u0120formerly": 5659, "\u0120yellow": 5660, "\u0120Ger": 5661, "\u0120effective": 5662, "VD": 5663, "urd": 5664, "\u0120attacked": 5665, "\u0120mis": 5666, "\u0120actions": 5667, "\u0120covers": 5668, "ains": 5669, "\u0120Medical": 5670, "Bill": 5671, "ression": 5672, "\u0120Som": 5673, "\u0120\"\"": 5674, "\u0120economy": 5675, "\u0120architecture": 5676, "49": 5677, "\u0120Marsh": 5678, "sey": 5679, "cow": 5680, "elve": 5681, "pur": 5682, "\u0120straight": 5683, "uls": 5684, "onym": 5685, "oren": 5686, "iner": 5687, "\u0120Area": 5688, "\u0120shared": 5689, "osa": 5690, "plies": 5691, "\u0120exclus": 5692, "\u0120Tok": 5693, "imens": 5694, "\u0120negot": 5695, "aven": 5696, "\u0120attempts": 5697, "\u0120unknown": 5698, "\u0120Nic": 5699, "acter": 5700, "46": 5701, "\u0120focused": 5702, "\u0120Reception": 5703, "\u0120earth": 5704, "\u0120)": 5705, "\u0120distingu": 5706, "\u0120reference": 5707, "\u0120Kal": 5708, "restling": 5709, "\u0120Project": 5710, "\u0120Stat": 5711, "writer": 5712, "\u0120vocal": 5713, "32": 5714, "achelor": 5715, "\u0120storm": 5716, "\u0120Po": 5717, "\u0120exchange": 5718, "\u0120piece": 5719, "\u0120drive": 5720, "iques": 5721, "bra": 5722, "\u0120Earl": 5723, "\u0120resources": 5724, "\u0120Circ": 5725, "\u0120trees": 5726, "\u0120extensive": 5727, "\u0120guest": 5728, "\u0120institutions": 5729, "\u0120performing": 5730, "\u0120Moh": 5731, "\u0120bass": 5732, "aret": 5733, "\u0120Bad": 5734, "\u0120fair": 5735, "\u0120contributed": 5736, "\u0120Prize": 5737, "'.": 5738, "\u0120cancer": 5739, "\u0120height": 5740, "\u0120Short": 5741, "\u0120Beach": 5742, "\u0120Kel": 5743, "\u0120copies": 5744, "\u0120sand": 5745, "\u0120tal": 5746, "\u0120notes": 5747, "\u0120spect": 5748, "\u0120shortly": 5749, "\u0120agent": 5750, "\u0120rear": 5751, "\u0120Color": 5752, "\u0120iron": 5753, "\u0120tele": 5754, "\u0120lect": 5755, "Un": 5756, "\u0120morning": 5757, "ivals": 5758, "orney": 5759, "\u0120rob": 5760, "\u0120fields": 5761, "\u0120entry": 5762, "\u0120horse": 5763, "\u0120articles": 5764, "rep": 5765, "\u0120Lady": 5766, "\u0120etc": 5767, "\u0120converted": 5768, "\u0120Light": 5769, "\u0120encoura": 5770, "ading": 5771, "\u0120Us": 5772, "\u0120representing": 5773, "\u01201919": 5774, "\u0120highway": 5775, "\u012038": 5776, "\u0120Girl": 5777, "IA": 5778, "lyn": 5779, "ois": 5780, "urance": 5781, "organ": 5782, "\u01201937": 5783, "\u0120simple": 5784, "\u0120memory": 5785, "har": 5786, "\u0120Alf": 5787, "\u0120engineering": 5788, "lan": 5789, "bell": 5790, "rin": 5791, "\u0120vent": 5792, "\u0120Prior": 5793, "\u0120sense": 5794, "\u0120vehicles": 5795, "\u0120sle": 5796, "\u0120ultimately": 5797, "\u0120Description": 5798, "\u0120Down": 5799, "\u0120Da": 5800, "\u0120inhabit": 5801, "\u0120NA": 5802, "\u0120Design": 5803, "\u0120combat": 5804, "\u0120Federation": 5805, "uns": 5806, "phas": 5807, "\u0120Night": 5808, "\u0120maximum": 5809, "\u0120bronze": 5810, "\u0120bott": 5811, "bar": 5812, "\u0120crime": 5813, "\u0120Maria": 5814, "\u0120rid": 5815, "\u0120Marg": 5816, "\u0120enjoy": 5817, "\u0120contrast": 5818, "\u0120normal": 5819, "ureau": 5820, "\u0120Arthur": 5821, "\u0120aged": 5822, "\u0120Chris": 5823, "mouth": 5824, "\u0120determined": 5825, "\u0120ending": 5826, "\u0120Wel": 5827, "otic": 5828, "\u0120permanent": 5829, "\u0120qualified": 5830, "\u0120Davis": 5831, "\u0120Today": 5832, "anth": 5833, "\u0120faced": 5834, "po": 5835, "\u0120MP": 5836, "\u0120kil": 5837, "\u0120machine": 5838, "\u0120advance": 5839, "\u0120onto": 5840, "\u0120powerful": 5841, "',": 5842, "\u0120Abb": 5843, "uccess": 5844, "\u0120conduct": 5845, "\u0120Junior": 5846, "kin": 5847, "\u0120scheduled": 5848, "olished": 5849, "\u0120sought": 5850, "ructure": 5851, "\u0120rang": 5852, "\u0120structures": 5853, "\u0120178": 5854, "\u0120documentary": 5855, "\u0120offices": 5856, "\u0120cho": 5857, "\u0120Stephen": 5858, "\u0120prepar": 5859, "\u0120samp": 5860, "aming": 5861, "\u0120properties": 5862, "\u0120convers": 5863, "rowd": 5864, "\u0120beaut": 5865, "urches": 5866, "\u0120rot": 5867, "\u0120Zh": 5868, "\u0120lyrics": 5869, "\u0120mayor": 5870, "\u0120Sem": 5871, "\u0120Power": 5872, "amin": 5873, "\u0120auth": 5874, "igration": 5875, "\u0120Test": 5876, "rum": 5877, "\u0120learning": 5878, "\u0120Township": 5879, "\u0120touchdown": 5880, "\u0120defense": 5881, "\u0120apparent": 5882, "\u0120domestic": 5883, "\u0120Squad": 5884, "wise": 5885, "gest": 5886, "\u0120letters": 5887, "oln": 5888, "umes": 5889, "\u0120poll": 5890, "\u0120lands": 5891, "outs": 5892, "\u0120application": 5893, "anning": 5894, "\u0120consecut": 5895, "lywood": 5896, "\u0120bul": 5897, "\u0120Writ": 5898, "\u0120oppon": 5899, "SP": 5900, "\u0120centuries": 5901, "\u0120Ob": 5902, "\u0120Melbourne": 5903, "\u01201917": 5904, "IC": 5905, "inth": 5906, "stream": 5907, "life": 5908, "\u0120needs": 5909, "\u0120valley": 5910, "44": 5911, "mes": 5912, "cell": 5913, "enna": 5914, "mun": 5915, "\u0120airport": 5916, "\u0120Hu": 5917, "\u0120Journal": 5918, "\u0120beyond": 5919, "\u0120occurs": 5920, "pool": 5921, "oured": 5922, "\u0120Slov": 5923, "\u0120ways": 5924, "\u0120setting": 5925, "\u0120Khan": 5926, "\u00c3\u00a3": 5927, "\u0120Freder": 5928, "\u0120Americans": 5929, "\u0120trust": 5930, "\u0120cycl": 5931, "iated": 5932, "\u0120Walk": 5933, "\u0120Kim": 5934, "\u0120generation": 5935, "\u0120Vi": 5936, "\u0120reasons": 5937, "\u0120racing": 5938, "\u0120Municip": 5939, "ropri": 5940, "\u0120sector": 5941, "\u0120matter": 5942, "\u0120rein": 5943, "\u0120Rom": 5944, "rect": 5945, "\u0120locations": 5946, "\u0120virt": 5947, "\u0120metres": 5948, "\u0120cart": 5949, "\u0120corner": 5950, "ateur": 5951, "\u0120decre": 5952, "former": 5953, "eman": 5954, "athan": 5955, "\u0120NCAA": 5956, "\u0120invited": 5957, "\u0120write": 5958, "\u0120recognition": 5959, "\u0120Pit": 5960, "\u0120avoid": 5961, "anguage": 5962, "fully": 5963, "long": 5964, "\u0120slightly": 5965, "\u0120Upon": 5966, "\u0120girls": 5967, "\u0120guns": 5968, "\u0120alleged": 5969, "\u0120inaug": 5970, "\u0120finishing": 5971, "\u0120successfully": 5972, "\u0120mile": 5973, "\u0120rough": 5974, "\u0120consult": 5975, "%.": 5976, "\u012037": 5977, "\u0120Moscow": 5978, "car": 5979, "ulate": 5980, "apore": 5981, "ipe": 5982, "\u0120hotel": 5983, "\u0120developing": 5984, "\u0120advant": 5985, "\u0120containing": 5986, "\u0120identity": 5987, "\u0120seg": 5988, "De": 5989, "\u0120expressed": 5990, "\u012033": 5991, "\u0120derived": 5992, "\u0120Lind": 5993, "\u0120Su": 5994, "\u0120vice": 5995, "\u0120basic": 5996, "OS": 5997, "\u0120Wat": 5998, "\u0120Production": 5999, "\u01201935": 6000, "ears": 6001, "\u01201914": 6002, "\u0120Gi": 6003, "\u0120Greg": 6004, "\u0120flu": 6005, "\u0120supporting": 6006, "hire": 6007, "Billboard": 6008, "\u012034": 6009, "\u0120partnership": 6010, "\u0120wealth": 6011, "It": 6012, "\u0120funds": 6013, "\u0120walls": 6014, "\u0120ox": 6015, "iments": 6016, "\u0120Memorial": 6017, "\u0120vehicle": 6018, "\u0120candidates": 6019, "99": 6020, "\u0120functions": 6021, "atures": 6022, "\u0120refers": 6023, "\u0120influenced": 6024, "while": 6025, "fl": 6026, "\u0120Ford": 6027, "\u0120Ocean": 6028, "cript": 6029, "\u0120Command": 6030, "\u0120abandoned": 6031, "\u0120holding": 6032, "\u0120Spring": 6033, "\u0120References": 6034, "\u0120alternative": 6035, "\u0120resc": 6036, "\u0120fer": 6037, "rete": 6038, "\u0120Time": 6039, "\u0120Notable": 6040, "\u0120Nap": 6041, "55": 6042, "\u0120Lewis": 6043, "\u0120EP": 6044, "\u0120decades": 6045, "\u0120speech": 6046, "\u0120Bla": 6047, "inus": 6048, "\u0120technical": 6049, "\u0120Ret": 6050, "\u0120Balt": 6051, "\u0120deploy": 6052, "\u0120sust": 6053, "iations": 6054, "\u0120Anth": 6055, "\u0120Les": 6056, "\u0120consecutive": 6057, "\u0120Pass": 6058, "We": 6059, "wegian": 6060, "\u0120Lt": 6061, "ocese": 6062, "esota": 6063, "anna": 6064, "\u0120multi": 6065, "\u0120reign": 6066, "\u0120Dor": 6067, "\u0120Then": 6068, "\u0120Sciences": 6069, "\u0120Ross": 6070, "\u0120appoint": 6071, "\u0120Turkey": 6072, "\u0120Vietnam": 6073, "\u0120acts": 6074, "\u01201933": 6075, "\u0120dog": 6076, "lets": 6077, "\u0120deliver": 6078, "\u0120patients": 6079, "\u0120ends": 6080, "\u0120investigation": 6081, "\u0120compar": 6082, "fe": 6083, "\u0120establishment": 6084, "\u0120grade": 6085, "\u0120pieces": 6086, "\u0120fuel": 6087, "\u0120script": 6088, "\u0120Golden": 6089, "owa": 6090, "alo": 6091, "\u0120Cape": 6092, "\u0120Wars": 6093, "gth": 6094, "\u0120Niger": 6095, "\u01201900": 6096, "\u0120Jews": 6097, "\u0120Hart": 6098, "\u0120stadium": 6099, "\u0120temperature": 6100, "\u0120hydro": 6101, "\u0120Philippines": 6102, "anga": 6103, "\u0120mind": 6104, "\u0120Television": 6105, "\u0120emphas": 6106, "aria": 6107, "\u0120Labor": 6108, "\u0120Ra": 6109, "AF": 6110, "pot": 6111, "RC": 6112, "\u0120Fire": 6113, "\u0120resigned": 6114, "\u0120contained": 6115, "\u0120brown": 6116, "\u0120merged": 6117, "\u0120worldwide": 6118, "\u0120herself": 6119, "\u0120castle": 6120, "\u0120incident": 6121, "\u0120fleet": 6122, "uese": 6123, "\u0120planning": 6124, "\u0120Minnesota": 6125, "\u0120Norway": 6126, "65": 6127, "\u0120hero": 6128, "\u0120try": 6129, "\u0120Steve": 6130, "\u0120Queensland": 6131, "ns": 6132, "\u01201929": 6133, "\u0120glass": 6134, "\u0120stating": 6135, "\u0120independence": 6136, "\u0120bor": 6137, "\u0120Country": 6138, "\u0120exhibition": 6139, "\u0120decor": 6140, "rog": 6141, "\u0120playoff": 6142, "jan": 6143, "\u0120Stock": 6144, "fall": 6145, "\u0120Singapore": 6146, "\u0120incorporated": 6147, "asy": 6148, "\u0120formal": 6149, "\u0120Native": 6150, "\u0120enemy": 6151, "\u0120voted": 6152, "\u0120ceremony": 6153, "\u0120argued": 6154, "\u0120Kansas": 6155, "\u0120Bah": 6156, "\u0120phase": 6157, "actions": 6158, "ami": 6159, "\u0120literary": 6160, "\u01201928": 6161, "\u0120entrance": 6162, "\u0120Trust": 6163, "\u0120equal": 6164, "TC": 6165, "\u0120pup": 6166, "\u0120Sav": 6167, "\u0120category": 6168, "\u0120fresh": 6169, "\u0120hired": 6170, "erc": 6171, "\u0120rise": 6172, "\u0120Leon": 6173, "\u0120maintained": 6174, "\u0120pilot": 6175, "\u0120Fac": 6176, "\u0120trav": 6177, "raine": 6178, "\u0120guard": 6179, "pson": 6180, "onsin": 6181, "iang": 6182, "king": 6183, "\u0120List": 6184, "\u0120passing": 6185, "aki": 6186, "\u0120Gre": 6187, "\u0120Sum": 6188, "\u0120existence": 6189, "\u0120volume": 6190, "\u0120finds": 6191, "\u0120environmental": 6192, "\u0120educational": 6193, "\u0120ethnic": 6194, "\u0120Cambridge": 6195, "ici": 6196, "\u0120spok": 6197, "\u0120regarding": 6198, "\u0120doing": 6199, "\u0120rival": 6200, "uration": 6201, "\u0120proved": 6202, "\u0120Malays": 6203, "\u0120heavily": 6204, "\u0120Pier": 6205, "\u0120ring": 6206, "illing": 6207, "isconsin": 6208, "\u00c3\u00ba": 6209, "\u01201934": 6210, "\":": 6211, "aska": 6212, "million": 6213, "\u0120judge": 6214, "risis": 6215, "\u0120Labour": 6216, "\u0120composer": 6217, "\u0120Studies": 6218, "equ": 6219, "iny": 6220, "\u0120...": 6221, "\u0120pul": 6222, "ource": 6223, "\u0120views": 6224, "\u0120violence": 6225, "\u0120Philip": 6226, "orders": 6227, "amm": 6228, "icy": 6229, "\u0120collected": 6230, "\u0120educated": 6231, "\u0120representative": 6232, "\u0120Six": 6233, "\u0120laid": 6234, "\u0120connection": 6235, "\u0120journalist": 6236, "iversary": 6237, "\u0120Services": 6238, "lines": 6239, "\u0120Sri": 6240, "\u0120marg": 6241, "section": 6242, "\u0120Brother": 6243, "\u0120Manchester": 6244, "\u0120calls": 6245, "\u0120Hou": 6246, "\u0120bra": 6247, "\u0120merch": 6248, "\u0120wins": 6249, "\u0120reflect": 6250, "appe": 6251, "\u0120Norwegian": 6252, "stead": 6253, "\u0120Affairs": 6254, "osed": 6255, "\u0120someone": 6256, "place": 6257, "iti": 6258, "\u0120detect": 6259, "\u0120folk": 6260, "anger": 6261, "\u0120Cas": 6262, "sis": 6263, "\u0120programme": 6264, "\u0120plot": 6265, "\u0120quant": 6266, "isms": 6267, "agh": 6268, "\u0120About": 6269, "\u0120junior": 6270, "\u0120Ho": 6271, "\u0120Channel": 6272, "\u0120hockey": 6273, "\u0120Holy": 6274, "\u0120Lo": 6275, "incoln": 6276, "kh": 6277, "\u0120flat": 6278, "\u0120300": 6279, "\u0120observed": 6280, "ennessee": 6281, "\u0120Fellow": 6282, "ori": 6283, "\u0120nob": 6284, "\u0120reaching": 6285, "\u0120Wisconsin": 6286, "\u0120Free": 6287, "\u0120shape": 6288, "\u0120carry": 6289, "ika": 6290, "\u00c5\u00ab": 6291, "\u0120doctor": 6292, "stitutional": 6293, "\u0120installed": 6294, "\u0120Gil": 6295, "\u01201910": 6296, "enz": 6297, "\u0120swe": 6298, "ecutive": 6299, "\u0120failure": 6300, "\u0120clin": 6301, "\u0120harm": 6302, "\u0120kick": 6303, "SR": 6304, "\u0120roll": 6305, "\u0120engaged": 6306, "\u0120conce": 6307, "\u0120importance": 6308, "\u0120Though": 6309, "\u0120Bos": 6310, "omew": 6311, "\u0120extrem": 6312, "\u0120Census": 6313, "aded": 6314, "rees": 6315, "95": 6316, "\u0120internal": 6317, "arp": 6318, "oly": 6319, "\u0120bands": 6320, "\u0120poly": 6321, "\u0120religion": 6322, "\u0120Austria": 6323, "\u0120promote": 6324, "\u0120inhabitants": 6325, "\u0120rom": 6326, "\u0120passes": 6327, "\u0120accompan": 6328, "after": 6329, "only": 6330, "\u0120draft": 6331, "\u0120scale": 6332, "\u0120instru": 6333, "\u0120diam": 6334, "\u0120presidential": 6335, "\u0120install": 6336, "\u0120Cab": 6337, "\u0120descend": 6338, "ito": 6339, "\u01201924": 6340, "\u0120joining": 6341, "\u0120concluded": 6342, "\u0120Albert": 6343, "\u0120swim": 6344, "\u0120constant": 6345, "ii": 6346, "\u0120compl": 6347, "\u0120Tourn": 6348, "\u0120registered": 6349, "\u0120specifically": 6350, "\u0120Sound": 6351, "\u0120your": 6352, "\u0120Ball": 6353, "\u0120god": 6354, "\u0120producing": 6355, "season": 6356, "\u0120mel": 6357, "\u0120Sunday": 6358, "\u0120Der": 6359, "\u0120nuclear": 6360, "\u0120reading": 6361, "state": 6362, "ader": 6363, "\u0120request": 6364, "\u0120Jos": 6365, "\u0120ast": 6366, "\u0120township": 6367, "\u0120Missouri": 6368, "\u0120gall": 6369, "oster": 6370, "\u0120homes": 6371, "\u0120Ka": 6372, "\u0120foundation": 6373, "\u0120Beng": 6374, "\u0120compete": 6375, "\u0120Medal": 6376, "\u0120Id": 6377, "La": 6378, "\u01201932": 6379, "\u0120improve": 6380, "\u0120NFL": 6381, "\u012048": 6382, "igation": 6383, "\u0120Pope": 6384, "\u0120Turkish": 6385, "\u0120Portuguese": 6386, "\u0120Tennessee": 6387, "\u0120opin": 6388, "\u0120Eth": 6389, "66": 6390, "\u0120Foreign": 6391, "tered": 6392, "isf": 6393, "\u0120Ten": 6394, "acent": 6395, "inder": 6396, "\u0120strike": 6397, "\u0120sac": 6398, "\u0120toward": 6399, "PS": 6400, "\u0120steel": 6401, "\u0120reserve": 6402, "\u0120visual": 6403, "\u0120closely": 6404, "\u0120praised": 6405, "\u0120load": 6406, "ante": 6407, "\u0120Bureau": 6408, "\u0120Colorado": 6409, "Se": 6410, "\u0120powers": 6411, "erse": 6412, "wich": 6413, "uties": 6414, "regon": 6415, "\u0120escape": 6416, "\u0120twelve": 6417, "\u0120Armen": 6418, "\u0120Member": 6419, "\u0120standards": 6420, "oto": 6421, "\u0120entirely": 6422, "gor": 6423, "prise": 6424, "\u0120orders": 6425, "\u0120gar": 6426, "rizona": 6427, "\u0120impr": 6428, "\u0120weapons": 6429, "\u01201922": 6430, "\u0120consisting": 6431, "itzerland": 6432, "friend": 6433, "\u0120Nick": 6434, "!\"": 6435, "\u0120employees": 6436, "\u0120classical": 6437, "\u012049": 6438, "\u0120Management": 6439, "ographer": 6440, "agues": 6441, "\u0120Lincoln": 6442, "\u0120ideas": 6443, "\u0120suppor": 6444, "ription": 6445, "Don": 6446, "\u0120volunte": 6447, "\u0120dates": 6448, "\u0120(),": 6449, "\u0120cricket": 6450, "\u0120cas": 6451, "\u0120price": 6452, "\u0120Marc": 6453, "\u0120Ts": 6454, "\u0120150": 6455, "\u0120programming": 6456, "\u0120causing": 6457, "\u0120trying": 6458, "\u0120strength": 6459, "opher": 6460, "\u012075": 6461, "clusion": 6462, "olis": 6463, "\u0120Current": 6464, "\u0120poetry": 6465, "\u0120heard": 6466, "haps": 6467, "\u0120aid": 6468, "\u00c3\u00a3o": 6469, "\u0120occas": 6470, "\u0120protein": 6471, "raf": 6472, "76": 6473, "\u01201921": 6474, "\u0120sole": 6475, "\u0120paintings": 6476, "42": 6477, "\u0120constituency": 6478, "\u0120trained": 6479, "\u0120scenes": 6480, "\u0120Infantry": 6481, "\u0120san": 6482, "\u0120starts": 6483, "\u01201927": 6484, "\u0120exped": 6485, "\u0120warn": 6486, "allel": 6487, "\u0120Stand": 6488, "\u0120survey": 6489, "\u0120passenger": 6490, "\u0120page": 6491, "\u0120mand": 6492, "\u0120fram": 6493, "\u0120locomot": 6494, "\u0120historian": 6495, "\u0120400": 6496, "\u0120budget": 6497, "ublin": 6498, "\u0120Christmas": 6499, "\u0120adap": 6500, "\u0120micro": 6501, "\u0120diplom": 6502, "\u0120believe": 6503, "\u0120watch": 6504, "\u0120Bru": 6505, "78": 6506, "pa": 6507, "tra": 6508, "aved": 6509, "\u0120negative": 6510, "\u0120boat": 6511, "\u0120wor": 6512, "\u0120regarded": 6513, "mb": 6514, "\u0120Jacob": 6515, "\u0120personnel": 6516, "\u0120ruled": 6517, "\u0120tall": 6518, "\u0120selection": 6519, "\u0120fashion": 6520, "\u0120affected": 6521, "\u0120behavior": 6522, "\u0120northeast": 6523, "\u0120Political": 6524, "\u01201931": 6525, "ghan": 6526, "itter": 6527, "\u0120Abd": 6528, "poses": 6529, "ifying": 6530, "\u01201912": 6531, "\u0120describes": 6532, "\u0120mathemat": 6533, "\u0120profession": 6534, "\u0120opportunity": 6535, "\u0120jur": 6536, "\u0120adult": 6537, "\u0120Point": 6538, "going": 6539, "inally": 6540, "\u0120sale": 6541, "\u0120chemical": 6542, "\u0120premiered": 6543, "\u0120graduate": 6544, "\u0120Switzerland": 6545, "AR": 6546, "\u0120Staff": 6547, "\u0120Building": 6548, "\u0120Arizona": 6549, "\u0120Winter": 6550, "\u0120Miller": 6551, "\u0120obtain": 6552, "\u0120Bat": 6553, "\u0120statement": 6554, "\u0120Stone": 6555, "alty": 6556, "\u0120DVD": 6557, "rate": 6558, "lain": 6559, "\u0120Professional": 6560, "ocation": 6561, "41": 6562, "\u0120composition": 6563, "\u0120rugby": 6564, "\u0120Kr": 6565, "\u0120landsc": 6566, "\u0120Fa": 6567, "\u0120Oregon": 6568, "\u0120Track": 6569, "\u0120secretary": 6570, "\u0120Hard": 6571, "\u0120limit": 6572, "\u0120Prim": 6573, "\u0120Thus": 6574, "\u0120Maryland": 6575, "\u0120Places": 6576, "Sc": 6577, "\u0120Administration": 6578, "VID": 6579, "abad": 6580, "\u0120quite": 6581, "\u0120Gree": 6582, "\u0120accused": 6583, "\u0120cooper": 6584, "\u0120Review": 6585, "\u0120crowd": 6586, "\u0120rebu": 6587, "agan": 6588, "\u0120improved": 6589, "entially": 6590, "ho": 6591, "gency": 6592, "\u0120brick": 6593, "come": 6594, "\u01201925": 6595, "\u0120Deput": 6596, "\u0120briefly": 6597, "\u0120animal": 6598, "ushed": 6599, "\u0120franch": 6600, "\u0120uncle": 6601, "\u0120Baron": 6602, "\u0120map": 6603, "\u0120reduce": 6604, "point": 6605, "\u0120edge": 6606, "rif": 6607, "\u0120bodies": 6608, "\u0120creat": 6609, "\u0120choice": 6610, "\u0120Chart": 6611, "\u0120Web": 6612, "\u0120criminal": 6613, "\u0120chose": 6614, "\u0120cru": 6615, "pes": 6616, "\u0120Bon": 6617, "\u0120Prot": 6618, "utation": 6619, "uted": 6620, "\u0120operate": 6621, "\u0120Security": 6622, "\u0120Even": 6623, "\u0120Liberal": 6624, "\u0120possess": 6625, "\u0120Temple": 6626, "\u0120Bowl": 6627, "\u0120Vice": 6628, "iants": 6629, "\u0120Vo": 6630, "\u0120AD": 6631, "\u0120applications": 6632, "iva": 6633, "heastern": 6634, "anton": 6635, "\u0120substant": 6636, "\u00c3\u00a2": 6637, "\u0120Indiana": 6638, "\u0120Ot": 6639, "\u0120Swiss": 6640, "Sp": 6641, "\u0120Gram": 6642, "\u0120Vis": 6643, "ogen": 6644, "\u0120agricultural": 6645, "\u01201923": 6646, "\u01201916": 6647, "\u0120Ast": 6648, "\u0120favour": 6649, "\u0120replace": 6650, "US": 6651, "\u0120extension": 6652, "father": 6653, "\u0120Hamilton": 6654, "\u0120Od": 6655, "antic": 6656, "\u0120ment": 6657, "\u0120Burn": 6658, "oes": 6659, "\u0120reserv": 6660, "ikh": 6661, "vard": 6662, "\u0120ahead": 6663, "under": 6664, "uther": 6665, "\u0120factory": 6666, "\u0120interests": 6667, "ilation": 6668, "\u0120Forces": 6669, "\u0120Ali": 6670, "\u0120birds": 6671, "\u01201915": 6672, "\u0120portra": 6673, "\u0120Barb": 6674, "\u0120ille": 6675, "\u0120assess": 6676, "igenous": 6677, "\u0120Naval": 6678, "\u0120moth": 6679, "\u01201926": 6680, "\u0120Cre": 6681, "\u0120analy": 6682, "\u0120\u00ce": 6683, "\u0120demonstr": 6684, "\u0120armed": 6685, "\u0120IV": 6686, "\u0120driver": 6687, "\u0120advoc": 6688, "ivalent": 6689, "zen": 6690, "usal": 6691, "\u0120agency": 6692, "elle": 6693, "77": 6694, "orage": 6695, "\u0120Walter": 6696, "\u0120McG": 6697, "\u0120participate": 6698, "\u0120Anne": 6699, "\u0120Belg": 6700, "\u0120row": 6701, "owned": 6702, "\u0120Croat": 6703, "\u0120values": 6704, "\u0120Regional": 6705, "\u0120tropical": 6706, "uation": 6707, "\u0120Tony": 6708, "\u0120engines": 6709, "\u00c4\u012f": 6710, "\u0120really": 6711, "\u0120Gord": 6712, "\u0120earliest": 6713, "\u0120Disc": 6714, "ologies": 6715, "\u0120killing": 6716, "aga": 6717, "\u0120Tournament": 6718, "ounted": 6719, "\u0120Modern": 6720, "term": 6721, "\u0120costs": 6722, "icts": 6723, "\u0120Brigade": 6724, "\u0120tor": 6725, "\u0120ere": 6726, "\u0120interior": 6727, "urday": 6728, "\u0120residence": 6729, "\u0120waters": 6730, "\u0120injured": 6731, "icial": 6732, "\u0120belief": 6733, "wealth": 6734, "\u0120core": 6735, "\u0120causes": 6736, "\u0120drink": 6737, "\u0120Only": 6738, "itage": 6739, "\u012039": 6740, "\u0120calling": 6741, "\u0120FM": 6742, "ieval": 6743, "\u0120Wall": 6744, "udi": 6745, "\u0120debuted": 6746, "athe": 6747, "\u0120weather": 6748, "\u0120COVID": 6749, "BI": 6750, "\u0120Square": 6751, "\u0120Turn": 6752, "\u0120regiment": 6753, "\u0120northwest": 6754, "\u0120seventh": 6755, "\u0120Fund": 6756, "\u0120deliv": 6757, "\u0120symbol": 6758, "\u0120controlled": 6759, "\u0120courses": 6760, "85": 6761, "pir": 6762, "\u0120Author": 6763, "\u0120consequ": 6764, "\u0120dismiss": 6765, "\u0120Islamic": 6766, "ienced": 6767, "ques": 6768, "\u0120signal": 6769, "\u0120Pa": 6770, "\u0120invasion": 6771, "\u0120exact": 6772, "\u0120divers": 6773, "odox": 6774, "\u0120repeated": 6775, "\u0120hun": 6776, "\u0120Ec": 6777, "\u0120users": 6778, "\u0120Engineering": 6779, "He": 6780, "\u0120Executive": 6781, "\u0120opera": 6782, "anes": 6783, "\u0120Roy": 6784, "DP": 6785, "\u0120reception": 6786, "\u0120techniques": 6787, "vements": 6788, "\u0120deleg": 6789, "\u0120Jane": 6790, "\u0120Hur": 6791, "\u0120Ren": 6792, "\u0120adjacent": 6793, "ifications": 6794, "\u0120survived": 6795, "\u0120introduction": 6796, "\u0120Div": 6797, "\u0120singing": 6798, "east": 6799, "\u0120batter": 6800, "\u0120steam": 6801, "\u0120Fame": 6802, "\u0120zone": 6803, "\u0120pros": 6804, "\u0120Howard": 6805, "vant": 6806, "\u0120door": 6807, "\u0120tail": 6808, "\u0120Now": 6809, "\u0120superv": 6810, "\u0120objects": 6811, "\u0120Barn": 6812, "iful": 6813, "\u0120regularly": 6814, "\u0120Domin": 6815, "\u0120getting": 6816, "\u0120resistance": 6817, "\u0120Marine": 6818, "\u0120roads": 6819, "\u0120distributed": 6820, "\u0120transform": 6821, "\u0120Gab": 6822, "\u0120feed": 6823, "\u0120revolution": 6824, "ogy": 6825, "\u0120mole": 6826, "\u0120Rose": 6827, "\u0120Nich": 6828, "\u0120engineer": 6829, "\u0120rating": 6830, "\u0120fiction": 6831, "\u0120Finn": 6832, "ryst": 6833, "icians": 6834, "ommod": 6835, "\u0120racial": 6836, "zh": 6837, "\u0120fine": 6838, "\u0120Youth": 6839, "\u0120islands": 6840, "antly": 6841, "\u0120corpor": 6842, "\u0120emot": 6843, "cia": 6844, "\u0120Greece": 6845, "\u0120Senior": 6846, "ER": 6847, "\u0120leads": 6848, "\u0120Tan": 6849, "\u0120Coll": 6850, "\u0120acid": 6851, "\u0120drum": 6852, "run": 6853, "rator": 6854, "\u0120Kat": 6855, "\u0120witness": 6856, "\u0120ax": 6857, "\u0120possibly": 6858, "including": 6859, "\u0120surg": 6860, "\u0120pione": 6861, "\u0120musicians": 6862, "\u0120susp": 6863, "\u0120skills": 6864, "\u0120crown": 6865, "uct": 6866, "\u0120Harry": 6867, "uv": 6868, "\u0120eg": 6869, "\u0120Representatives": 6870, ".\u00e2\u0122\u013f": 6871, "eke": 6872, "icide": 6873, "roit": 6874, "rine": 6875, "\u0120gene": 6876, "oa": 6877, "\u0120Alb": 6878, "des": 6879, "\u0120churches": 6880, "\u0120links": 6881, "\u0120qual": 6882, "\u0120cinem": 6883, "\u0120hair": 6884, "apes": 6885, "\u0120Hockey": 6886, "overty": 6887, "\u0120writers": 6888, "\u0120Chen": 6889, "\u0120sections": 6890, "\u0120Whit": 6891, "hol": 6892, "\u0120moment": 6893, "\u0120combination": 6894, "\u0120humans": 6895, "\u0120convent": 6896, "\u0120Simon": 6897, "\u0120Well": 6898, "\u0120rejected": 6899, "\u0120Tel": 6900, "\u0120grounds": 6901, "\u0120Front": 6902, "\u0120ancest": 6903, "\u0120Pot": 6904, "\u0120nick": 6905, "hr": 6906, "ui": 6907, "\u0120charges": 6908, "ographics": 6909, "\u0120examples": 6910, "\u0120sell": 6911, "ourney": 6912, "\u0120businesses": 6913, "\u0120kilomet": 6914, "anned": 6915, "rip": 6916, "ducing": 6917, "\u0120easily": 6918, "\u0120opposite": 6919, "\u0120Ron": 6920, "\u0120prefer": 6921, "\u0120Entertainment": 6922, "68": 6923, "\u0120collaboration": 6924, "\u0120Colomb": 6925, "\u0120seconds": 6926, "\u0120decade": 6927, "\u0120arrang": 6928, "\u0120Diego": 6929, "\u0120advantage": 6930, "\u00c3\u0143a": 6931, "\u0120Cer": 6932, "\u0120displa": 6933, "\u0120ped": 6934, "\u0120Low": 6935, "\u0120Buddh": 6936, "\u0120Gib": 6937, "\u0120licens": 6938, "\u0120designs": 6939, "\u0120Rural": 6940, "\u00c4\u00ab": 6941, "\u0120shell": 6942, "\u0120Third": 6943, "\u0120committed": 6944, "idel": 6945, "\u0120details": 6946, "\u0120Plan": 6947, "\u0120ones": 6948, "ordan": 6949, "\u0120goods": 6950, "\u0120Mand": 6951, "\u0120philosophy": 6952, "unch": 6953, "\u0120seems": 6954, "\u0120stands": 6955, "\u0120enl": 6956, "\u0120grant": 6957, "\u0120shut": 6958, "\u0120stores": 6959, "\u00c3\u00bcr": 6960, "\u0120benef": 6961, "\u0120isol": 6962, "\u0120ban": 6963, "\u0120suburb": 6964, "\u0120typical": 6965, "\u0120renov": 6966, "\u0120Kentucky": 6967, "190": 6968, "dam": 6969, "\u0120marine": 6970, "\u0120Dougl": 6971, "\u0120Clin": 6972, "\u0120Oak": 6973, "\u0120transition": 6974, "\u0120factors": 6975, "\u0120dry": 6976, "\u0120Lieutenant": 6977, "\u0120operates": 6978, "43": 6979, "\u0120mist": 6980, "\u0120Israeli": 6981, "\u0120proced": 6982, "\u0120resign": 6983, "level": 6984, "r\u00c3\u00a9": 6985, "\u0120greatest": 6986, "\u0120Houston": 6987, "\u0120standing": 6988, "\u0120purchase": 6989, "eler": 6990, "\u0120actual": 6991, "\u0120Adam": 6992, "arry": 6993, "\u0120enfor": 6994, "\u0120Mean": 6995, "\u0120Magazine": 6996, "\u0120clean": 6997, "\u0120Mayor": 6998, "\u0120Palest": 6999, "DA": 7000, "oli": 7001, "\u0120railroad": 7002, "box": 7003, "\u0120medium": 7004, "election": 7005, "\u0120Mississ": 7006, "\u0120Rab": 7007, "\u0120passengers": 7008, "oslav": 7009, "\u0120worth": 7010, "\u0120Works": 7011, "\u0120notably": 7012, "inner": 7013, "\u0120Mit": 7014, "\u0120\u00c4": 7015, "active": 7016, "isa": 7017, "\u0120Hans": 7018, "\u0120Dal": 7019, "\u0120parallel": 7020, "olas": 7021, "\u0120refuge": 7022, "\u0120Additionally": 7023, "ES": 7024, "burn": 7025, "\u0120accommod": 7026, "\u0120aware": 7027, "aro": 7028, "\u0120broken": 7029, "\u0120Frederick": 7030, "\u0120delay": 7031, "\u0120Bou": 7032, "\u0120items": 7033, "vens": 7034, "\u0120Connect": 7035, "\u0120Squadron": 7036, "stan": 7037, "\u0120Commonwealth": 7038, "ules": 7039, "\u0120jazz": 7040, "\u0120Album": 7041, "\u01201913": 7042, "\u0120drawn": 7043, "\u0120damaged": 7044, "\u0120Ku": 7045, "\u0120session": 7046, "\u0120measures": 7047, "\u01201911": 7048, "\u0120courts": 7049, "\u0120contributions": 7050, "\u00c4\u00b1": 7051, "\u0120streets": 7052, "\u0120reaction": 7053, "resents": 7054, "\u0120retained": 7055, "\u0120didn": 7056, "\u0120criticized": 7057, "rome": 7058, "\u0120starred": 7059, "\u0120bottom": 7060, "\u0120bishop": 7061, "\u0120commit": 7062, "79": 7063, "\u0120residential": 7064, "\u0120Treat": 7065, "\u0120Once": 7066, "pective": 7067, "cons": 7068, "\u0120demand": 7069, "ippi": 7070, "\u0120faith": 7071, "\u0120piano": 7072, "\u0120Imperial": 7073, "\u0120Chile": 7074, "\u0120southeast": 7075, "\u0120charged": 7076, "\u0120admitted": 7077, "\u0120hour": 7078, "\u0120knock": 7079, "\u0120Farm": 7080, "\u0120painted": 7081, "rav": 7082, "\u0120owners": 7083, "\u0120catal": 7084, "\u0120select": 7085, "\u0120ans": 7086, "zz": 7087, "\u0120trip": 7088, "ci": 7089, "\u0120chain": 7090, "racy": 7091, "\u0120Danish": 7092, "\u0120Dur": 7093, "ilst": 7094, "\u0120assumed": 7095, "\u0120defeating": 7096, "\u0120why": 7097, "\u0120habitat": 7098, "\u0120routes": 7099, "\u0120Prix": 7100, "mi": 7101, "idden": 7102, "\u0120rooms": 7103, "\u0120stood": 7104, "\u0120stages": 7105, "\u0120immigr": 7106, "\u0120solid": 7107, "\u0120Gallery": 7108, "\u0120Anderson": 7109, "\u0120Space": 7110, "\u0120headed": 7111, "adi": 7112, "\u0120credited": 7113, "iami": 7114, "obe": 7115, "\u0120copy": 7116, "\u0120attract": 7117, "\u0120duty": 7118, "\u0120capture": 7119, "\u0120AC": 7120, "\u0120images": 7121, "\u0120web": 7122, "\u0120rich": 7123, "\u0120Heart": 7124, "rastructure": 7125, "amic": 7126, "\u0120Communist": 7127, "abled": 7128, "\u0120reality": 7129, "\u0120documents": 7130, "\u0120determine": 7131, "\u0120prize": 7132, "\u0120lat": 7133, "\u0120shall": 7134, "\u0120membership": 7135, "\u0120Dig": 7136, "\u0120hill": 7137, "\u0120soci": 7138, "\u0120Ban": 7139, "star": 7140, "rolled": 7141, "\u0120remark": 7142, "Man": 7143, "don": 7144, "\u0120Express": 7145, "\u0120winners": 7146, "\u0120delivered": 7147, "\u0120Nik": 7148, "\u0120represents": 7149, "\u0120Argentina": 7150, "\u0120releg": 7151, "\u0120Wy": 7152, "\u0120teachers": 7153, "\u0120Na": 7154, "\u0120experienced": 7155, "\u0120freedom": 7156, "\u0120Brand": 7157, "adow": 7158, "\u01201890": 7159, "\u0120minute": 7160, "\u0120Quebec": 7161, "insula": 7162, "\u0120somew": 7163, "\u0120doll": 7164, "\u0120comic": 7165, "\u0120Tokyo": 7166, "\u0120Tar": 7167, "\u0120throw": 7168, "thodox": 7169, "\u0120selling": 7170, "\u0120Rugby": 7171, "\u0120bond": 7172, "\u0120lawyer": 7173, "\u0120Hotel": 7174, "\u0120heat": 7175, "\u0120attached": 7176, "othing": 7177, "lected": 7178, "\u0120accompanied": 7179, "arest": 7180, "\u0120obl": 7181, "\u0120southwest": 7182, "\u0120champions": 7183, "\u0120Local": 7184, "\u0120Rang": 7185, "64": 7186, "\u0120Live": 7187, "\u0120motion": 7188, "\u01201908": 7189, "\u0120purposes": 7190, "enh": 7191, "\u0120chair": 7192, "IT": 7193, "\u0120Architect": 7194, "\u0120Gard": 7195, "\u0120vocals": 7196, "night": 7197, "oming": 7198, "\u0120Nag": 7199, "\u0120Jay": 7200, "\u0120archae": 7201, "\u0120shel": 7202, "\u0120boys": 7203, "\u012042": 7204, "\u0120divisions": 7205, "\u0120Hollywood": 7206, "\u0120significantly": 7207, "\u0120Brian": 7208, "teenth": 7209, "ogether": 7210, "\u0120showing": 7211, "\u0120wings": 7212, "\u0120x": 7213, "\u0120Taiwan": 7214, "iller": 7215, "dale": 7216, "\u0120Patrick": 7217, "\u0120Baseball": 7218, "\u0120milit": 7219, "\u0120Cemetery": 7220, "\u0120circum": 7221, "\u0120Sport": 7222, "\u0120sequence": 7223, "\u0120Alab": 7224, "related": 7225, "iot": 7226, "\u0120publications": 7227, "\u0120Allen": 7228, "\u0120summ": 7229, "\u0120Ark": 7230, "\u0120renew": 7231, "\u0120cod": 7232, "\u0120Ukraine": 7233, "\u0120unsuccess": 7234, "\u0120Samuel": 7235, "finals": 7236, "\u0120restored": 7237, "\u0120looking": 7238, "\u0120Ottoman": 7239, "\u0120demonst": 7240, "irt": 7241, "\u0120Hug": 7242, "uerto": 7243, ")\"": 7244, "\u0120provincial": 7245, "\u0120upd": 7246, "coming": 7247, "\u0120investment": 7248, "\u0120device": 7249, "\u0120Dublin": 7250, "\u0120coll": 7251, "\u0120painter": 7252, "ailed": 7253, "\u0120bran": 7254, "\u0120policies": 7255, "lahoma": 7256, "\u0120restrict": 7257, "\u0120recip": 7258, "\u0120Heritage": 7259, "\u0120Prin": 7260, "\u0120degrees": 7261, "\u0120Denmark": 7262, "Ne": 7263, "yles": 7264, "ture": 7265, "\u0120Ale": 7266, "\u0120check": 7267, "\u0120Round": 7268, "lock": 7269, "88": 7270, "\u0120context": 7271, "\u0120intelligence": 7272, "\u0120Village": 7273, "\u00c4\u0125": 7274, "aired": 7275, "\u0120Roc": 7276, "\u0120cycle": 7277, "\u012055": 7278, "ellite": 7279, "\u0120anniversary": 7280, "\u0120driving": 7281, "\u0120Legislative": 7282, "uma": 7283, "\u0120adapted": 7284, "\u0120aer": 7285, "\u0120Detroit": 7286, "\u0120caught": 7287, "inate": 7288, "\u0120gets": 7289, "\u0120nothing": 7290, "\u0120separated": 7291, "\u0120Afghan": 7292, "\u0120Phys": 7293, "\u0120colonial": 7294, "\u0120franchise": 7295, "assador": 7296, "who": 7297, "\u0120institution": 7298, "\u0120alleg": 7299, "\u0120Ga": 7300, "\u0120alt": 7301, "enny": 7302, "\u0120Cra": 7303, "\u0120Hills": 7304, "\u0120depth": 7305, "\u0120nor": 7306, "agu": 7307, "\u0120electronic": 7308, "\u0120concerns": 7309, "\u0120Real": 7310, "\u0120flying": 7311, "\u0120persons": 7312, "\u0120Iowa": 7313, "\u0120deputy": 7314, "\u0120tick": 7315, "\u0120trail": 7316, "\u0120duties": 7317, "\u0120CEO": 7318, "\u0120Dick": 7319, "inburgh": 7320, "\u0120accur": 7321, "emble": 7322, "agn": 7323, "\u0120Operation": 7324, "\u0120popularity": 7325, "\u0120compris": 7326, "\u0120tries": 7327, "\u0120bed": 7328, "avalry": 7329, "\u0120Rand": 7330, "\u0120veter": 7331, "\u0120Juan": 7332, "cious": 7333, "\u0120arrival": 7334, "\u0120conqu": 7335, "\u0120Buck": 7336, "\u0120stopped": 7337, "\u0120Sel": 7338, "\u0120flo": 7339, "\u0120vary": 7340, "\u0120Demographics": 7341, "argo": 7342, "\u0120garden": 7343, "\u0120Kam": 7344, "\u0120suggests": 7345, "\u0120priest": 7346, "\u0120Belgium": 7347, "\u0120unus": 7348, "icut": 7349, "issance": 7350, "\u0120Jesus": 7351, "\u0120thick": 7352, "\u0120musician": 7353, "\u0120Lank": 7354, "\u0120legislation": 7355, "\u0120Deputy": 7356, "\u0120da": 7357, "\u0120poverty": 7358, "borough": 7359, "\u0120Cost": 7360, "rene": 7361, "\u0120uniform": 7362, "\u0120AM": 7363, "\u0120Wolf": 7364, "\u0120Harvard": 7365, "\u0120Douglas": 7366, "\u0120Alabama": 7367, "\u0120Rid": 7368, "olt": 7369, "69": 7370, "\u0120naval": 7371, "\u0120learned": 7372, "ooth": 7373, "\u0120save": 7374, "\u0120interested": 7375, "\u0120Hawai": 7376, "found": 7377, "\u0120Puerto": 7378, "\u0120factor": 7379, "aux": 7380, "\u0120Jam": 7381, "\u0120Independent": 7382, "uster": 7383, "\u0120understanding": 7384, "pse": 7385, "\u0120wounded": 7386, "\u0120biggest": 7387, "\u0120brain": 7388, "\u0120FA": 7389, "\u0120carbon": 7390, "Star": 7391, "\u0120neighbour": 7392, "\u0120Moore": 7393, "\u0120Ltd": 7394, "\u0120mort": 7395, "ails": 7396, "\u0120meters": 7397, "coh": 7398, "\u0120severe": 7399, "\u0120publishing": 7400, "\u0120crisis": 7401, "\u0120Set": 7402, "\u0120chance": 7403, "\u0120innov": 7404, "\u0120formally": 7405, "\u0120competitions": 7406, "\u0120Children": 7407, "\u0120commune": 7408, "\u0120faculty": 7409, "\u0120arranged": 7410, "\u0120Rem": 7411, "\u0120subjects": 7412, "\u0120preced": 7413, "\u0120communication": 7414, "\u0120fly": 7415, "\u0120Shah": 7416, "\u0120organisation": 7417, "\u0120Ky": 7418, "\u0120ownership": 7419, "\u0120Constitution": 7420, "\u0120protected": 7421, "eline": 7422, "\u0120pool": 7423, "\u0120flows": 7424, "cop": 7425, "\u0120shooting": 7426, "\u0120advent": 7427, "\u0120inher": 7428, "oyd": 7429, "\u0120Gordon": 7430, "67": 7431, "mph": 7432, "\u0120brig": 7433, "\u0120Harris": 7434, "\u0120comput": 7435, "\u0120eye": 7436, "\u0120Inn": 7437, "\u0120Pict": 7438, "\u0120Territ": 7439, "\u0120protest": 7440, "\u0120gender": 7441, "\u0120prepared": 7442, "\u0120Jordan": 7443, "PC": 7444, "aver": 7445, "\u0120carrying": 7446, "\u0120retail": 7447, "\u0120Lyn": 7448, "pat": 7449, "\u0120involving": 7450, "\u0120Trib": 7451, "\u0120Internet": 7452, "\u0120dynasty": 7453, "\u0120Miami": 7454, "\u0120Kaz": 7455, "\u0120translated": 7456, "\u0120Railroad": 7457, "\u0120Mississippi": 7458, "\u0120Oklahoma": 7459, "\u0120mine": 7460, "\u0120fired": 7461, "\u0120windows": 7462, "\u0120calc": 7463, "\u0120Reserve": 7464, "\u0120classified": 7465, "ello": 7466, "\u0120Edinburgh": 7467, "\u0120Alber": 7468, "\u0120responsibility": 7469, "unnel": 7470, "ads": 7471, "\u0120Rights": 7472, "\u0120Anthony": 7473, "\u0120phen": 7474, "\u0120rates": 7475, "enez": 7476, "\u0120Bry": 7477, "\u0120expression": 7478, "istant": 7479, "vo": 7480, "\u0120stayed": 7481, "hess": 7482, "jo": 7483, "\u0120See": 7484, "\u0120thousands": 7485, "\u0120colour": 7486, "\u0120mining": 7487, "lades": 7488, "\u0120grass": 7489, "rat": 7490, "\u0120fan": 7491, "\u0120pand": 7492, "\u0120Silver": 7493, "\u0120Brazilian": 7494, "\u0120Let": 7495, "onder": 7496, "IV": 7497, "\u0120interpret": 7498, "\u0120user": 7499, "\u0120Liver": 7500, "\u0120Cooper": 7501, "\u0120synthe": 7502, "\u0120UC": 7503, "\u0120defensive": 7504, "\u0120sed": 7505, "utt": 7506, "\u0120dating": 7507, "\u0120successor": 7508, "\u0120Palace": 7509, "chi": 7510, "EA": 7511, "etime": 7512, "\u0120Alban": 7513, "\u0120Lanc": 7514, "\u0120divor": 7515, "cha": 7516, "ishment": 7517, "agen": 7518, "\u0120imprison": 7519, "\u0120criticism": 7520, "\u0120aspects": 7521, "\u0120peaked": 7522, "\u0120Chairman": 7523, "\u0120Pap": 7524, "\u0120refere": 7525, "eless": 7526, "\u0120Battalion": 7527, "\u0120suspend": 7528, "\u0120photograph": 7529, "heme": 7530, "\u0120Berg": 7531, "\u0120util": 7532, "\u0120Ern": 7533, "\u0120universities": 7534, "\u0120difference": 7535, "rons": 7536, "igious": 7537, "\u0120differences": 7538, "\u0120Age": 7539, "\u0120Hamp": 7540, "\u00c3\u00b3w": 7541, "\u0120Tamil": 7542, "\u0120Sky": 7543, "\u0120theater": 7544, "\u0120practices": 7545, "\u0120anth": 7546, "\u0120appropri": 7547, "do": 7548, "All": 7549, "lov": 7550, "\u0120Karl": 7551, "\u0120medicine": 7552, "\u0120tack": 7553, "\u0120Las": 7554, "\u0120turns": 7555, "\u0120otherwise": 7556, "\u0120daughters": 7557, "\u0120Liter": 7558, "\u0120seed": 7559, "imore": 7560, "\u0120myth": 7561, "\u0120IS": 7562, "\u0120assistance": 7563, "\u0120locality": 7564, "\u0120hits": 7565, "ymn": 7566, "\u0120returns": 7567, "\u0120herit": 7568, "rix": 7569, "\u01201905": 7570, "86": 7571, "\u0120Prote": 7572, "\u0120Season": 7573, "\u0120Construction": 7574, "gro": 7575, "\u0120Eag": 7576, "\u0120qualifying": 7577, "\u0120Ukrain": 7578, "\u0120extremely": 7579, "di": 7580, "\u0120description": 7581, "\u0120Pun": 7582, "\u0120Associ": 7583, "ardo": 7584, "\u0120ensure": 7585, "\u0120sun": 7586, "\u0120Gulf": 7587, "\u0120Hal": 7588, "\u0120equivalent": 7589, "\u0120Amb": 7590, "\u0120linked": 7591, "\u0120legend": 7592, "\u0120mouth": 7593, "\u0120Mountains": 7594, "\u0120Mission": 7595, "\u0120Vin": 7596, "\u0120Montreal": 7597, "\u0120Austrian": 7598, "\u0120Lin": 7599, "\u0120Banglades": 7600, "\u0120diagn": 7601, "\u0120testing": 7602, "onom": 7603, "\u0120advis": 7604, "laimed": 7605, "TS": 7606, "\u0120Stew": 7607, "\u0120crossing": 7608, "eas": 7609, "\u0120window": 7610, "\u01201880": 7611, "\u0120Aud": 7612, "\u0120challenge": 7613, "\u0120stret": 7614, "\u0120terror": 7615, "\u0120graduating": 7616, "\u0120ign": 7617, "\u0120tank": 7618, "rong": 7619, "\u0120Phill": 7620, "\u0120veget": 7621, "eland": 7622, "\u0120Saturday": 7623, "\u0120nickn": 7624, "\u0120Environment": 7625, "IN": 7626, "lad": 7627, "isd": 7628, "\u0120Roberts": 7629, "\u0120wave": 7630, "\u01201906": 7631, "\u0120Pitts": 7632, "otte": 7633, "\u0120Cook": 7634, "\u0120Louisiana": 7635, "\u0120Atlanta": 7636, "iley": 7637, "Is": 7638, "ugar": 7639, "\u0120hors": 7640, "72": 7641, "\u0120Cow": 7642, "\u0120recru": 7643, "\u0120Meanwhile": 7644, "\u0120coastal": 7645, "hab": 7646, "elson": 7647, "\u0120Stra": 7648, "\u0120vo": 7649, "mat": 7650, "\u0120Ul": 7651, "\u0120devices": 7652, "\u0120filed": 7653, "\u0120rose": 7654, "\u0120novels": 7655, "\u0120Non": 7656, "\u0120weekly": 7657, "\u0120replacement": 7658, "\u0120Disney": 7659, "\u0120Here": 7660, "arsh": 7661, "\u0120Antonio": 7662, "98": 7663, "gon": 7664, "\u0120assault": 7665, "arner": 7666, "veland": 7667, "\u0120roughly": 7668, "icate": 7669, "\u0120actors": 7670, "\u0120Meth": 7671, "\u01201907": 7672, "inian": 7673, "\u0120requirements": 7674, "\u0120occupation": 7675, "\u0120bat": 7676, "\u0120missing": 7677, "\u0120flowers": 7678, "\u0120classic": 7679, "\u0120Indonesia": 7680, "grade": 7681, "TO": 7682, "\u0120nom": 7683, "ctic": 7684, "\u0120banks": 7685, "\u0120Portugal": 7686, "profit": 7687, "\u0120cold": 7688, "\u0120relative": 7689, "aked": 7690, "ners": 7691, "duct": 7692, "crib": 7693, "odge": 7694, "\u0120McK": 7695, "\u0120declined": 7696, "\u01201909": 7697, "tery": 7698, "\u0120scheme": 7699, "62": 7700, "\u0120Yug": 7701, "allas": 7702, "\u0120authors": 7703, "\u0120Margaret": 7704, "\u0120Pur": 7705, "\u0120Ped": 7706, "\u0120fixed": 7707, "uous": 7708, "\u0120coverage": 7709, "\u0120squadron": 7710, "mod": 7711, "\u0120teen": 7712, "\u0120Doctor": 7713, "\u0120mobile": 7714, "\u0120commemor": 7715, "\u0120evening": 7716, "\u0120depos": 7717, "Pro": 7718, "\u0120Nar": 7719, "ultan": 7720, "dd": 7721, "\u0120covering": 7722, "\u0120Welsh": 7723, "pers": 7724, "58": 7725, "LC": 7726, "aby": 7727, "\u0120kid": 7728, "\u0120buy": 7729, "\u0120storage": 7730, "\u0120heritage": 7731, "\u0120emp": 7732, "\u0120Crown": 7733, "\u0120Connecticut": 7734, "angel": 7735, "\u0120cous": 7736, "umin": 7737, "orial": 7738, "\u0120victims": 7739, "\u0120Vienna": 7740, "\u0120sort": 7741, "\u0120Officer": 7742, "bal": 7743, "\u0120Bart": 7744, "\u0120Cleveland": 7745, "\u0120Studios": 7746, "oen": 7747, "ridges": 7748, "\u0120Init": 7749, "\u0120appearing": 7750, "\u0120Chall": 7751, "\u0120Grant": 7752, "\u0120Lam": 7753, "\u0120perhaps": 7754, "\u0120Liverpool": 7755, "\u0120Eric": 7756, "zer": 7757, ";/": 7758, "'m": 7759, "\u0120disappe": 7760, "\u0120Hand": 7761, "\u0120Micro": 7762, "\u0120prisoners": 7763, "rapy": 7764, "\u0120opinion": 7765, "\u0120SR": 7766, "\u0120Orchestra": 7767, "):": 7768, "ista": 7769, "\u0120restaurant": 7770, "\u0120pandemic": 7771, "\u0120DC": 7772, "utions": 7773, "\u0120instance": 7774, "\u0120offensive": 7775, "stances": 7776, "\u0120option": 7777, "My": 7778, "\u0120expedition": 7779, "\u0120Sud": 7780, "\u0120Metropolitan": 7781, "\u0120exception": 7782, "\u0120assembly": 7783, "\u0120cited": 7784, "\u0120ago": 7785, "\u0120technique": 7786, "ocracy": 7787, "ographical": 7788, "\u0120medieval": 7789, "\u0120capable": 7790, "\u0120coordin": 7791, "span": 7792, "\u0120Alexand": 7793, "\u0120Whe": 7794, "break": 7795, "\u0120fra": 7796, "\u0120theore": 7797, "MP": 7798, "\u0120prime": 7799, "\u0120heads": 7800, "\u0120soil": 7801, "\u0120appointment": 7802, "\u0120encounter": 7803, "\u0120offering": 7804, "\u0120translation": 7805, "\u0120surre": 7806, "En": 7807, "\u0120Son": 7808, "\u0120Il": 7809, "\u0120memorial": 7810, "\u0120Schools": 7811, "\u0120Key": 7812, "chang": 7813, "\u0120tennis": 7814, "\u0120liqu": 7815, "\u0120adding": 7816, "\u0120Ryan": 7817, "\u0120Row": 7818, "cur": 7819, "\u0120Var": 7820, "\u0120Dean": 7821, "\u0120gang": 7822, "\u0120signing": 7823, "\u0120Lawrence": 7824, "iece": 7825, "door": 7826, "roke": 7827, "\u0120correct": 7828, "\u0120requires": 7829, "\u0120soundtrack": 7830, "\u0120Matthew": 7831, "\u0120hosts": 7832, "hyth": 7833, "ogan": 7834, "itals": 7835, "\u0120manus": 7836, "\u0120Maur": 7837, "\u012041": 7838, "\u0120Lang": 7839, "\u0120childhood": 7840, "\u0120questions": 7841, "\u0120Five": 7842, "\u0120celebrated": 7843, "\u0120influential": 7844, "\u0120explained": 7845, "\u0120frag": 7846, "unes": 7847, "mosp": 7848, "\u0120proposal": 7849, "\u0120Fil": 7850, "\u0120ABC": 7851, "71": 7852, "intend": 7853, "\u0120Fern": 7854, "\u0120Commander": 7855, "\u0120temporary": 7856, "\u0120Tit": 7857, "from": 7858, "\u0120Syn": 7859, "\u0120murd": 7860, "\u0120justice": 7861, "aine": 7862, "\u0120processes": 7863, "ategory": 7864, "icks": 7865, "\u0120Defense": 7866, "atically": 7867, "\u0120Malaysia": 7868, "\u0120solution": 7869, "\u01201904": 7870, "lete": 7871, "\u0120Champions": 7872, "63": 7873, "\u0120Cru": 7874, "\u0120studying": 7875, "top": 7876, "\u0120dim": 7877, "inch": 7878, "\u0120raise": 7879, "\u0120Seattle": 7880, "\u0120truck": 7881, "\u0120downtown": 7882, "\u0120increasingly": 7883, "\u0120Global": 7884, "\u0120PA": 7885, "ecution": 7886, "74": 7887, "inding": 7888, "\u0120wooden": 7889, "ilk": 7890, "\u0120branches": 7891, "Re": 7892, "ibl": 7893, "\u0120withdraw": 7894, "\u0120\u00d0": 7895, "\u0120controversy": 7896, "\u0120Run": 7897, "\u0120synd": 7898, "\u0120achieve": 7899, "\u0120Anna": 7900, "\u0120enh": 7901, "\u0120credit": 7902, "pen": 7903, "Ph": 7904, "\u0120Bush": 7905, "\u0120Pow": 7906, "\u0120Rot": 7907, "\u0120dated": 7908, "ellect": 7909, "edding": 7910, "\u0120canc": 7911, "III": 7912, "Cl": 7913, "\u0120losses": 7914, "\u0120artistic": 7915, "ovi\u00c4\u0129": 7916, "\u0120bit": 7917, "\u0120replacing": 7918, "\u0120NY": 7919, "\u0120Iron": 7920, "\u0120DNA": 7921, "\u0120finals": 7922, "61": 7923, "\u0120Colonel": 7924, "\u0120debate": 7925, "\u0120Agency": 7926, "\u0120poem": 7927, "\u0120contra": 7928, "\u0120components": 7929, "ugu": 7930, "59": 7931, "tenance": 7932, "ivated": 7933, "\u0120plate": 7934, "\u0120nations": 7935, "\u0120Upper": 7936, "estyle": 7937, "\u0120Beg": 7938, "\u0120Trump": 7939, "\u0120recept": 7940, "rage": 7941, "\u0120medals": 7942, "\u0120forming": 7943, "\u0120entering": 7944, "\u0120picture": 7945, "\u0120Alan": 7946, "\u0120Pear": 7947, "\u0120frame": 7948, "\u0120monument": 7949, "\u0120Lith": 7950, "General": 7951, "\u0120vert": 7952, "\u0120Hig": 7953, "\u0120Athletic": 7954, "\u0120explos": 7955, "\u0120reputation": 7956, "GB": 7957, "\u0120competing": 7958, "El": 7959, "\u0120vessels": 7960, "\u0120Ow": 7961, "\u0120bringing": 7962, "\u0120expect": 7963, "miral": 7964, "\u0120crop": 7965, "inations": 7966, "\u0120perfect": 7967, "\u0120nomination": 7968, "\u0120affairs": 7969, "\u0120denied": 7970, "\u0120Honor": 7971, "\u0120Ukrainian": 7972, "\u0120Culture": 7973, "ovo": 7974, "\u0120dies": 7975, "phone": 7976, "astery": 7977, "\u0120relief": 7978, "\u0120Singh": 7979, "\u0120Walker": 7980, "\u0120listing": 7981, "\u0120accompl": 7982, "\u0120Fal": 7983, "\u0120tied": 7984, "\u0120threatened": 7985, "\u0120Invest": 7986, "\u0120Donald": 7987, "ilarly": 7988, "\u0120snow": 7989, "\u0120Morgan": 7990, "\u0120kingdom": 7991, "\u0120weak": 7992, "ework": 7993, "\u0120Yan": 7994, "\u0120Broadcast": 7995, "\u0120expert": 7996, "\u0120instruments": 7997, "\u0120Fleet": 7998, "\u0120Lev": 7999, "On": 8000, "\u0120strongly": 8001, "\u0120boundary": 8002, "\u0120artillery": 8003, "\u0120Kennedy": 8004, "ideo": 8005, "\u0120annually": 8006, "\u0120Hungarian": 8007, "\u0120Members": 8008, "\u0120Race": 8009, "\u0120Saf": 8010, "\u0120forests": 8011, "%,": 8012, "\u0120Hungary": 8013, "\u0120collections": 8014, "\u0120recre": 8015, "rant": 8016, "\u0120filled": 8017, "\u0120experiences": 8018, "\u0120Baltimore": 8019, "\u0120falls": 8020, "\u0120Peters": 8021, "\u0120manufacturing": 8022, "\u0120accounts": 8023, "olph": 8024, "\u0120journey": 8025, "cular": 8026, "\u0120note": 8027, "ruption": 8028, "acher": 8029, "Con": 8030, "\u0120wheel": 8031, "ocks": 8032, "hips": 8033, "\u0120\u0120": 8034, "\u0120Kev": 8035, "\u0120evolution": 8036, "person": 8037, "\u0120existed": 8038, "merce": 8039, "\u0120Kings": 8040, "IP": 8041, "\u0120Ran": 8042, "\u0120prohib": 8043, "\u0120landing": 8044, "\u0120cool": 8045, "udden": 8046, "\u0120amend": 8047, "\u0120struck": 8048, "\u0120considerable": 8049, "\u0120Rap": 8050, "\u0120helping": 8051, "\u0120markets": 8052, "ahn": 8053, "\u0120message": 8054, "xts": 8055, "\u0120manner": 8056, "\u0120Yugoslav": 8057, "\u0120output": 8058, "\u0120appeal": 8059, "\u0120Hispan": 8060, "\u0120fishing": 8061, "\u0120benefit": 8062, "\u01201902": 8063, "\u0120PC": 8064, "\u0120filmed": 8065, "\u0120strategy": 8066, "\u0120Tig": 8067, "\u0120Agricult": 8068, "\u0120Market": 8069, "\u0120approval": 8070, "\u01201901": 8071, "rell": 8072, "apolis": 8073, "\u0120strip": 8074, "\u0120surrounded": 8075, "\u0120supposed": 8076, "\u0120imag": 8077, "iege": 8078, "\u0120involvement": 8079, "shaped": 8080, "\u0120unf": 8081, "story": 8082, "\u01201870": 8083, "89": 8084, "orf": 8085, "asters": 8086, "\u0120recordings": 8087, "amps": 8088, "olly": 8089, "\u0120charts": 8090, "\u0120warm": 8091, "emen": 8092, "73": 8093, "\u0120finding": 8094, "marine": 8095, "\u0120tie": 8096, "sm": 8097, "gow": 8098, "\u0120eval": 8099, "\u0120visitors": 8100, "nal": 8101, "\u0120decline": 8102, "where": 8103, "ushing": 8104, "\u0120Garden": 8105, "\u0120Drag": 8106, "pre": 8107, "\u0120Convention": 8108, "\u0120Alliance": 8109, "\u0120Conservative": 8110, "\u0120meets": 8111, "\u0120Hop": 8112, "edia": 8113, "\u0120wides": 8114, "\u0120electoral": 8115, "\u0120gather": 8116, "enses": 8117, "\u0120indicated": 8118, "\u0120Ward": 8119, "\u0120Finland": 8120, "\u0120Lane": 8121, "hard": 8122, "\u0120Johann": 8123, "ribute": 8124, "\u0120ru": 8125, "\u0120Nazi": 8126, "\u0120championships": 8127, "Mar": 8128, "\u0120lasted": 8129, "52": 8130, "idency": 8131, "\u0120Si": 8132, "Be": 8133, "OC": 8134, "\u0120fruit": 8135, "\u0120extens": 8136, "\u0120Glas": 8137, "\u0120eleven": 8138, "called": 8139, "\u0120completion": 8140, "uri": 8141, "\u0120Laure": 8142, "\u0120Ry": 8143, "\u0120eyes": 8144, "\u0120Orthodox": 8145, "\u0120rounds": 8146, "\u0120ble": 8147, "chell": 8148, "igible": 8149, "\u0120mental": 8150, "\u0120papers": 8151, "\u0120alcoh": 8152, "aron": 8153, "\u0120secure": 8154, "atherine": 8155, "\u01201903": 8156, "pread": 8157, "\u0120Singles": 8158, "\u0120Dave": 8159, "\u0120Peace": 8160, "\u0120Imp": 8161, "ictional": 8162, "\u0120Nav": 8163, "\u0120eliminated": 8164, "\u0120weeke": 8165, "lon": 8166, "ayan": 8167, "\u0120amateur": 8168, "mingham": 8169, "\u0120guitarist": 8170, "ED": 8171, "\u0120Dyn": 8172, "\u0120Mach": 8173, "\u0120adaptation": 8174, "\u012052": 8175, "\u00e1\u00bb": 8176, "rak": 8177, "\u0120Senator": 8178, "force": 8179, "\u0120Rick": 8180, "aments": 8181, "\u0120cup": 8182, "\u0120fal": 8183, "mate": 8184, "\u0120catch": 8185, "zo": 8186, "\u0120assign": 8187, "aints": 8188, "\u0120pitch": 8189, "\u0120Opera": 8190, "sch": 8191, "\u0120Originally": 8192, "\u0120lists": 8193, "las": 8194, "\u00c3\u00ab": 8195, "eping": 8196, "\u0120Gene": 8197, "bishop": 8198, "rik": 8199, "ania": 8200, "\u0120Lower": 8201, "\u00c3\u00a5": 8202, "\u0120shif": 8203, "\u0120movements": 8204, "\u0120aggreg": 8205, "\u0120lov": 8206, "isition": 8207, "\u0120counties": 8208, "\u0120Rio": 8209, "\u0120grown": 8210, "ref": 8211, "\u0120Unlike": 8212, "\u0120subsidi": 8213, "\u0120Alfred": 8214, "ighters": 8215, "\u0120spiritual": 8216, "\u0120rend": 8217, "\u0120parliamentary": 8218, "\u0120Jos\u00c3\u00a9": 8219, "uj": 8220, "\u012043": 8221, "\u0120plane": 8222, "\u0120concrete": 8223, "\u0120Bull": 8224, "\u0120Kelly": 8225, "\u0120jurisd": 8226, "\u0120Buff": 8227, "rac": 8228, "\u0120eighth": 8229, "09": 8230, "\u0120Player": 8231, "\u0120Along": 8232, "\u0120net": 8233, "\u0120surviving": 8234, "ported": 8235, "SS": 8236, "hus": 8237, "\u0120penalty": 8238, "\u0120Confeder": 8239, "ials": 8240, "\u0120Mrs": 8241, "\u0120bes": 8242, "essions": 8243, "\u0120acted": 8244, "'re": 8245, "GA": 8246, "\u0120drew": 8247, "osm": 8248, "\u0120Cathedral": 8249, "\u0120Sha": 8250, "\u0120rivers": 8251, "\u00c3\u0143n": 8252, "ifer": 8253, "inter": 8254, "\u0120emergency": 8255, "igrated": 8256, "08": 8257, "\u0120Nort": 8258, "arat": 8259, "rett": 8260, "\u0120somewhat": 8261, "\u0120fit": 8262, "\u0120Andre": 8263, "\u0120SA": 8264, "\u0120neut": 8265, "\u0120modified": 8266, "xual": 8267, "\u0120absor": 8268, "die": 8269, "graduate": 8270, "\u0120Rub": 8271, "51": 8272, "iki": 8273, "ET": 8274, "\u0120Broadway": 8275, "Ind": 8276, "\u0120react": 8277, "\u0120donated": 8278, "\u0120fear": 8279, "\u0120Authority": 8280, "ivation": 8281, "\u0120Ay": 8282, "dr": 8283, "\u0120mountains": 8284, "\u0120Roger": 8285, "\u0120Equ": 8286, "\u0120Kevin": 8287, "\u0120Pittsburgh": 8288, "inction": 8289, "\u0120prompt": 8290, "\u0120suspended": 8291, "\u0120classification": 8292, "\u0120Prom": 8293, "\u0120circuit": 8294, "\u0120fest": 8295, "\u0120huge": 8296, "\u0120equipped": 8297, "\u0120happened": 8298, "\u0120license": 8299, "\u0120UE": 8300, "54": 8301, "\u0120exerc": 8302, "\u0120participation": 8303, "iders": 8304, "\u0120reun": 8305, "\"-": 8306, "\u0120Leban": 8307, "\u0120Stewart": 8308, "\u0120couples": 8309, "\u0120elder": 8310, "\u0120mob": 8311, "\u0120Training": 8312, "\u0120thirty": 8313, "\u0120executed": 8314, "\u0120directors": 8315, "lease": 8316, "\u0120sufficient": 8317, "\u0120tur": 8318, "\u0120Energy": 8319, "\u0120cook": 8320, "\u0120print": 8321, "\u0120infrastructure": 8322, "\u0120Pas": 8323, "\u0120Bangladesh": 8324, "orer": 8325, "\u0120\u00c3\u012b": 8326, "\u0120edited": 8327, "rient": 8328, "ando": 8329, "\u0120satisf": 8330, "amental": 8331, "host": 8332, "ranean": 8333, "uda": 8334, "\u0120climb": 8335, "\u0120jobs": 8336, "\u0120continuing": 8337, "sea": 8338, "\u0120Russell": 8339, "\u0120dress": 8340, "\u0120Venez": 8341, "\u0120Patri": 8342, "\u0120vessel": 8343, "hu": 8344, "aware": 8345, "\u0120deaths": 8346, "look": 8347, "race": 8348, "\u0120Thompson": 8349, "\u0120attracted": 8350, "\u0120distinguished": 8351, "annels": 8352, "abilities": 8353, "\u0120plus": 8354, "lac": 8355, "\u0120recommended": 8356, "\u0120App": 8357, "mina": 8358, "\u0120widespread": 8359, "\u0120Gran": 8360, "\u0120Hindu": 8361, "\u0120shares": 8362, "\u0120speak": 8363, "As": 8364, "\u0120characteristics": 8365, "acon": 8366, "\u0120Metro": 8367, "\u0120+": 8368, "\u0120Campbell": 8369, "bridge": 8370, "\u0120vs": 8371, "\u0120controversial": 8372, "\u0120ham": 8373, "\u0120AT": 8374, "53": 8375, "\u00c3\u00b4": 8376, "\u0120populations": 8377, "\u0120tests": 8378, "\u0120Nep": 8379, "\u0120Birmingham": 8380, "\u0120pray": 8381, "\u0120Sarah": 8382, "final": 8383, "\u0120assass": 8384, "\u0120defence": 8385, "pression": 8386, "\u0120themes": 8387, "\u0120Ext": 8388, "\u0120Within": 8389, "\u0120pric": 8390, "\u0120Ever": 8391, "\u0120Nash": 8392, "\u0120illegal": 8393, "gressive": 8394, "asts": 8395, "HS": 8396, "ester": 8397, "\u012051": 8398, "\u0120genre": 8399, "\u0120draf": 8400, "\u0120frequency": 8401, "aph": 8402, "\u0120moder": 8403, "\u0120Critical": 8404, "\u0120representation": 8405, "\u0120meetings": 8406, "\u0120contested": 8407, "but": 8408, "poss": 8409, "otype": 8410, "\u0120theat": 8411, "\u0120traveled": 8412, "\u0120Austin": 8413, "\u0120Chamber": 8414, "\u0120ster": 8415, "dy": 8416, "\u0120turb": 8417, "\u0120Method": 8418, "\u0120Judge": 8419, "\u0120infantry": 8420, "\u0120occasionally": 8421, "\u0120elevation": 8422, "\u0120voting": 8423, "\u0120camera": 8424, "\u0120Brothers": 8425, "\u0120surf": 8426, "\u0120Arn": 8427, "ige": 8428, "\u0120whereas": 8429, "\u0120treated": 8430, "\u0120Information": 8431, "ounced": 8432, "\u0120Trad": 8433, "\u0120newspapers": 8434, "\u0120shore": 8435, "\u0120hur": 8436, "\u0120Vik": 8437, "\u0120Shortly": 8438, "\u0120posted": 8439, "\u00c5\u0126": 8440, "\u0120adopt": 8441, "mal": 8442, "\u0120Norman": 8443, "cknow": 8444, "ogs": 8445, "\u0120Dallas": 8446, "\u0120minimum": 8447, "uy": 8448, "\u0120Champion": 8449, "\u0120agriculture": 8450, "ector": 8451, "\u0120vic": 8452, "\u0120designer": 8453, "\u0120visiting": 8454, "nia": 8455, "\u0120effectively": 8456, "asure": 8457, "\u012046": 8458, "\u00c3\u00a9t": 8459, "?\"": 8460, "\u0120segment": 8461, "\u0120whilst": 8462, "\u0120repro": 8463, "\u0120changing": 8464, "\u0120expos": 8465, "olo": 8466, "iors": 8467, "\u0120Dream": 8468, "\u0120panel": 8469, "56": 8470, "\u0120Medicine": 8471, "\u0120lin": 8472, "\u0120Moon": 8473, "\u0120hang": 8474, "\u0120rapidly": 8475, "\u012047": 8476, "\u0120Basketball": 8477, "isi": 8478, "\u0120Nelson": 8479, "cho": 8480, "\u0120atmosp": 8481, "rena": 8482, "osph": 8483, "\u0120Dom": 8484, "\u0120retain": 8485, "\u0120skin": 8486, "\u0120ben": 8487, "\u0120intention": 8488, "\u0120attributed": 8489, "\u0120remainder": 8490, "\u0120visible": 8491, "\u0120Organization": 8492, "\u0120portrayed": 8493, "\u0120prede": 8494, "\u0120Instead": 8495, "\u0120Romania": 8496, "This": 8497, "FM": 8498, "attan": 8499, "\u01201898": 8500, "aman": 8501, "\u0120Bruce": 8502, "\u0120teach": 8503, "ailand": 8504, "\u0120Ll": 8505, "leased": 8506, "\u0120fled": 8507, "eed": 8508, "\u0120Adams": 8509, "\u0120drawing": 8510, "\u00d0\u00b0": 8511, "\u0120intersection": 8512, "\u0120suicide": 8513, "\u0120Prad": 8514, "hai": 8515, "\u0120emerged": 8516, "\u0120eld": 8517, "seud": 8518, "\u0120videos": 8519, "\u0120cards": 8520, "bach": 8521, "\u0120Camer": 8522, "\u0120Morris": 8523, "\u0120Lithuan": 8524, "\u0120platforms": 8525, "\u0120Box": 8526, "\u0120remember": 8527, "\u0120Gon": 8528, "\u0120definition": 8529, "aste": 8530, "\u0120admin": 8531, "lem": 8532, "\u0120Horn": 8533, "\u0120bot": 8534, "\u0120tools": 8535, "\u0120Sn": 8536, "\u0120ruling": 8537, "\u0120Franklin": 8538, "\u0120hip": 8539, "\u0120proport": 8540, "\u0120Bed": 8541, "\u0120Bachelor": 8542, "\u0120WW": 8543, "\u0120Event": 8544, "\u0120spoke": 8545, "\u0120acknow": 8546, "\u0120employment": 8547, "\u0120departure": 8548, "otes": 8549, "anny": 8550, "\u0120entertainment": 8551, "\u0120chapter": 8552, "master": 8553, "\u0120Wol": 8554, "\u0120fil": 8555, "\u0120ranking": 8556, "theless": 8557, "\u0120underground": 8558, "\u0120youngest": 8559, "\u0120architectural": 8560, "\u0120Hit": 8561, "wall": 8562, "lap": 8563, "\u0120injuries": 8564, "\u0120innings": 8565, "\u0120Lib": 8566, "\u0120Dec": 8567, "\u0120Marie": 8568, "aptist": 8569, "\u0120occasions": 8570, "\u00c3\u00a9s": 8571, "\u0120bear": 8572, "\u0120transportation": 8573, "roc": 8574, "\u0120anything": 8575, "elli": 8576, "\u0120Sac": 8577, "\u0120Trade": 8578, "\u0120Beck": 8579, "usted": 8580, "\u0120valid": 8581, "\u0120hundreds": 8582, "\u0120Victorian": 8583, "asa": 8584, "\u0120Protest": 8585, "DS": 8586, "\u0120Dak": 8587, "\u0120km": 8588, "\u0120greatly": 8589, "bat": 8590, "\u0120120": 8591, "gi": 8592, "\u0120dream": 8593, "rehens": 8594, "\u0120die": 8595, "\u0120Your": 8596, "\u0120mart": 8597, "MC": 8598, "\u0120Nob": 8599, "\u0120Guine": 8600, "hand": 8601, "\u0120Brooklyn": 8602, "\u0120arc": 8603, "\u0120Around": 8604, "\u0120belonging": 8605, "\u0120knew": 8606, "\u0120depending": 8607, "\u0120chapel": 8608, "\u0120endemic": 8609, "ultane": 8610, "\u0120landscape": 8611, "udes": 8612, "\u0120Boys": 8613, "\u0120Produ": 8614, "rations": 8615, "\u0120lieutenant": 8616, "\u0120tenure": 8617, "\u0120maintenance": 8618, "\u0120surgery": 8619, "\u0120honour": 8620, "\u0120beet": 8621, "\u0120erected": 8622, "\u0120femin": 8623, "\u0120soccer": 8624, "\u0120UEFA": 8625, "\u0120lob": 8626, "\u0120pron": 8627, "\u0120convention": 8628, "\u0120resolution": 8629, "\u0120Beat": 8630, "\u0120NBA": 8631, "ellectual": 8632, "\u0120undert": 8633, "\u0120wick": 8634, "ologists": 8635, "\u0120massive": 8636, "\u0120vision": 8637, "\u0120describe": 8638, "\u0120preserved": 8639, "\u0120Movement": 8640, "\u0120networks": 8641, "math": 8642, "Bl": 8643, "\u0120associate": 8644, "92": 8645, "\u0120Murray": 8646, "\u0120blocks": 8647, "ruction": 8648, "\u0120Qual": 8649, "\u0120Care": 8650, "icop": 8651, "\u0120suffering": 8652, "\u0120predomin": 8653, "\u0120supporters": 8654, "erbai": 8655, "\u0120furn": 8656, "\u0120Carter": 8657, "\u0120representatives": 8658, "oca": 8659, "\u0120cousin": 8660, "uated": 8661, "\u0120spoken": 8662, "\u0120pregn": 8663, "\u0120Wright": 8664, "96": 8665, "\u0120centers": 8666, "\u0120Theater": 8667, "\u0120Robinson": 8668, "\u0120trading": 8669, "\u0120Chand": 8670, "\u0120Gri": 8671, "\u0120demolished": 8672, "\u0120Marshall": 8673, "olds": 8674, "\u0120Economic": 8675, "\u0120tell": 8676, "\u0120Kan": 8677, "\u0120Distribution": 8678, "\u0120encouraged": 8679, "\u0120boats": 8680, "\u0120understand": 8681, "\u0120Mond": 8682, "estone": 8683, "\u0120Thailand": 8684, "\u0120Muham": 8685, "\u0120versus": 8686, "\u0120venue": 8687, "\u0120Venezuel": 8688, "\u0120periods": 8689, "\u0120Fel": 8690, "\u0120Mong": 8691, "\u0120celeb": 8692, "\u0120excell": 8693, "\u0120Hend": 8694, "antasy": 8695, "\u0120discovery": 8696, "struct": 8697, "\u0120inner": 8698, "ashed": 8699, "\u0120Belgian": 8700, "otton": 8701, "\u0120supplies": 8702, "stic": 8703, "din": 8704, "\u0120diameter": 8705, "\u0120mo": 8706, "\u0120battles": 8707, "\u0120longest": 8708, "\u0120domain": 8709, "\u0120Heb": 8710, "\u0120missions": 8711, "\u0120Cole": 8712, "\u0120Tax": 8713, "57": 8714, "\u0120tact": 8715, "\u0120Every": 8716, "\u0120regime": 8717, "\u0120Fried": 8718, "\u0120wine": 8719, "\u0120mir": 8720, "\u0120Place": 8721, "\u0120gradually": 8722, "\u0120satellite": 8723, "\u01201899": 8724, "iterranean": 8725, "\u0120unusual": 8726, "\u0120worship": 8727, "\u0120Chem": 8728, "\u0120dang": 8729, "\u0120begun": 8730, "\u01201860": 8731, "ouver": 8732, "\u0120Racing": 8733, "ocol": 8734, "\u0120Stanley": 8735, "\u0120NBC": 8736, "\u0120Gor": 8737, "\u0120dialect": 8738, "\u0120operational": 8739, "\u0120phone": 8740, "\u0120Frid": 8741, "\u0120concerned": 8742, "\u0120AR": 8743, "\u0120Trophy": 8744, "esc": 8745, "oples": 8746, "leans": 8747, "\u0120horses": 8748, "\u0120spending": 8749, "onomy": 8750, "izon": 8751, "ricane": 8752, "\u0120AP": 8753, "\u0120stress": 8754, "For": 8755, "\u0120tow": 8756, "contin": 8757, "\u0120writes": 8758, "97": 8759, "\u0120Utah": 8760, "\u0120defending": 8761, "\u0120Compet": 8762, "\u0120abroad": 8763, "\u0120illness": 8764, "rama": 8765, "\u0120relationships": 8766, "\u0120Cricket": 8767, "\u0120colony": 8768, "pop": 8769, "\u0120beach": 8770, "bean": 8771, "\u0120cabinet": 8772, "umbent": 8773, "keeper": 8774, "cm": 8775, "\u0120Germans": 8776, "ivate": 8777, "\u0120reportedly": 8778, "ingly": 8779, "\u0120sentenced": 8780, "\u0120nav": 8781, "ersed": 8782, "\u0120exists": 8783, "terior": 8784, "\u0120Emer": 8785, "ancell": 8786, "\u0120statue": 8787, "\u0120afterwards": 8788, "\u0120claiming": 8789, "\u0120Gener": 8790, "\u0120astron": 8791, "\u0120Constant": 8792, "\u0120agencies": 8793, "\u0120participants": 8794, "\u0120competitive": 8795, "icon": 8796, "ls": 8797, "\u0120concerts": 8798, "iop": 8799, "\u0120safe": 8800, "\u0120producers": 8801, "\u0120rif": 8802, "\u0120FIFA": 8803, "\u0120CBS": 8804, "\u0120Draft": 8805, "\u0120supports": 8806, "\u0120Canal": 8807, "zi": 8808, "\u0120soul": 8809, "\u0120missed": 8810, "\u0120everything": 8811, "\u0120Azerbai": 8812, "amo": 8813, "andal": 8814, "\u0120printed": 8815, "erted": 8816, "mates": 8817, "\u0120Mack": 8818, "\u0120makeup": 8819, "\u0120Glasgow": 8820, "rang": 8821, "No": 8822, "\u0120instrumental": 8823, "\u0120Friend": 8824, "\u0120Portland": 8825, "\u0120governments": 8826, "\u0120toured": 8827, "\u0120schedule": 8828, "orus": 8829, "\u0120turning": 8830, "\u0120Sin": 8831, "\u0120immediate": 8832, "\u0120relocated": 8833, "\u0120tribut": 8834, "\u0120Carib": 8835, "oom": 8836, "\u0120amongst": 8837, "\u0120subd": 8838, "irds": 8839, "rov": 8840, "istical": 8841, "\u0120Arkansas": 8842, "\u0120cul": 8843, "\u0120sudden": 8844, "\u0120Treaty": 8845, "pha": 8846, "\u0120urg": 8847, "\u0120marketing": 8848, "\u0120Orleans": 8849, "\u0120wrong": 8850, "\u0120Wa": 8851, "\u0120Soon": 8852, "\u0120Windows": 8853, "\u0120Natural": 8854, "\u0120sustain": 8855, "fielder": 8856, "\u0120Graham": 8857, "\u0120characterized": 8858, "\u0120absence": 8859, "lie": 8860, "rub": 8861, "\u0120mathematics": 8862, "ned": 8863, "rank": 8864, "\u0120Apple": 8865, "include": 8866, "\u0120territories": 8867, "\u0120ratio": 8868, "\u0120poems": 8869, "\u0120Finnish": 8870, "\u0120useful": 8871, "\u0120opportunities": 8872, "\u0120percentage": 8873, "\u0120recovered": 8874, "cut": 8875, "\u0120predecess": 8876, "\u0120inaugural": 8877, "iration": 8878, "archy": 8879, "2000": 8880, "\u0120thousand": 8881, "opal": 8882, "\u0120external": 8883, "\u0120aimed": 8884, "\u0120Indians": 8885, "\u0120Never": 8886, "\u0120Record": 8887, "\u0120Kon": 8888, "such": 8889, "Com": 8890, "\u0120cancelled": 8891, "\u0120tempor": 8892, "\u0120viewed": 8893, "\u0120behalf": 8894, "\u0120Egyptian": 8895, "encing": 8896, "antine": 8897, "\u0120Brist": 8898, "\u0120Richmond": 8899, "\u0120gone": 8900, "\u0120benefits": 8901, "\u0120Sign": 8902, "\u0120Publ": 8903, "\u0120channels": 8904, "\u0120loyal": 8905, "\u0120send": 8906, "\u0120attending": 8907, "ML": 8908, "later": 8909, "\u0120Py": 8910, "\u0120compilation": 8911, "\u0120commanded": 8912, "\u0120Food": 8913, "\u0120categories": 8914, "\u0120publicly": 8915, "\u0120Defence": 8916, "\u0120grey": 8917, "\u0120indigenous": 8918, "\u0120exceed": 8919, "usalem": 8920, "\u0120Christopher": 8921, "onian": 8922, "\u0120Nord": 8923, "\u0120Rud": 8924, "tes": 8925, "\u0120extent": 8926, "bound": 8927, "\u0120Pad": 8928, "tical": 8929, "\u01201896": 8930, "\u0120Mediterranean": 8931, "\u0120tribe": 8932, "\u0120Ult": 8933, "ricted": 8934, "elected": 8935, "\u0120Vic": 8936, "\u0120contribution": 8937, "\u0120lock": 8938, "hythm": 8939, "\u0120Story": 8940, "archers": 8941, "\u0120descent": 8942, "\u0120hearing": 8943, "\u0120Milan": 8944, "\u0120frequent": 8945, "\u0120yield": 8946, "94": 8947, "\u0120Capital": 8948, "Ad": 8949, "\u0120planet": 8950, "\u0120protests": 8951, "\u0120().": 8952, "ME": 8953, "cour": 8954, "\u0120phr": 8955, "\u0120Serbia": 8956, "\u0120friendly": 8957, "\u0120worksh": 8958, "\u0120passage": 8959, "\u0120anch": 8960, "\u0120Hum": 8961, "\u0120duo": 8962, "ilty": 8963, "NC": 8964, "\u0120Angl": 8965, "\u0120Madrid": 8966, "\u0120AS": 8967, "\u0120switch": 8968, "olia": 8969, "\u0120discip": 8970, "\u0120identify": 8971, "\u0120advertising": 8972, "\u0120none": 8973, "\u0120highlight": 8974, "asi": 8975, "\u0120styles": 8976, "\u0120thing": 8977, "\u0120customers": 8978, "\u0120Hampshire": 8979, "\u0120Dub": 8980, "fare": 8981, "\u0120Scient": 8982, "\u0120Books": 8983, "\u0120wrest": 8984, "oven": 8985, "\u0120Bes": 8986, "\u0120chamber": 8987, "\u0120Veg": 8988, "\u0120Norm": 8989, "oba": 8990, "\u0120Until": 8991, "tha": 8992, "\u0120agents": 8993, "high": 8994, "\u0120Romanian": 8995, "\u0120constitution": 8996, ".'": 8997, "\u0120creative": 8998, "\u0120Tower": 8999, "\u0120substantial": 9000, "\u0120rebuilt": 9001, "\u0120researchers": 9002, "\u0120Afghanistan": 9003, "\u0120Ald": 9004, "\u0120dub": 9005, "\u0120Yorkshire": 9006, "\u0120scholar": 9007, "\u0120cable": 9008, "\u0120Serbian": 9009, "\u0120conservation": 9010, "\u0120Motor": 9011, "\u0120Cultural": 9012, "gie": 9013, "\u0120indicate": 9014, "\u01201895": 9015, "\u0120Muhammad": 9016, "\u0120casual": 9017, "ni": 9018, "\u0120transmission": 9019, "\u0120proc": 9020, "\u0120enjoyed": 9021, "iah": 9022, "\u0120tribes": 9023, "\u0120construct": 9024, "\u0120Nigeria": 9025, "\u0120Jimmy": 9026, "\u0120Limited": 9027, "\u0120facing": 9028, "nce": 9029, "\u0120releases": 9030, "\u0120organised": 9031, "soft": 9032, "93": 9033, "ocratic": 9034, "\u0120hal": 9035, "\u00e0\u00b8": 9036, "style": 9037, "\u0120EU": 9038, "\u0120Dance": 9039, "\u0120borders": 9040, "\u0120SC": 9041, "\u0120spaces": 9042, "ancouver": 9043, "\u0120ceased": 9044, "\u0120processing": 9045, "\u0120bacter": 9046, "\u0120adults": 9047, "\u0120Knight": 9048, "erk": 9049, "\u0120commented": 9050, "\u01201897": 9051, "\u0120Mem": 9052, "\u0120apply": 9053, "\u0120dominated": 9054, "\u0120disband": 9055, "acre": 9056, "\u0120crash": 9057, "eor": 9058, "\u0120wars": 9059, "\u0120sees": 9060, "\u0120Catal": 9061, "\u0120mode": 9062, "\u0120Lud": 9063, "\u0120Unit": 9064, "\u0120wet": 9065, "mers": 9066, "\u0120foss": 9067, "\u0120Again": 9068, "\u0120Appe": 9069, "ijing": 9070, "mentary": 9071, "\u0120audio": 9072, "athy": 9073, "\u0120easy": 9074, "\u0120Rest": 9075, "onlyinclude": 9076, "\u0120SS": 9077, "\u0120regul": 9078, "\u0120Nad": 9079, "\u0120Bris": 9080, "\u0120volumes": 9081, "\u0120sentence": 9082, "\u0120Lanka": 9083, "\u0120Kit": 9084, "\u0120patrol": 9085, "illo": 9086, "\u0120Dra": 9087, "\u0120funded": 9088, "iri": 9089, "\u0120voters": 9090, "\u0120affiliated": 9091, "\u0120Delhi": 9092, "\u0120normally": 9093, "usk": 9094, "orporated": 9095, "\u0120insurance": 9096, "cribed": 9097, "\u0120sponsored": 9098, "\u0120merchant": 9099, "\u0120fictional": 9100, "\u0120Manh": 9101, "\u0120picked": 9102, "\u0120Athletics": 9103, "eria": 9104, "\u0120restoration": 9105, "\u0120Fall": 9106, "issue": 9107, "\u0120bid": 9108, "\u0120Bernard": 9109, "\u0120phenomen": 9110, "iture": 9111, "\u0120apparently": 9112, "orous": 9113, "\u0120ranks": 9114, "\u0120Nam": 9115, "\u0120Transportation": 9116, "\u0120broadcasting": 9117, "zes": 9118, "ashi": 9119, "\u0120athletes": 9120, "\u0120implemented": 9121, "\u0120Chang": 9122, "\u0120Such": 9123, "\u0120Girls": 9124, "\u0120facilit": 9125, "\u0120Princess": 9126, "atur": 9127, "\u0120dual": 9128, "\u0120YouT": 9129, "\u0120fur": 9130, "nik": 9131, "\u0120stable": 9132, "84": 9133, "\u0120CA": 9134, "\u0120earning": 9135, "\u0120detailed": 9136, "\u0120Maj": 9137, "oga": 9138, "\u0120param": 9139, "\u0120corporate": 9140, "\u0120premiere": 9141, "\u0120seeking": 9142, "rock": 9143, "\u0120Ship": 9144, "language": 9145, "\u0120nearest": 9146, "\u0120integrated": 9147, "lace": 9148, "\u0120Rena": 9149, "ouses": 9150, "\u0120Hell": 9151, "\u0120Start": 9152, "atab": 9153, "\u0120viewers": 9154, "\u0120Bomb": 9155, "\u0120Dh": 9156, "phan": 9157, "\u0120infl": 9158, "ducted": 9159, "\u0120depict": 9160, "obi": 9161, "emed": 9162, "\u0120belonged": 9163, "\u0120grandfather": 9164, "\u0120Benj": 9165, "\u0120rescue": 9166, "\u0120component": 9167, "cht": 9168, "\u0120patient": 9169, "\u0120Honours": 9170, "anner": 9171, "ewhere": 9172, "\u0120mounted": 9173, "\u0120conservative": 9174, "\u012054": 9175, "\u0120pod": 9176, "\u0120pure": 9177, "\u0120opponents": 9178, "\u0120Bengal": 9179, "\u0120Jerusalem": 9180, "\u0120struggle": 9181, "RS": 9182, "\u0120significance": 9183, "\u0120Anti": 9184, "ounsel": 9185, "\u0120Gill": 9186, "commun": 9187, "\u0120deployed": 9188, "\u0120Sax": 9189, "leton": 9190, "\u0120Historical": 9191, "\u0120experimental": 9192, "\u0120responded": 9193, "87": 9194, "ussian": 9195, "geon": 9196, "\u0120secured": 9197, "\u0120credits": 9198, "\u0120Voiv": 9199, "iph": 9200, "\u0120Having": 9201, "\u0120principles": 9202, "\u0120Vancouver": 9203, "rove": 9204, "\u0120Initially": 9205, "\u0120Benn": 9206, "\u0120Cass": 9207, "\u0120;": 9208, "eta": 9209, "\u0120Neb": 9210, "\u0120possession": 9211, "\u0120swit": 9212, "\u0120excav": 9213, "abil": 9214, "\u0120Warner": 9215, "\u0120truth": 9216, "\u0120sympt": 9217, "LS": 9218, "\u0120inse": 9219, "\u0120Jun": 9220, "\u0120lap": 9221, "\u0120Hold": 9222, "ulum": 9223, "\u0120Rav": 9224, "Wh": 9225, "\u0120resemb": 9226, "oni": 9227, "brid": 9228, "\u0120Evans": 9229, "\u0120Wrestling": 9230, "07": 9231, "\u0120drugs": 9232, "91": 9233, "castle": 9234, "len": 9235, "uits": 9236, "\u0120rout": 9237, "\u0120Mans": 9238, "\u0120leaf": 9239, "\u0120Carlos": 9240, "\u0120Rico": 9241, "\u0120intent": 9242, "\u0120abuse": 9243, "\u0120holid": 9244, "\u0120Hispanic": 9245, "\u0120ninth": 9246, "minute": 9247, "\u01201893": 9248, "\u0120excess": 9249, "\u0120Dark": 9250, "\u0120simultane": 9251, "\u0120conj": 9252, "\u0120const": 9253, "\u0120wat": 9254, "\u0120Nev": 9255, "\u0120runner": 9256, "igs": 9257, "\u0120Ent": 9258, "\u0120wants": 9259, "\u0120subsidiary": 9260, "\u0120vast": 9261, "\u0120assets": 9262, "mund": 9263, "bane": 9264, "\u0120produces": 9265, "sequently": 9266, "\u0120Bristol": 9267, "\u0120Billy": 9268, "\u0120doubles": 9269, "\u0120monitor": 9270, "\u0120substitute": 9271, "\u0120invent": 9272, "\u0120destruction": 9273, "riel": 9274, "\u0120strict": 9275, "\u0120scientists": 9276, "reck": 9277, "\u0120possibility": 9278, "\u0120everyone": 9279, "\u00c3\u0142": 9280, "\u0120apartment": 9281, "\u0120250": 9282, "\u0120settlers": 9283, "care": 9284, "pm": 9285, "\u0120DJ": 9286, "Am": 9287, "iveness": 9288, "\u0120partially": 9289, "eo": 9290, "arks": 9291, "fers": 9292, "\u0120Conn": 9293, "gorith": 9294, "\u0120Bud": 9295, "ohn": 9296, "plicit": 9297, "\u0120nurs": 9298, "\u0120Throughout": 9299, "\u0120publisher": 9300, "\u0120electron": 9301, "\u0120string": 9302, "\u0120Winn": 9303, "\u0120Rol": 9304, "\u0120businessman": 9305, "away": 9306, "\u0120ready": 9307, "ulu": 9308, "05": 9309, "\u0120activist": 9310, "iac": 9311, "\u0120immigrants": 9312, "uble": 9313, "\u0120junction": 9314, "\u0120wel": 9315, "\u0120exposed": 9316, "\u0120hope": 9317, "\u0120movies": 9318, "\u0120congreg": 9319, "fam": 9320, "\u0120partly": 9321, "\u0120Net": 9322, "arked": 9323, "Ex": 9324, "\u0120revenue": 9325, "\u0120Eston": 9326, "\u00d0\u00be": 9327, "\u0120dismissed": 9328, "odeship": 9329, "\u0120Mitchell": 9330, "\u0120Mort": 9331, "\u0120talent": 9332, "\u0120coalition": 9333, "otal": 9334, "\u0120qualify": 9335, "\u0120concentration": 9336, "agre": 9337, "\u0120palace": 9338, "arma": 9339, "\u0120coaching": 9340, "\u0120Cher": 9341, "ivan": 9342, "\u0120Warren": 9343, "\u0120Aqu": 9344, "\u0120attorney": 9345, "\u0120discussed": 9346, "\u01201889": 9347, "ceived": 9348, "\u0120liberal": 9349, "Col": 9350, "\u0120patron": 9351, "\u0120CP": 9352, "\u0120kit": 9353, "DC": 9354, "TE": 9355, "\u0120Luther": 9356, "\u0120roots": 9357, "scale": 9358, "\u0120matters": 9359, "2010": 9360, "fire": 9361, "\u0120Guy": 9362, "\u0120provision": 9363, "\u0120Bible": 9364, "reprene": 9365, "\u0120municipalities": 9366, "\u0120Wing": 9367, "\u01201894": 9368, "\u0120Rain": 9369, "\u0120wedding": 9370, "\u0120Code": 9371, "\u0120drafted": 9372, "\u0120choose": 9373, "\u01201892": 9374, "\u0120Grade": 9375, "abet": 9376, "\u0120NHL": 9377, "\u0120partners": 9378, "\u0120displayed": 9379, "\u0120texts": 9380, "\u0120provinces": 9381, "\u0120completing": 9382, "acks": 9383, "\u0120extreme": 9384, "fecture": 9385, "irates": 9386, "endar": 9387, "'ve": 9388, "\u0120debt": 9389, "\u0120driven": 9390, "\u012053": 9391, "81": 9392, "acts": 9393, "\u0120cann": 9394, "\u0120Sultan": 9395, "\u0120civilian": 9396, "\u0120interpre": 9397, "\u0120initiative": 9398, "\u0120establishing": 9399, "\u0120Chel": 9400, "ennial": 9401, "\u0120YouTube": 9402, "pent": 9403, "\u0120Fine": 9404, "resident": 9405, "hour": 9406, "\u0120withdrew": 9407, "\u0120ongoing": 9408, "\u0120Hud": 9409, "\u0120scholarship": 9410, "\u0120honorary": 9411, "\u0120Jama": 9412, "\u0120Reform": 9413, "\u0120keeping": 9414, "\u0120Monte": 9415, "\u0120farmers": 9416, "atin": 9417, "\u0120migr": 9418, "\u0120locally": 9419, "\u0120explo": 9420, "arged": 9421, "\u0120Ko": 9422, "\u0120Ins": 9423, "OR": 9424, "\u012a\u0134": 9425, "closed": 9426, "\u0120:": 9427, "\u0120file": 9428, "usc": 9429, "\u0120steps": 9430, "\u0120Voivodeship": 9431, "\u0120speaking": 9432, "\u0120Commissioner": 9433, "\u0120Arena": 9434, "\u0120gate": 9435, "\u00c8\u013b": 9436, "fish": 9437, "\u0120outer": 9438, "eters": 9439, "unc": 9440, "\u0120Section": 9441, "avan": 9442, "\u0120parent": 9443, "enger": 9444, "\u0120Kum": 9445, "\u0120intellectual": 9446, "gate": 9447, "stad": 9448, "\u0120Fitz": 9449, "\u0120Communications": 9450, "jab": 9451, "\u0120Benjamin": 9452, "\u0120beautiful": 9453, "\u01201000": 9454, "\u0120congress": 9455, "\u0120generated": 9456, "\u0120swimming": 9457, "82": 9458, "\u0120cemetery": 9459, "\u0120asks": 9460, "ensis": 9461, "\u0120statistics": 9462, "\u0120MA": 9463, "\u01201885": 9464, "\u0120borough": 9465, "\u0120Manhattan": 9466, "83": 9467, "\u0120Has": 9468, "You": 9469, "\u0120Tele": 9470, "\u0120rated": 9471, "\u0120signs": 9472, "ju": 9473, "\u0120Arabic": 9474, "\u0120Ivan": 9475, "\u0120pursue": 9476, "\u0120Gary": 9477, "\u0120bon": 9478, "\u0120Tun": 9479, "\u0120Beijing": 9480, "ingham": 9481, "\u0120legs": 9482, "\u0120assemb": 9483, "\u0120judges": 9484, "urers": 9485, "\u01201850": 9486, "\u0120Shang": 9487, "\u0120repair": 9488, "eenth": 9489, "\u0120Salv": 9490, "\u0120charity": 9491, "\u0120Conserv": 9492, "\u0120traditions": 9493, "\u0120gay": 9494, "onymous": 9495, "\u0120Michel": 9496, "\u0120personality": 9497, "West": 9498, "\u012056": 9499, "lik": 9500, "cover": 9501, "alia": 9502, "\u0120Results": 9503, "\u0120sailed": 9504, "borne": 9505, "gthen": 9506, "rose": 9507, "NS": 9508, "\u0120Caribbean": 9509, "\u0120ocean": 9510, "\u0120merger": 9511, "\u0120touring": 9512, "\u0120Maine": 9513, "\u0120neck": 9514, "\u0120Andy": 9515, "\u0120diverse": 9516, "gun": 9517, "\u0120Jason": 9518, "\u0120Fr": 9519, "\u0120trap": 9520, "\u0120initiated": 9521, "\u0120honors": 9522, "\u0120alcohol": 9523, "\u0120imperial": 9524, "\u0120unsuccessful": 9525, "net": 9526, "uki": 9527, "folk": 9528, "\u0120liquid": 9529, "\u0120Ghana": 9530, "ww": 9531, "\u0120Harrison": 9532, "owed": 9533, "igg": 9534, "\u0120throne": 9535, "\u0120outbreak": 9536, "\u0120Nation": 9537, "\u0120neither": 9538, "\u0120terminus": 9539, "\u0120exclusively": 9540, "\u0120Mes": 9541, "\u0120Wang": 9542, "\u0120relation": 9543, "\u0120Students": 9544, "iciency": 9545, "\u0120Baker": 9546, "\u0120dispute": 9547, "inental": 9548, "\u0120terminal": 9549, "olition": 9550, "\u0120Obs": 9551, "\u0120sculpture": 9552, "\u0120Municipal": 9553, "\u01201891": 9554, "\u0120Steel": 9555, "\u00c3\u00a9n": 9556, "\u0120desire": 9557, "\u0120rising": 9558, "\u0120Burg": 9559, "\u0120Floren": 9560, "\u0120regulations": 9561, "oda": 9562, "\u0120weekend": 9563, "\u0120compens": 9564, "uru": 9565, "aku": 9566, "\u0120focuses": 9567, "\u0120anyone": 9568, "\u0120Rangers": 9569, "\u0120Broadcasting": 9570, "\u0120advice": 9571, "\u0120Barry": 9572, "\u0120tunnel": 9573, "\u0120What": 9574, "\u0120weapon": 9575, "\u0120closer": 9576, "\u0120Iv": 9577, "\u0120licensed": 9578, "\u0120Father": 9579, "\u0120remove": 9580, "\u0120Cart": 9581, "\u0120playoffs": 9582, "\u0120evac": 9583, "\u0120labour": 9584, "\u0120Adela": 9585, "\u0120reven": 9586, "\u0120eldest": 9587, "\u0120Johnny": 9588, "\u0120index": 9589, "\u0120Princip": 9590, "\u0120Zone": 9591, "vision": 9592, "\u0120Former": 9593, "itual": 9594, "type": 9595, "\u0120minority": 9596, "\u0120Last": 9597, "\u0120mines": 9598, "\u0120Persian": 9599, "\u0120sessions": 9600, "\u0120animated": 9601, "\u0120escort": 9602, "\u0120Furthermore": 9603, "uable": 9604, "\u0120resort": 9605, "300": 9606, "hum": 9607, "\u0120assisted": 9608, "\u0120Together": 9609, "\u0120hat": 9610, "\u0120timber": 9611, "\u0120Carm": 9612, "\u01201888": 9613, "\u0120guilty": 9614, "\u0120falling": 9615, "rot": 9616, "\u0120Tib": 9617, "\u0120Greater": 9618, "\u0120Tol": 9619, "\u0120lowest": 9620, "\u0120communications": 9621, "\u0120wire": 9622, "acht": 9623, "weet": 9624, "\u0120electrical": 9625, "\u0120Psych": 9626, "\u0120references": 9627, "\u0120Parish": 9628, "\u0120earthqu": 9629, "\u0120ther": 9630, "\u0120margin": 9631, "\u0120jum": 9632, "bel": 9633, "\u0120Electric": 9634, "\u0120cash": 9635, "ancellor": 9636, "\u0120Schol": 9637, "\u0120circumstances": 9638, "\u0120IC": 9639, "\u0120Allied": 9640, "\u0120limits": 9641, "\u0120Therefore": 9642, "\u0120requested": 9643, "\u0120demonstrated": 9644, "\u0120appropriate": 9645, "azines": 9646, "\u0120Baptist": 9647, "\u0120mor": 9648, "\u0120Kos": 9649, "\u0120Guinea": 9650, "athered": 9651, "\u0120submitted": 9652, "\u0120Tob": 9653, "\u0120Eug": 9654, "06": 9655, "\u0120Trail": 9656, "making": 9657, "\u0120Seven": 9658, "\u0120essential": 9659, "body": 9660, "\u0120alliance": 9661, "\u0120patterns": 9662, "roph": 9663, "\u0120battalion": 9664, "\u0120Iranian": 9665, "\u0120Muslims": 9666, "\u0120balance": 9667, "ugs": 9668, "align": 9669, "\u0120trials": 9670, "\u0120Falls": 9671, "\u0120romantic": 9672, "\u0120solar": 9673, "omes": 9674, "\u00c3\u00b6r": 9675, "uper": 9676, "\u0120conclusion": 9677, "\u0120deck": 9678, "\u0120underw": 9679, "ffect": 9680, "\u0120Attorney": 9681, "\u0120treaty": 9682, "\u0120decisions": 9683, "\u0120Verm": 9684, "\u0120connecting": 9685, "\u0120NS": 9686, "\u0120discontin": 9687, "\u0120serial": 9688, "\u0120increases": 9689, "ser": 9690, "\u0120Municipality": 9691, "\u0120lose": 9692, "\u0120principle": 9693, "case": 9694, "\u0120upgrad": 9695, "\u0120Nicholas": 9696, "\u0120moves": 9697, "\u0120decides": 9698, "\u0120Clinton": 9699, "\u0120Branch": 9700, "\u0120impress": 9701, "hill": 9702, "\u0120Vel": 9703, "\u0120doesn": 9704, "\u0120Pav": 9705, "\u0120false": 9706, "\u0120isolated": 9707, "agar": 9708, "\u0120closing": 9709, "\u0120fold": 9710, "elect": 9711, "abor": 9712, "\u0120legislative": 9713, "BM": 9714, "\u0120rub": 9715, "unct": 9716, "\u0120stim": 9717, "itable": 9718, "\u0120Late": 9719, "\u0120editions": 9720, "\u0120bright": 9721, "\u0120Phoen": 9722, "\u00c5\u0141": 9723, "\u0120Orange": 9724, "\u0120Standard": 9725, "\u0120wrestling": 9726, "\u0120Lad": 9727, "\u0120PhD": 9728, "mediate": 9729, "amese": 9730, "\u0120hypot": 9731, "\u0120organis": 9732, "\u0120Ug": 9733, "\u0120involves": 9734, "maker": 9735, "aton": 9736, "acle": 9737, "arus": 9738, "\u0120acknowled": 9739, "\u0120Byz": 9740, "\u0120shock": 9741, "\u0120Wayne": 9742, "\u01201865": 9743, "\u0120traded": 9744, "\u0120reduction": 9745, "\u0120clinical": 9746, "\u0120convin": 9747, "\u0120crossed": 9748, "aran": 9749, "\u0120stem": 9750, "\u0120productions": 9751, "\u0120\u00e2\u0124": 9752, "empt": 9753, "\u0120algorith": 9754, "\u0120Digital": 9755, "uction": 9756, "\u0120wearing": 9757, "\u0120beating": 9758, "\u0120influences": 9759, "\u0120Om": 9760, "\u0120banned": 9761, "\u0120Tang": 9762, "OM": 9763, "flow": 9764, "ching": 9765, "\u0120Mess": 9766, "\u0120Face": 9767, "\u0120fighter": 9768, "\u0120indicates": 9769, "\u0120crimes": 9770, "\u0120surve": 9771, "\u0120travelled": 9772, "\u00e2\u0122\u013f.": 9773, "\u0120profit": 9774, "\u0120Frances": 9775, "\u0120Mi": 9776, "\u0120Charlotte": 9777, "\u0120Challenge": 9778, "eign": 9779, "\u0120Trinity": 9780, "\u0120Hawaii": 9781, "\u0120Legacy": 9782, "\u00c5\u00be": 9783, "\u0120reveals": 9784, "\u0120Pradesh": 9785, "\u0120housed": 9786, "\u0120Peninsula": 9787, "\u0120Near": 9788, "\u01201864": 9789, "\u0120Tu": 9790, "quir": 9791, "\u0120camps": 9792, "\u0120Ru": 9793, "onds": 9794, "\u0120Bron": 9795, "\u0120torn": 9796, "bes": 9797, "\u0120persu": 9798, "\u0120boundaries": 9799, "\u0120electricity": 9800, "chers": 9801, "\u0120Goth": 9802, "\u0120Grad": 9803, "\u0120Abdul": 9804, "\u0120locomotives": 9805, "\u0120cargo": 9806, "\u0120connections": 9807, "\u0120suitable": 9808, "certain": 9809, "2011": 9810, "\u0120compla": 9811, "\u0120Adelaide": 9812, "\u0120originated": 9813, "\u0120Glen": 9814, "\u0120Griff": 9815, "\u0120clearly": 9816, "\u0120continuous": 9817, "\u0120Maced": 9818, "\u0120Mars": 9819, "ouncill": 9820, "\u0120Much": 9821, "\u0120Gray": 9822, "\u0120internationally": 9823, "akia": 9824, "\u0120charter": 9825, "\u0120Assistant": 9826, "\u0120operator": 9827, "sters": 9828, "anim": 9829, "\u0120negotiations": 9830, "boy": 9831, "\u0120origins": 9832, "\u0120emperor": 9833, "\u0120bay": 9834, "\u0120strategic": 9835, "amics": 9836, "\u0120mechanism": 9837, "rehensive": 9838, "\u0120Ice": 9839, "HA": 9840, "\u0120else": 9841, "idal": 9842, "\u0120jurisdiction": 9843, "\u0120survive": 9844, "01": 9845, "WA": 9846, "\u0120radical": 9847, "\u0120Studio": 9848, "\u0120notice": 9849, "achment": 9850, "\u0120agree": 9851, "\u0120Peru": 9852, "\u0120sight": 9853, "\u0120thereafter": 9854, "\u0120coff": 9855, "\u0120drummer": 9856, "\u0120Syria": 9857, "\u0120fitted": 9858, "\u0120discrim": 9859, "\u0120grows": 9860, "foot": 9861, "ario": 9862, "pany": 9863, "\u0120strengthen": 9864, "celand": 9865, "\u0120Advis": 9866, "\u0120arrangement": 9867, "\u0120opponent": 9868, "\u0120dominant": 9869, "\u01201861": 9870, "\u0120physics": 9871, "issions": 9872, "\u0120Universal": 9873, "\u0120Pierre": 9874, "\u0120settlements": 9875, "\u0120Lead": 9876, "\u0120breaking": 9877, "itime": 9878, "\u0120clothing": 9879, "\u0120Vas": 9880, "\u01201887": 9881, "\u0120spin": 9882, "\u0120temperatures": 9883, "\u0120Parker": 9884, "\u0120Mult": 9885, "\u0120Cuba": 9886, "\u0120Charlie": 9887, "\u0120Obl": 9888, "\u0120monastery": 9889, "\u0120soldier": 9890, "\u0120marry": 9891, "\u0120Ric": 9892, "\u0120jury": 9893, "\u0120Comple": 9894, "onies": 9895, "\u0120comed": 9896, "\u0120overseas": 9897, "acc": 9898, "May": 9899, "\u0120exhibited": 9900, "viously": 9901, "\u0120reorgan": 9902, "\u012057": 9903, "\u0120Buffalo": 9904, "\u0120spr": 9905, "ipped": 9906, "\u0120golf": 9907, "itis": 9908, "iour": 9909, "cient": 9910, "\u0120Gmina": 9911, "\u0120photography": 9912, "\u0120prest": 9913, "\u0120cattle": 9914, "\u0120Philippine": 9915, "\u0120Ian": 9916, "\u0120mac": 9917, "\u0120Symph": 9918, "\u0120cinema": 9919, "\u0120seeing": 9920, "\u01201862": 9921, "\u0120Ref": 9922, "\u0120recognised": 9923, "\u0120eligible": 9924, "\u0120conversion": 9925, "\u0120helicop": 9926, "fly": 9927, "\u0120Gaz": 9928, "\u0120superior": 9929, "ifies": 9930, "\u0120manif": 9931, "\u0120constitutional": 9932, "nex": 9933, "Category": 9934, "\u01201863": 9935, "\u00c3\u00a8re": 9936, "\u0120respective": 9937, "\u0120Abbey": 9938, "oded": 9939, "\u0120tort": 9940, "\u0120expand": 9941, "tr": 9942, "\u0120Tak": 9943, "\u0120Jenn": 9944, "\u0120Alberta": 9945, "\u0120manufactured": 9946, "uka": 9947, "\u0120Years": 9948, "\u0120pull": 9949, "family": 9950, "\u0120Socialist": 9951, "\u0120gard": 9952, "\u0120wealthy": 9953, "overeign": 9954, "andy": 9955, "\u0120Munich": 9956, "opes": 9957, "\u0120Vlad": 9958, "\u0120doors": 9959, "\u0120festivals": 9960, "iliar": 9961, "aja": 9962, "\u0120Brisbane": 9963, "\u0120sang": 9964, "\u0120eat": 9965, "\u0120Cha": 9966, "\u0120Latino": 9967, "\u0120Soccer": 9968, "\u0120\"[": 9969, "\u0120Josh": 9970, "\u0120sisters": 9971, "\u00d0\u00b8": 9972, "iya": 9973, "\u0120Armenian": 9974, "\u0120campaigns": 9975, "PR": 9976, "\u0120manage": 9977, "\u0120download": 9978, "\u0120drivers": 9979, "\u0120acquisition": 9980, "\u0120permission": 9981, "\u0120Poly": 9982, "\u0120Alice": 9983, "via": 9984, "\u0120MS": 9985, "\u0120Model": 9986, "\u0120propag": 9987, "incorporated": 9988, "apping": 9989, "mont": 9990, "\u0120diver": 9991, "\u0120fifteen": 9992, "\u0120marks": 9993, "\u0120600": 9994, "incinn": 9995, "\u0120colors": 9996, "\u0120defended": 9997, "\u0120Hunter": 9998, "assy": 9999, "eton": 10000, "\u0120input": 10001, "iler": 10002, "formance": 10003, "\u0120Conservation": 10004, "\u0120Pant": 10005, "\u0120Control": 10006, "\u0120linear": 10007, "\u0120Lis": 10008, "\u0120tanks": 10009, "\u0120Isa": 10010, "\u0120orchestra": 10011, "\u0120Amaz": 10012, "\u0120Barcel": 10013, "\u0120implementation": 10014, "inos": 10015, "\u0120rect": 10016, "ieth": 10017, "sa": 10018, "\u0120genetic": 10019, "\u0120pale": 10020, "\u0120battery": 10021, "04": 10022, "\u0120manufacturer": 10023, "othe": 10024, "\u0120eggs": 10025, "\u0120Buddhist": 10026, "\u0120Finally": 10027, "\u0120participating": 10028, "def": 10029, "\u0120Aer": 10030, "\u0120condem": 10031, "rystal": 10032, "\u0120collaborated": 10033, "elfare": 10034, "\u0120gram": 10035, "\u0120magazines": 10036, "\u0120photographs": 10037, "atar": 10038, "\u0120vul": 10039, "ixed": 10040, "\u0120ninet": 10041, "\u0120discussion": 10042, "stitutes": 10043, "2008": 10044, "\u012066": 10045, "\u0120landed": 10046, "\u0120Democrat": 10047, "rows": 10048, "\u0120Turner": 10049, "\u0120Liga": 10050, "mo": 10051, "\u0120delivery": 10052, "\u0120Mall": 10053, "aced": 10054, "\u0120gross": 10055, "ethe": 10056, "ups": 10057, "\u0120Lag": 10058, "\u0120resignation": 10059, "MI": 10060, "\u0120Industry": 10061, "incinnati": 10062, "\u01201886": 10063, "ygen": 10064, "\u0120violent": 10065, "\u012095": 10066, "works": 10067, "\u0120config": 10068, "\u0120rebell": 10069, "\u0120Democrats": 10070, "\u0120integr": 10071, "aha": 10072, "\u0120traditionally": 10073, "\u0120enrolled": 10074, "\u0120promoting": 10075, "\u0120industries": 10076, "\u0120py": 10077, ";&": 10078, "\u0120Fisher": 10079, "\u0120Century": 10080, "\u0120dangerous": 10081, "\u0120Bulgar": 10082, "\u0120Faculty": 10083, "At": 10084, "\u0120heir": 10085, "\u0120Archbishop": 10086, "\u0120mechanical": 10087, "\u0120Wes": 10088, "\u0120Ridge": 10089, "\u0120householder": 10090, "bing": 10091, "formerly": 10092, "\u0120Mak": 10093, "\u0120conventional": 10094, "\u0120petition": 10095, "\u0120flights": 10096, "\u0120Friday": 10097, "\u012072": 10098, "phew": 10099, "gener": 10100, "leyball": 10101, "\u0120hunting": 10102, "\u0120tool": 10103, "\u0120ritual": 10104, "\u0120tons": 10105, "\u0120ideal": 10106, "\u0120hear": 10107, "\u0120controll": 10108, "auge": 10109, "\u0120symptoms": 10110, "\u0120accord": 10111, "\u0120extensively": 10112, "\u0120restricted": 10113, "\u0120Operations": 10114, "Or": 10115, "2009": 10116, "\u00c3\u0141": 10117, "\u0120Urban": 10118, "\u0120rand": 10119, "\u0120preferred": 10120, "\u012058": 10121, "\u0120ties": 10122, "\u0120devoted": 10123, "\u0120departed": 10124, "\u0120Tigers": 10125, "2007": 10126, "\u0120Technical": 10127, "\u0120fab": 10128, "present": 10129, "\u0120practical": 10130, "ierra": 10131, "\u0120mos": 10132, "Can": 10133, "feld": 10134, "\u0120Anglo": 10135, "\u0120Video": 10136, "\u0120Wor": 10137, "itarian": 10138, "itional": 10139, "\u0120Saudi": 10140, "\u0120funeral": 10141, "asant": 10142, "03": 10143, "\u0120els": 10144, "\u0120salt": 10145, "\u0120managing": 10146, "oked": 10147, "\u0120Sid": 10148, "\u0120Saints": 10149, "ibilities": 10150, "zed": 10151, "zing": 10152, "erior": 10153, "\u0120alter": 10154, "\u0120exclud": 10155, "\u0120Provin": 10156, "\u0120assists": 10157, "\u0120Iceland": 10158, "\u0120twin": 10159, "\u0120fee": 10160, "\u0120surviv": 10161, "\u0120Daily": 10162, "ishers": 10163, "vi": 10164, "\u0120empt": 10165, "\u0120Punjab": 10166, "\u0120usage": 10167, "month": 10168, "\u0120Conc": 10169, "\u0120convicted": 10170, "eli": 10171, "\u0120exercise": 10172, "\u0120Territory": 10173, "\u0120Protestant": 10174, "\u0120rarely": 10175, "\u0120proteins": 10176, "\u0120Moroc": 10177, "\u0120Cad": 10178, "\u0120Pil": 10179, "\u01201884": 10180, "uez": 10181, "\u0120Nova": 10182, "\u0120elsewhere": 10183, "\u0120Coal": 10184, "\u0120describing": 10185, "\u0120bases": 10186, "alg": 10187, "onomous": 10188, "\u0120pip": 10189, "\u0120Cob": 10190, "outheastern": 10191, "game": 10192, "owski": 10193, "\u01201881": 10194, "\u0120Call": 10195, "ivic": 10196, "\u0120topics": 10197, "ulating": 10198, "\u0120rig": 10199, "\u0120Barbara": 10200, "\u0120machines": 10201, "\u0120Leeds": 10202, "\u0120Hudson": 10203, "venth": 10204, "\u0120Our": 10205, "\u0120venture": 10206, "\u0120midfielder": 10207, "\u0120Kirk": 10208, "\u0120Cincinnati": 10209, "\u0120prices": 10210, "\u0120Sr": 10211, "jection": 10212, "\u0120Minor": 10213, "holm": 10214, "\u0120Pra": 10215, "\u0120inducted": 10216, "\u0120Report": 10217, "\u0120believes": 10218, "\u0120cooperation": 10219, "\u0120pointed": 10220, "\u0120tested": 10221, "\u0120scores": 10222, "roid": 10223, "\u0120Ground": 10224, "\u0120Kap": 10225, "\u0120Dod": 10226, "\u0120wider": 10227, "\u0120caps": 10228, "\u0120accessible": 10229, "\u0120slaves": 10230, "\u0120Bour": 10231, "\u0120RAF": 10232, "\u0120Microsoft": 10233, "\u0120random": 10234, "\u0120libr": 10235, "arrier": 10236, "bus": 10237, "\u0120Barcelona": 10238, "\u0120compiled": 10239, "\u0120acres": 10240, "\u0120Campaign": 10241, "2012": 10242, "trans": 10243, "oria": 10244, "\u0120clock": 10245, "\u0120preparation": 10246, "\u0120guar": 10247, "\u0120shift": 10248, "\u0120intern": 10249, "\u0120VI": 10250, "\u0120noble": 10251, "\u0120Pon": 10252, "angular": 10253, "\u0120Alaska": 10254, "\u0120peoples": 10255, "\u0120Lov": 10256, "\u0120Dead": 10257, "otion": 10258, "\u0120transmit": 10259, "\u0120Jazz": 10260, "\u0120Springs": 10261, "rypt": 10262, "\u0120approached": 10263, "\u0120Freedom": 10264, "\u0120Hav": 10265, "\u0120CS": 10266, "\u0120Theod": 10267, "\u0120expensive": 10268, "\u0120Players": 10269, "\u0120looked": 10270, "gel": 10271, "\u012059": 10272, "\u0120reaches": 10273, "\u0120Athens": 10274, "\u0120keyboard": 10275, "\u0120Aber": 10276, "\u0120waste": 10277, "\u0120winds": 10278, "\u0120bachelor": 10279, "\u0120Commons": 10280, "\u0120Return": 10281, "\u012085": 10282, "kov": 10283, "\u0120LP": 10284, "\u0120Christians": 10285, "\u0120Fact": 10286, "\u0120avo": 10287, "\u0120ranging": 10288, "\u0120eigh": 10289, "\u0120Colombia": 10290, "\u0120Pack": 10291, "\u0120Industrial": 10292, "ivia": 10293, "\u0120tournaments": 10294, "icking": 10295, "\u0120biological": 10296, "\u0120Azerbaijan": 10297, "\u0120Plant": 10298, "\u0120Tag": 10299, "\u0120Collins": 10300, "\u0120concerning": 10301, "rez": 10302, "bin": 10303, "ospitals": 10304, "\u0120ride": 10305, "winning": 10306, "\u0120argument": 10307, "\u0120\"(": 10308, "ixon": 10309, "\u0120execution": 10310, "\u0120filming": 10311, "\u0120layer": 10312, "\u0120contributing": 10313, "\u0120resumed": 10314, "\u0120Know": 10315, "\u0120Lloyd": 10316, "\u0120Hebrew": 10317, "\u0120Hamb": 10318, "\u0120Circuit": 10319, "\u0120Stevens": 10320, "\u0120canal": 10321, "\u0120farming": 10322, "\u0120outstanding": 10323, "EE": 10324, "\u0120Speed": 10325, "\u0120nut": 10326, "occ": 10327, "Qu": 10328, "enberg": 10329, "\u0120usual": 10330, "\u0120Shel": 10331, "\u0120framework": 10332, "\u0120Pictures": 10333, "eston": 10334, "aration": 10335, "\u0120Diocese": 10336, "iginal": 10337, "\u0120ward": 10338, "\u0120Grey": 10339, "\u0120Diam": 10340, "\u0120lingu": 10341, "\u0120distribut": 10342, "RT": 10343, "\u0120surpr": 10344, "\u0120subsc": 10345, "orne": 10346, "\u0120recalled": 10347, "\u0120curren": 10348, "\u0120riding": 10349, "\u0120Stars": 10350, "\u0120corresponding": 10351, "\u0120baby": 10352, "\u0120Mason": 10353, "\u0120inspiration": 10354, "\u0120Oliver": 10355, "Pr": 10356, "\u0120Catherine": 10357, "\u0120Yang": 10358, "\u0120aqu": 10359, "\u0120Support": 10360, "\u0120Dakota": 10361, "\u0120pictures": 10362, "\u0120tribute": 10363, "\u0120Mother": 10364, "\u0120rocks": 10365, "\u0120specialized": 10366, "arv": 10367, "\u0120Lions": 10368, "stance": 10369, "\u0120depression": 10370, "\u0120Jonathan": 10371, "\u0120disch": 10372, "2006": 10373, "02": 10374, "\u0120belongs": 10375, "imir": 10376, "\u0120exposure": 10377, "\u0120Cinem": 10378, "\u0120inherited": 10379, "othy": 10380, "\u0120geomet": 10381, "eties": 10382, "\u0120Songs": 10383, "\u0120Eventually": 10384, "\u0120Fem": 10385, "\u0120Ja": 10386, "\u00c3\u00aa": 10387, "omic": 10388, "urst": 10389, "\u0120designation": 10390, "\u0120Who": 10391, "\u0120ha": 10392, "\u0120800": 10393, "\u0120Alt": 10394, "\u0120fill": 10395, "BO": 10396, "\u0120depicted": 10397, "400": 10398, "\u01201882": 10399, "bow": 10400, "\u0120subt": 10401, "asha": 10402, "\u0120unincorporated": 10403, "\u0120semif": 10404, "\u0120Christianity": 10405, "\u0120certified": 10406, "\u0120smooth": 10407, "\u0120inhib": 10408, "\u0120Language": 10409, "\u0120evolved": 10410, "\u0120Ethiop": 10411, "aba": 10412, "\u0120closure": 10413, "\u0120delayed": 10414, "\u0120Sig": 10415, "\u0120Clay": 10416, "ortion": 10417, "white": 10418, "\u0120ministry": 10419, "oj": 10420, "\u0120narrative": 10421, "\"'": 10422, "\u0120Nepal": 10423, "\u0120gast": 10424, "\u0120pages": 10425, "\u0120rum": 10426, "\u0120Action": 10427, "\u0120Currently": 10428, "\u0120ju": 10429, "\u0120resear": 10430, "\u0120arriving": 10431, "\u0120interpretation": 10432, "\u0120Advent": 10433, "\u0120victim": 10434, "\u0120dollars": 10435, "\u0120Moham": 10436, "\u0120birthday": 10437, "vol": 10438, "\u0120\u00e2\u0122\u00a2": 10439, "\u0120relegated": 10440, "rupted": 10441, "\u0120exhibitions": 10442, "\u0120difficulties": 10443, "\u0120legislature": 10444, "\u0120colleges": 10445, "\u0120Len": 10446, "lection": 10447, "\u0120Examp": 10448, "rors": 10449, "\u0120Vincent": 10450, "ean": 10451, "\u0120Borough": 10452, "\u0120Species": 10453, "\u0120sounds": 10454, "\u0120cavalry": 10455, "possible": 10456, "rooms": 10457, "\u0120historians": 10458, "enia": 10459, "\u0120identical": 10460, "\u0120incumbent": 10461, "\u0120departments": 10462, "bul": 10463, "\u0120Systems": 10464, "encer": 10465, "\u0120Small": 10466, "\u0120Loc": 10467, "\u0120interviews": 10468, "\u0120commenced": 10469, "itic": 10470, "awn": 10471, "rawn": 10472, "\u0120Males": 10473, "omon": 10474, "\u0120spend": 10475, "ogle": 10476, "\u0120Fif": 10477, "\u0120deemed": 10478, "\u0120Storm": 10479, "\u0120unlike": 10480, "\u0120shopping": 10481, "\u0120march": 10482,
[...]
